{
  "version": "1.0",
  "truncation": null,
  "padding": null,
  "added_tokens": [
    {
      "id": 0,
      "content": "[PAD]",
      "single_word": false,
      "lstrip": false,
      "rstrip": false,
      "normalized": false,
      "special": true
    },
    {
      "id": 1,
      "content": "[CLS]",
      "single_word": false,
      "lstrip": false,
      "rstrip": false,
      "normalized": false,
      "special": true
    },
    {
      "id": 2,
      "content": "[SEP]",
      "single_word": false,
      "lstrip": false,
      "rstrip": false,
      "normalized": false,
      "special": true
    },
    {
      "id": 3,
      "content": "[UNK]",
      "single_word": false,
      "lstrip": false,
      "rstrip": false,
      "normalized": false,
      "special": true
    }
  ],
  "normalizer": null,
  "pre_tokenizer": {
    "type": "ByteLevel",
    "add_prefix_space": true,
    "trim_offsets": true,
    "use_regex": true
  },
  "post_processor": {
    "type": "TemplateProcessing",
    "single": [
      {
        "SpecialToken": {
          "id": "[CLS]",
          "type_id": 0
        }
      },
      {
        "Sequence": {
          "id": "A",
          "type_id": 0
        }
      },
      {
        "SpecialToken": {
          "id": "[SEP]",
          "type_id": 0
        }
      }
    ],
    "pair": [
      {
        "SpecialToken": {
          "id": "[CLS]",
          "type_id": 0
        }
      },
      {
        "Sequence": {
          "id": "A",
          "type_id": 0
        }
      },
      {
        "SpecialToken": {
          "id": "[SEP]",
          "type_id": 0
        }
      },
      {
        "Sequence": {
          "id": "B",
          "type_id": 1
        }
      },
      {
        "SpecialToken": {
          "id": "[SEP]",
          "type_id": 1
        }
      }
    ],
    "special_tokens": {
      "[CLS]": {
        "id": "[CLS]",
        "ids": [
          1
        ],
        "tokens": [
          "[CLS]"
        ]
      },
      "[SEP]": {
        "id": "[SEP]",
        "ids": [
          2
        ],
        "tokens": [
          "[SEP]"
        ]
      }
    }
  },
  "decoder": {
    "type": "ByteLevel",
    "add_prefix_space": true,
    "trim_offsets": true,
    "use_regex": true
  },
  "model": {
    "type": "BPE",
    "dropout": null,
    "unk_token": "[UNK]",
    "continuing_subword_prefix": "##",
    "end_of_word_suffix": null,
    "fuse_unk": false,
    "byte_fallback": false,
    "vocab": {
      "[PAD]": 0,
      "[CLS]": 1,
      "[SEP]": 2,
      "[UNK]": 3,
      "!": 4,
      "%": 5,
      "&": 6,
      "'": 7,
      "(": 8,
      ")": 9,
      "*": 10,
      "+": 11,
      ",": 12,
      "-": 13,
      ".": 14,
      "0": 15,
      "1": 16,
      "2": 17,
      "3": 18,
      "4": 19,
      "5": 20,
      "6": 21,
      "7": 22,
      "8": 23,
      "9": 24,
      ":": 25,
      "?": 26,
      "A": 27,
      "B": 28,
      "C": 29,
      "D": 30,
      "E": 31,
      "F": 32,
      "G": 33,
      "H": 34,
      "I": 35,
      "J": 36,
      "K": 37,
      "L": 38,
      "M": 39,
      "N": 40,
      "O": 41,
      "P": 42,
      "Q": 43,
      "R": 44,
      "S": 45,
      "T": 46,
      "U": 47,
      "V": 48,
      "W": 49,
      "X": 50,
      "Y": 51,
      "Z": 52,
      "[": 53,
      "]": 54,
      "`": 55,
      "a": 56,
      "b": 57,
      "c": 58,
      "d": 59,
      "e": 60,
      "f": 61,
      "g": 62,
      "h": 63,
      "i": 64,
      "j": 65,
      "k": 66,
      "l": 67,
      "m": 68,
      "n": 69,
      "o": 70,
      "p": 71,
      "q": 72,
      "r": 73,
      "s": 74,
      "t": 75,
      "u": 76,
      "v": 77,
      "w": 78,
      "x": 79,
      "y": 80,
      "z": 81,
      "¡": 82,
      "¢": 83,
      "£": 84,
      "¤": 85,
      "¥": 86,
      "¦": 87,
      "§": 88,
      "¨": 89,
      "©": 90,
      "ª": 91,
      "«": 92,
      "¬": 93,
      "®": 94,
      "¯": 95,
      "°": 96,
      "±": 97,
      "²": 98,
      "³": 99,
      "´": 100,
      "µ": 101,
      "¶": 102,
      "·": 103,
      "¸": 104,
      "¹": 105,
      "º": 106,
      "»": 107,
      "¼": 108,
      "½": 109,
      "¾": 110,
      "¿": 111,
      "Â": 112,
      "Ã": 113,
      "Ð": 114,
      "Ñ": 115,
      "â": 116,
      "ï": 117,
      "ð": 118,
      "Ġ": 119,
      "Ģ": 120,
      "ģ": 121,
      "Ĥ": 122,
      "ĥ": 123,
      "Ħ": 124,
      "ħ": 125,
      "Ĩ": 126,
      "ĩ": 127,
      "Ī": 128,
      "ī": 129,
      "Ĭ": 130,
      "ĭ": 131,
      "Į": 132,
      "į": 133,
      "İ": 134,
      "ı": 135,
      "Ĳ": 136,
      "ĳ": 137,
      "Ĵ": 138,
      "ĵ": 139,
      "Ķ": 140,
      "ķ": 141,
      "ĸ": 142,
      "Ĺ": 143,
      "ĺ": 144,
      "Ļ": 145,
      "ļ": 146,
      "Ľ": 147,
      "ľ": 148,
      "Ŀ": 149,
      "ŀ": 150,
      "Ł": 151,
      "ł": 152,
      "Ń": 153,
      "##Ð": 154,
      "##º": 155,
      "##Ñ": 156,
      "##Ĥ": 157,
      "##¾": 158,
      "##£": 159,
      "##į": 160,
      "##¹": 161,
      "##½": 162,
      "##°": 163,
      "##Ĳ": 164,
      "##Ģ": 165,
      "##Į": 166,
      "##ı": 167,
      "##ĥ": 168,
      "##Ī": 169,
      "##µ": 170,
      "##¸": 171,
      "##¶": 172,
      "##´": 173,
      "##İ": 174,
      "##ģ": 175,
      "##Ĩ": 176,
      "##ĳ": 177,
      "##³": 178,
      "##¼": 179,
      "##Ħ": 180,
      "##¿": 181,
      "##±": 182,
      "##ī": 183,
      "##ĭ": 184,
      "##²": 185,
      "##Ł": 186,
      "##·": 187,
      "##Ķ": 188,
      "##ħ": 189,
      "##ĩ": 190,
      "##J": 191,
      "##B": 192,
      "##»": 193,
      "##ļ": 194,
      "##ł": 195,
      "##Ĵ": 196,
      "##ĺ": 197,
      "##ð": 198,
      "##ŀ": 199,
      "##ľ": 200,
      "##§": 201,
      "##¦": 202,
      "##®": 203,
      "##Ĺ": 204,
      "##6": 205,
      "##0": 206,
      "##¡": 207,
      "##¨": 208,
      "##Ĭ": 209,
      "##Ľ": 210,
      "##Ŀ": 211,
      "##«": 212,
      "##p": 213,
      "##a": 214,
      "##r": 215,
      "##t": 216,
      "##y": 217,
      "##I": 218,
      "##O": 219,
      "##S": 220,
      "##ĵ": 221,
      "##Ļ": 222,
      "##¤": 223,
      "##o": 224,
      "##n": 225,
      "##l": 226,
      "##u": 227,
      "##g": 228,
      "##b": 229,
      "##e": 230,
      "##k": 231,
      "##m": 232,
      "##ĸ": 233,
      "##Ń": 234,
      "##T": 235,
      "##1": 236,
      "##3": 237,
      "##F": 238,
      "##c": 239,
      "##¥": 240,
      "##!": 241,
      "##¢": 242,
      "##E": 243,
      "##P": 244,
      "##H": 245,
      "##R": 246,
      "##A": 247,
      "##d": 248,
      "##5": 249,
      "##â": 250,
      "##h": 251,
      "##L": 252,
      "##s": 253,
      "##Q": 254,
      "##i": 255,
      "##z": 256,
      "##x": 257,
      "##M": 258,
      "##V": 259,
      "##¯": 260,
      "##X": 261,
      "##U": 262,
      "##7": 263,
      "##ķ": 264,
      "##9": 265,
      "##ï": 266,
      "##f": 267,
      "##C": 268,
      "##Â": 269,
      "##?": 270,
      "##.": 271,
      "##Y": 272,
      "##N": 273,
      "##ª": 274,
      "##W": 275,
      "##G": 276,
      "##©": 277,
      "##&": 278,
      "##D": 279,
      "##w": 280,
      "##2": 281,
      "##8": 282,
      "##4": 283,
      "##q": 284,
      "##K": 285,
      "##Ã": 286,
      "##¬": 287,
      "##v": 288,
      "##*": 289,
      "##,": 290,
      "##-": 291,
      "##:": 292,
      "##Z": 293,
      "##%": 294,
      "##(": 295,
      "##[": 296,
      "##j": 297,
      "ĠÐ": 298,
      "##Ð°": 299,
      "##Ð¾": 300,
      "##Ðµ": 301,
      "##ÑĤ": 302,
      "##Ð¸": 303,
      "##Ð¾Ð": 304,
      "##Ð°Ð": 305,
      "##Ñģ": 306,
      "##ÑĢ": 307,
      "##ÐµÐ": 308,
      "##Ñĭ": 309,
      "##Ñĥ": 310,
      "##Ð½": 311,
      "ĠÑĤ": 312,
      "##ÑĮ": 313,
      "##Ðº": 314,
      "ĠÑģ": 315,
      "ĠÐ¿": 316,
      "##Ñı": 317,
      "##Ð»": 318,
      "##Ð²": 319,
      "##Ð°Ðº": 320,
      "ĠÐ¸": 321,
      "ĠÐº": 322,
      "##ÐµÑĢ": 323,
      "##ÑĪ": 324,
      "ĠÑĤÑĭ": 325,
      "##Ð´": 326,
      "ĠÐ²": 327,
      "ĠÑ": 328,
      "##ÐµÐ¼": 329,
      "ĠÐ¼": 330,
      "##Ð¼": 331,
      "ĠÐ½": 332,
      "##ÐµÑĤ": 333,
      "##Ð¾Ð¹": 334,
      "##Ð·": 335,
      "##Ð¾Ð²": 336,
      "ĠÐļ": 337,
      "##Ð±": 338,
      "##ÐµÐ±": 339,
      "##ÑģÑĤ": 340,
      "##Ñİ": 341,
      "##Ñĩ": 342,
      "##Ñħ": 343,
      "##ÐµÐ½": 344,
      "ĠÐ±": 345,
      "ĠÐ½Ð°": 346,
      "ĠÑĤÐµÐ±": 347,
      "##Ð¾Ð»": 348,
      "##Ð¾Ð´": 349,
      "ĠÐºÐ°Ðº": 350,
      "##Ð³": 351,
      "##Ð°Ð´": 352,
      "##ÐµÑĢÐ¸": 353,
      "ĠÐ¼Ñĭ": 354,
      "##Ð¸ÑĤ": 355,
      "##Ð°Ð¶": 356,
      "ĠÐļÐ°Ðº": 357,
      "##ÑĤÐ¾": 358,
      "##Ð°Ð¹": 359,
      "ĠÑģÐº": 360,
      "ĠÐĴ": 361,
      "##Ð°Ð½": 362,
      "ĠÐ¾": 363,
      "##Ð¾Ð³": 364,
      "##ÑĪÑĮ": 365,
      "##Ð°ÑĤ": 366,
      "##Ð¾Ð¼": 367,
      "ĠÐ·": 368,
      "ĠÐ»": 369,
      "##ÑĢÐ¾": 370,
      "ĠÐ´": 371,
      "##ÑģÐº": 372,
      "ĠÑĥ": 373,
      "##Ð¿": 374,
      "ĠÐ¿Ð¾": 375,
      "##ðŁ": 376,
      "##Ð¹": 377,
      "##Ð°ÑĢ": 378,
      "ĠÐ¸Ð·": 379,
      "ĠÑĤÐ²": 380,
      "##Ð°Ð»": 381,
      "##Ð°Ð¶ÐµÐ¼": 382,
      "ĠðŁ": 383,
      "ĠÐ°": 384,
      "##Ð»Ð¸": 385,
      "##ÑĭÐ±": 386,
      "ĠÑĤÐµÐ±Ðµ": 387,
      "##Ð°Ñı": 388,
      "ĠÑģÐºÐ°Ð¶ÐµÐ¼": 389,
      "ĠÐĴÑĭÐ±": 390,
      "ĠÐĴÑĭÐ±ÐµÑĢÐ¸": 391,
      "ĠÐ³": 392,
      "##Ð¸Ð½": 393,
      "##ÐµÑĪÑĮ": 394,
      "##ÐµÐ¹": 395,
      "##ÐµÐ»": 396,
      "ĠÐ¡": 397,
      "##Ð¾Ð»ÑĮ": 398,
      "##ÑĨ": 399,
      "ĠÐ±Ñĭ": 400,
      "ĠÂ": 401,
      "ĠÂ«": 402,
      "Â»": 403,
      "##Ð½Ð¸": 404,
      "ĠÐ¿ÑĢ": 405,
      "##Ð³Ð°Ð´": 406,
      "##Ð½Ñĭ": 407,
      "ĠÑĤÐ²Ð¾": 408,
      "##Ð¾ÑĢ": 409,
      "ĠÑĩ": 410,
      "##Ð¶": 411,
      "ĠÑĢ": 412,
      "##Ð°ÑĤÑĮ": 413,
      "##Ð¾Ð½": 414,
      "##Ð¸Ð¼": 415,
      "##Ð»Ð°": 416,
      "##Ð°Ð¼": 417,
      "##Ð¾Ð¶": 418,
      "ĠÐĵ": 419,
      "ĠÐ£": 420,
      "##ÑģÑı": 421,
      "##ÐºÐ¾": 422,
      "##Ð²ÐµÑĤ": 423,
      "##Ð·Ð½": 424,
      "ĠÐĿ": 425,
      "##Ð½Ð¾": 426,
      "##Ð°Ð·": 427,
      "##Ð¾Ð¿": 428,
      "ĠÑĤÐµÐ±Ñı": 429,
      "##ÑĥÐ´": 430,
      "##ÐºÐ°": 431,
      "ĠÑį": 432,
      "##Ð¾Ð»ÑĮÐºÐ¾": 433,
      "##Ð¾Ð³Ð¾": 434,
      "##ÐµÐ´": 435,
      "##ÑĥÑİ": 436,
      "##Ð¾ÑĤ": 437,
      "##Ð»ÑĮ": 438,
      "ĠÐ¸Ð»Ð¸": 439,
      "ĠÑģÑĤ": 440,
      "##Ð°ÐµÐ¼": 441,
      "##ÑģÐ¾Ð²": 442,
      "ĠÐļÐ°ÐºÐ¾Ð¹": 443,
      "ĠÐ»Ð¸": 444,
      "##Ð¸Ðµ": 445,
      "ĠÑĦ": 446,
      "ĠÐŀ": 447,
      "##Ð³Ð°Ð´Ð°Ð¹": 448,
      "##ÑĦ": 449,
      "ĠÐ£Ð³Ð°Ð´Ð°Ð¹": 450,
      "##ÐµÐ³": 451,
      "ĠÐ¶": 452,
      "##ÐµÐ²": 453,
      "ĠÐºÐ°ÐºÐ¾Ð¹": 454,
      "##ÐµÑģ": 455,
      "ĠÐ·Ð½": 456,
      "ĠÐļÐ°ÐºÐ°Ñı": 457,
      "ĠÑģÐ²": 458,
      "ĠÐ¿Ð¾Ð´": 459,
      "##Ð·Ð½Ð°Ð¹": 460,
      "ĠÑħ": 461,
      "ĠÑĨ": 462,
      "##Ð¾Ð±": 463,
      "##ÑĢÑĥ": 464,
      "ĠÐĵÐ°Ð´": 465,
      "ĠÐĿÐ°": 466,
      "##ÐµÑģÑĤ": 467,
      "ĠÐļÑĤÐ¾": 468,
      "##Ð¾Ðº": 469,
      "ĠÑĥÐ·Ð½Ð°Ð¹": 470,
      "##Ð°Ð²": 471,
      "ĠÐŀÑĤ": 472,
      "ĠÐŁ": 473,
      "##ÑİÐ±": 474,
      "ĠÑĤÐ²Ð¾Ð¹": 475,
      "##Ð¾Ð¿ÑĢÐ¾": 476,
      "##Ð°Ñģ": 477,
      "ĠÐ²Ð¾Ð¿ÑĢÐ¾": 478,
      "##Ñī": 479,
      "##ÐµÑĢÐ¸Ð°Ð»": 480,
      "##ÑĤÐ¸": 481,
      "ĠÐ¾ÑĤ": 482,
      "##ÐµÐ½ÑĮ": 483,
      "ĠÐ±ÑĥÐ´": 484,
      "ĠÐŀÑĤÐ²ÐµÑĤ": 485,
      "ĠÑģÐµÑĢÐ¸Ð°Ð»": 486,
      "ĠÐŀÑĤÐ²ÐµÑĤÑĮ": 487,
      "ĠÐĵÐ°Ð´Ð°ÐµÐ¼": 488,
      "ĠÐ²Ð¾Ð¿ÑĢÐ¾ÑģÐ¾Ð²": 489,
      "##ÑĢÐ¸": 490,
      "##ÐºÑĥ": 491,
      "##Ð¸ÑĤÑĮ": 492,
      "ĠÐ¢": 493,
      "##Ð½Ñı": 494,
      "##ÐµÐ³Ð¾": 495,
      "##Ð¸Ñı": 496,
      "##Ð°ÐµÑĪÑĮ": 497,
      "ĠÐ¿Ð°ÑĢ": 498,
      "##Ð¾Ðµ": 499,
      "##Ð¸Ñħ": 500,
      "ĠÐ»ÑİÐ±": 501,
      "Â»?": 502,
      "Âł": 503,
      "##Ð¸Ð¹": 504,
      "ĠÐ¶Ð¸": 505,
      "##Ð¸Ð»ÑĮ": 506,
      "##Ð½ÑĭÐ¹": 507,
      "ĠÐ¿ÑĢÐ¾": 508,
      "âĢ": 509,
      "##ÐµÐº": 510,
      "##ÑģÐºÐ¾Ð»ÑĮÐºÐ¾": 511,
      "ĠðŁĺ": 512,
      "âĢĶ": 513,
      "##ÐµÐ·": 514,
      "##Ð»Ñı": 515,
      "##Ð¾ÑĢÐ¾": 516,
      "##Ð¾Ð³Ð»Ð°": 517,
      "##Ð°Ñħ": 518,
      "ĠÐµ": 519,
      "##Ð¸Ðº": 520,
      "##Ð¿Ð¸": 521,
      "##Ð°Ð»ÑĮ": 522,
      "##ÑĪÐµ": 523,
      "##Ð´Ðµ": 524,
      "ĠÐ¡Ð¼": 525,
      "ĠÑĩÑĤÐ¾": 526,
      "##ÐµÑĢÐ¾": 527,
      "##Ð¾ÑĢÐ¾ÑĪ": 528,
      "ĠÐ¿ÐµÑĢ": 529,
      "ĠÑħÐ¾ÑĢÐ¾ÑĪ": 530,
      "##ÑĭÐ¹": 531,
      "##Ð¾Ñĩ": 532,
      "##ÑĢÐ°": 533,
      "##Ð¾Ð¶ÐµÑĪÑĮ": 534,
      "##Ð¸Ð»ÑĮÐ¼": 535,
      "##Ð¸ÑĪÑĮ": 536,
      "ĠÐľ": 537,
      "##ÑģÑĤÑĢ": 538,
      "##Ð¸ÑĤÐ°ÑĤ": 539,
      "##Ð½ÑĭÑħ": 540,
      "##20": 541,
      "ĠÐ³ÐµÑĢÐ¾": 542,
      "ĠÑħÐ¾ÑĢÐ¾ÑĪÐ¾": 543,
      "ĠÑĨÐ¸ÑĤÐ°ÑĤ": 544,
      "##ÑĥÑĩ": 545,
      "ĠÐ¼Ñĥ": 546,
      "##ÐµÑĩ": 547,
      "ĠÑĥÐ³Ð°Ð´": 548,
      "ĠÐĶ": 549,
      "##Ð´Ð°": 550,
      "ĠÐ§": 551,
      "##Ð¾Ñģ": 552,
      "##Ð´ÐµÑĤ": 553,
      "##Ð°ÑĢÑĤ": 554,
      "##Ð°ÐºÐ°": 555,
      "Ġ20": 556,
      "##Ð¸Ñģ": 557,
      "##ÑĤÐµÑĢ": 558,
      "##Ð¾ÑģÑĤ": 559,
      "##Ð°Ð½Ð¸Ðµ": 560,
      "##Ð¾Ð´Ð¸": 561,
      "ĠÐĿÐ°ÑģÐºÐ¾Ð»ÑĮÐºÐ¾": 562,
      "ĠÐ³Ð¾Ð´": 563,
      "ĠÐ±Ð¾Ð»ÑĮ": 564,
      "ĠÐ¿ÐµÑģ": 565,
      "ĠÑģÐ²Ð¾": 566,
      "##Ð¾Ð·": 567,
      "ĠÑĨÐ²ÐµÑĤ": 568,
      "##ÑħÐ¾Ð´": 569,
      "##Ð¸Ð¸": 570,
      "ĠÑģÐºÐ¾Ð»ÑĮÐºÐ¾": 571,
      "##Ð¸Ð²": 572,
      "##Ð½Ð¾Ð¹": 573,
      "ĠÐ²Ñģ": 574,
      "##ÐµÐ½ÑĤ": 575,
      "##Ð°ÑģÑĤ": 576,
      "##ÐºÐ¸": 577,
      "ĠðŁĴ": 578,
      "ĠÐºÐ°ÐºÐ°Ñı": 579,
      "ĠÑĦÐ¸Ð»ÑĮÐ¼": 580,
      "ĠÐ±Ð¾Ð»ÑĮÑĪÐµ": 581,
      "##Ð°ÐµÑĤ": 582,
      "ĠÐ·Ð½Ð°ÐµÑĪÑĮ": 583,
      "ĠÐ¡Ð¼Ð¾Ð¶ÐµÑĪÑĮ": 584,
      "ĠÐ¼Ð¾Ð³Ð»Ð°": 585,
      "ĠÐ¾Ð¿Ð¸": 586,
      "ĠÐł": 587,
      "ĠÐ»ÐµÑĤ": 588,
      "ĠÐĳ": 589,
      "##Ð¸ÑĢ": 590,
      "ĠÑģÐ»": 591,
      "ĠÐºÑĤÐ¾": 592,
      "##ÐµÐ»ÑĮ": 593,
      "##ÐºÐ°Ñħ": 594,
      "##Ð¸Ð´": 595,
      "ĠÑģÐ¼": 596,
      "ĠÐ·Ð¾Ð´Ð¸": 597,
      "ĠÐ·Ð¾Ð´Ð¸Ð°ÐºÐ°": 598,
      "##Ð¸Ð»": 599,
      "##Ð¸Ñĩ": 600,
      "ĠÐ±ÑĥÐ´ÐµÑĤ": 601,
      "ĠÐ¾Ð±": 602,
      "##Ð°Ð±": 603,
      "ĠÐºÐ°ÐºÐ¾Ð¼": 604,
      "Ġ202": 605,
      "##ÑĢÐ°Ð½": 606,
      "##Ð½Ð°Ñı": 607,
      "ĠÐ½Ðµ": 608,
      "##ÑģÐ¾Ð½": 609,
      "ĠÑĪ": 610,
      "ĠÐºÐ°ÑĢÑĤ": 611,
      "ĠÐ²Ñĭ": 612,
      "ĠÐºÐ°ÐºÐ¾Ð³Ð¾": 613,
      "##Ð°Ð¿": 614,
      "##ÑĢÐµ": 615,
      "ĠÐ·Ð²": 616,
      "##ÑĥÑĤ": 617,
      "ĠÐ·Ð½Ð°Ðº": 618,
      "##ÐµÑģÐº": 619,
      "##ÑıÑĤ": 620,
      "ĠÐĲ": 621,
      "##Ð½ÑĥÑİ": 622,
      "##Ð½Ðµ": 623,
      "##Ð½Ð¾Ðµ": 624,
      "ĠÐ´ÐµÐ½ÑĮ": 625,
      "ĠÐ¿Ð¾Ñħ": 626,
      "##ÐµÐ½Ð¸Ñı": 627,
      "##Ñį": 628,
      "ĠÑįÑĤ": 629,
      "Ġ8": 630,
      "ĠÐ¿Ð¾ÑħÐ¾Ð¶": 631,
      "##ÑĥÑī": 632,
      "##ÑĥÐ¶": 633,
      "##Ð½Ð°": 634,
      "ĠÐ²ÑģÑĤÑĢ": 635,
      "ĠÐ¿Ð¾Ñģ": 636,
      "ĠÑįÐ¼": 637,
      "ĠÐ¿ÐµÑĢÑģÐ¾Ð½": 638,
      "ĠÐºÐ°ÑĢÑĤÐ¸Ð½": 639,
      "ĠÐ¥": 640,
      "Ġâ": 641,
      "##ÐºÐµ": 642,
      "ĠÐ¾Ð¿Ð¸ÑĪ": 643,
      "##Ð°Ð³": 644,
      "ĠÑĥÐ³Ð°Ð´Ð°ÐµÐ¼": 645,
      "##ÐµÐ·Ð´": 646,
      "##Ð½Ð¾Ð³Ð¾": 647,
      "ĠÐ¿ÐµÑĢÑģÐ¾Ð½Ð°Ð¶": 648,
      "ĠÐ¿Ð¾Ð´ÑħÐ¾Ð´": 649,
      "##Ð¸Ð·": 650,
      "ĠÐ¿Ð°ÑĢÐ½": 651,
      "Ġ1": 652,
      "##ÑĢÐ¾Ð²": 653,
      "ĠÑģÐµÑĢÐ¸Ð°Ð»Ð°": 654,
      "ĠÐ§ÑĤÐ¾": 655,
      "##Ð¾Ð¹Ð´ÐµÑĤ": 656,
      "ĠÐ½Ð¾Ð²": 657,
      "ĠÐ¿Ð¾Ð´ÑħÐ¾Ð´Ð¸ÑĤ": 658,
      "ĠÐºÐ°ÐºÑĥÑİ": 659,
      "##Ð¸ÑĤÑģÑı": 660,
      "##Ð¸ÑĦ": 661,
      "##Ð¼Ðµ": 662,
      "ĠÐ´Ð»Ñı": 663,
      "##Ð½Ð¾ÑģÑĤ": 664,
      "ĠÑģÐ°Ð¼": 665,
      "##Ð·Ð½Ð¸": 666,
      "##Ð¾Ð²ÑĮ": 667,
      "ĠÑĤÐ²Ð¾Ñı": 668,
      "ĠÐ¶Ð¸Ð·Ð½Ð¸": 669,
      "##Ð¸Ñİ": 670,
      "##ÑĢÐ°Ð²": 671,
      "ĠÐ¢Ñĭ": 672,
      "##ÐµÑĢÑĤ": 673,
      "##Ð¸ÑĩÐµÑģÐº": 674,
      "ĠÐ·Ð²ÐµÐ·Ð´": 675,
      "ĠÐĽ": 676,
      "##ÑĥÐ»": 677,
      "ĠÑģÐ¾": 678,
      "ĠÑģÐ´": 679,
      "ĠÑĢÐ°Ð·": 680,
      "ĠÑĤÐ²Ð¾Ñİ": 681,
      "ĠÑĤÐ²Ð¾Ðµ": 682,
      "ĠÐ¼ÑĥÐ»ÑĮ": 683,
      "ĠÐ¾Ð¿Ð¸ÑĪÐµÑĤ": 684,
      "ĠÐºÐ°ÐºÐ¾Ðµ": 685,
      "##ÑĥÑĪ": 686,
      "##Ð°ÑģÑģÐº": 687,
      "ĠÐ±ÑĥÐ´ÑĥÑī": 688,
      "ĠÐ¿Ð¾Ð¼": 689,
      "ĠÐ½Ð°Ð·": 690,
      "ĠÑģÑĤÑĢÐ°Ð½": 691,
      "##ÑĢÑĥÐ³": 692,
      "ĠÐ¸Ð´Ðµ": 693,
      "ĠÑģÑĤÐ°ÑĤÑĮ": 694,
      "##Ð½Ð¾Ð¼": 695,
      "ĠÐ»ÑİÐ±Ð¸Ð¼": 696,
      "ĠÐ¿ÐµÑģÐ½Ñı": 697,
      "ĠÐ¸Ð´ÐµÐ°Ð»ÑĮ": 698,
      "##Ð¾Ñı": 699,
      "ĠÐ¶Ð¸Ð·Ð½": 700,
      "##ÐµÑĢÐ´": 701,
      "ĠÐ±ÑĭÐ»Ð°": 702,
      "ĠÑĩÐµÐ¼": 703,
      "##ÑĥÐ¼": 704,
      "##ÐµÑĤÑĥ": 705,
      "##ÑĨÐ°": 706,
      "##ÑģÐ°": 707,
      "##ÑĥÐ¿": 708,
      "##ÐµÐ½Ð¸Ðµ": 709,
      "ĠÐļÐ°ÐºÐ¾Ðµ": 710,
      "ĠÐ¶Ð¸Ð·Ð½ÑĮ": 711,
      "##ÑģÐ¿": 712,
      "ĠÐºÐ¾": 713,
      "ĠÑįÑĤÐ¾": 714,
      "##ÐµÑģÑĤÐ²": 715,
      "##Ð³Ð¾": 716,
      "##Ð½ÑĭÐµ": 717,
      "ĠÐ¿ÑĢÐ¸Ð½": 718,
      "ĠÐ³ÐµÑĢÐ¾Ð¸Ð½": 719,
      "ĠÐ¿Ð¾Ð»": 720,
      "ĠðŁį": 721,
      "ĠÐ³Ð»": 722,
      "##ÑĢÑĭ": 723,
      "##ÐµÐ½ÑĤÐ¾Ð²": 724,
      "ĠÑįÐ¼Ð¾Ð´": 725,
      "ĠÐ¿ÑĢÐµÐ´": 726,
      "##ÑģÑĤÐ²": 727,
      "ĠÐºÐ°ÐºÐ¸Ð¼": 728,
      "##ÑĨÐµÐ½ÑĤÐ¾Ð²": 729,
      "ĠÐ¿ÑĢÐ¾ÑĨÐµÐ½ÑĤÐ¾Ð²": 730,
      "ĠÐ¿Ð¾ÑģÐ¾Ð²": 731,
      "##Ð½Ð¸Ðº": 732,
      "ĠÑĤÐ²Ð¾ÐµÐ¹": 733,
      "ĠÐĶÐ¶": 734,
      "ĠÐ¿Ð¾ÑħÐ¾Ð¶Ð°": 735,
      "ĠÑģÐ´ÐµÐ»": 736,
      "##ÐµÑĤÑĥÐµÐ¼": 737,
      "ĠÐ¿Ð¾ÑģÐ¾Ð²ÐµÑĤÑĥÐµÐ¼": 738,
      "##ÑĢÐµÑĤ": 739,
      "ĠÐ¿Ð¾Ð¿": 740,
      "ĠÐ´ÐµÐ»": 741,
      "ĠÑģÐ²Ð¾Ð¹": 742,
      "ĠðŁİ": 743,
      "##ÐµÐ²ÑģÐº": 744,
      "ĠÑģÑĤÐ¾": 745,
      "##Ð¸Ð³": 746,
      "##Ð»Ð°Ñģ": 747,
      "##ÑĥÐ¹": 748,
      "ĠÐ½Ð°ÑģÐºÐ¾Ð»ÑĮÐºÐ¾": 749,
      "##Ð°ÑĤÑĮÑģÑı": 750,
      "##ÑĥÑģ": 751,
      "##Ð¾Ð´Ð½Ñı": 752,
      "ĠÑįÑĤÐ¸": 753,
      "ĠÐµÐ³Ð¾": 754,
      "##ÐµÑĤÐ¸ÑĪÑĮ": 755,
      "ĠÐ¡Ð¿": 756,
      "ĠÑĤÐ²Ð¾ÐµÐ³Ð¾": 757,
      "ĠÐ¿Ð°ÑĢÐµÐ½ÑĮ": 758,
      "##ÑĤÐµÑĢÐ°": 759,
      "##ÑĢÐµÐ´": 760,
      "ĠÐºÐ¾ÑĢ": 761,
      "##ÐµÐ¶": 762,
      "ĠÑģÐ¿": 763,
      "ĠÑģÐµÐ³": 764,
      "ĠÐºÐ°Ð´": 765,
      "##Ð´Ð¸": 766,
      "ĠÐ»ÑĥÑĩ": 767,
      "ĠÑģÐµÐ³Ð¾Ð´Ð½Ñı": 768,
      "ĠÐ½Ð°ÑģÑĤ": 769,
      "##ÐµÑģÑģ": 770,
      "##Ð²Ð¸": 771,
      "ĠÐºÐµÐ¼": 772,
      "##ÐµÐ¹Ñĩ": 773,
      "ĠÐ¼ÑĥÐ¶": 774,
      "ĠÐ¿Ð»": 775,
      "##Ð°Ð¼ÐµÐ½": 776,
      "ĠÐ³Ð¾Ð´Ñĥ": 777,
      "Ð¡": 778,
      "##ÑĢÐ°Ð·": 779,
      "##ÑıÐ¼": 780,
      "##Ð»ÐµÐ½": 781,
      "ĠÐºÐ¾Ð¼": 782,
      "ĠÑĤÐ²Ð¾Ð¸Ð¼": 783,
      "ĠÐ¡Ð¼Ð¾Ð³Ð»Ð°": 784,
      "ĠÐ²ÑģÐµÐ³Ð¾": 785,
      "ĠB": 786,
      "##ÐµÑĪ": 787,
      "ĠÑģÐ¾Ð²": 788,
      "ĠÐ¾Ñģ": 789,
      "##Ð°Ð»Ð¸": 790,
      "ĠðŁ¤": 791,
      "##Ð¸Ð½Ð°": 792,
      "ĠÐ¾ÑĤÐ½Ð¾": 793,
      "Ġ10": 794,
      "Ġ5": 795,
      "ĠÐ½Ð°Ð¹": 796,
      "ĠÐ³Ð¸ÑĦ": 797,
      "##Ð¾Ð³Ð´Ð°": 798,
      "ĠÐ´Ð¾ÑĢ": 799,
      "ĠÑģÐ²Ð¸Ð´": 800,
      "ĠÑĥÐ³Ð°Ð´Ð°ÑĤÑĮ": 801,
      "##ÐµÐ¹ÑĩÐ°Ñģ": 802,
      "ĠÐĺ": 803,
      "##Ð¸Ð¿": 804,
      "ĠÑģÐµÐ¹ÑĩÐ°Ñģ": 805,
      "##Ð»ÑİÐ±": 806,
      "ĠÐ»ÑİÐ±Ð¾Ð²ÑĮ": 807,
      "##ÑĩÐ°ÑģÑĤ": 808,
      "ĠÑĢÐ°ÑģÑģÐº": 809,
      "ĠÑģÐ²Ð¾Ñİ": 810,
      "ĠÐ¸Ð½": 811,
      "##Ð»Ð¸Ñĩ": 812,
      "ĠÑģÑĤÐ¾Ð¸ÑĤ": 813,
      "ĠÑı": 814,
      "##Ð¸ÑĨ": 815,
      "ĠÐ¾Ð´": 816,
      "##Ð°ÑĢÐ°Ðº": 817,
      "ĠÐ¾ÑĤÐ½Ð¾ÑĪ": 818,
      "Ðł": 819,
      "ĠÐĹ": 820,
      "##ÑĭÑħ": 821,
      "##Ð°ÑĢÑĢÐ¸": 822,
      "ĠÐ±ÑĥÐ´ÐµÑĪÑĮ": 823,
      "Ðĵ": 824,
      "##Ð¼ÐµÐ½": 825,
      "##Ð¼Ð¾ÑĤ": 826,
      "ĠÐ½ÑĥÐ¶": 827,
      "##Ð°Ð½ÐµÑĤ": 828,
      "ĠÐ´Ð¸Ñģ": 829,
      "ĠÐ´ÑĢÑĥÐ³": 830,
      "ĠÑĨÐ¸ÑĤÐ°ÑĤÑĥ": 831,
      "##ÐµÐ¼Ñĥ": 832,
      "ĠÐ¿Ð¾Ð´Ð¾Ð¹Ð´ÐµÑĤ": 833,
      "ĠÑħÐ°ÑĢÐ°Ðº": 834,
      "ĠÐ²ÑģÑĤÑĢÐµÑĤÐ¸ÑĪÑĮ": 835,
      "##ÑĭÐ²": 836,
      "##ÐµÑĢÑĮ": 837,
      "ĠðŁ¥": 838,
      "##Ð½ÐµÐµÐ²ÑģÐº": 839,
      "ĠÐ¾ÑĤÐ½Ð¾ÑĪÐµÐ½Ð¸Ñı": 840,
      "ĠÐ´Ð¸ÑģÐ½ÐµÐµÐ²ÑģÐº": 841,
      "##ÑĢÐµÐ¼": 842,
      "##ÑĢÐµÐ½": 843,
      "ĠÐ²Ð»ÑİÐ±": 844,
      "ĠÐ°Ð½Ð¸": 845,
      "ĠÑĨÐ¸ÑĤÐ°ÑĤÐ°": 846,
      "##ÑĢÐµÑĤÑĮ": 847,
      "##op": 848,
      "##Ð½Ð¸ÑĪÑĮ": 849,
      "ĠÐ¿Ð°ÑĢÐ½Ñı": 850,
      "##Ð½Ð¾ÑģÑĤÑĮ": 851,
      "pop": 852,
      "Ġk": 853,
      "##ÑĮÐ±": 854,
      "ĠÐ³Ð¸ÑĦÐºÐ°Ñħ": 855,
      "ĠÐ°Ð½Ð¸Ð¼Ðµ": 856,
      "ĠÐļÐ°ÐºÑĥÑİ": 857,
      "##Ð¾Ð³Ð¾Ð´": 858,
      "##Ð°Ð»Ð°": 859,
      "##Ð½Ð¸Ð¹": 860,
      "ĠÐŃ": 861,
      "ĠÐ¿Ð¾Ðº": 862,
      "##Ð¾Ð²Ð°": 863,
      "ĠÐ¼ÑĥÐ»ÑĮÑĤ": 864,
      "ĠÐ´Ð¾ÑĢÐ°Ð¼": 865,
      "ĠÐķ": 866,
      "##Ð²ÐµÑģÑĤ": 867,
      "ĠÐ´ÐµÑĤ": 868,
      "ĠÐ¡Ðº": 869,
      "ĠðŁĺİ": 870,
      "Ġ2023": 871,
      "ĠÐ¿Ð¾ÑģÐ¼Ð¾ÑĤ": 872,
      "Ġ6": 873,
      "ĠD": 874,
      "##ÑĤÑĮ": 875,
      "ĠÐ·Ð°": 876,
      "ĠÐŁÐ¾ÑĤ": 877,
      "##Ð·Ð¸": 878,
      "##Ð¶Ð¸": 879,
      "ĠÐ»ÑİÐ±Ð²Ð¸": 880,
      "##Ð°Ð¼ÐµÐ½Ð¸ÑĤ": 881,
      "ÐĶ": 882,
      "ĠT": 883,
      "ĠG": 884,
      "ĠÑģÐºÐ°Ð·": 885,
      "ĠÐ´ÐµÐ²": 886,
      "##Ð½ÑĭÐ¼": 887,
      "ĠÐ¿Ð¾Ð´ÑģÐº": 888,
      "ĠÐŁÑĢÐ¾Ð²": 889,
      "##Ð¸ÑĤÑĮÑģÑı": 890,
      "##Ð¸Ð²ÐµÑĢÐ´": 891,
      "ĠÑģÐ´ÐµÐ»Ð°ÑĤÑĮ": 892,
      "ĠÑģÐ²Ð¸Ð´Ð°Ð½Ð¸Ðµ": 893,
      "ĠÐºÐ¸Ð½": 894,
      "##Ð´ÐµÑĪÑĮ": 895,
      "##ÑĤÐ¾ÑĢ": 896,
      "ĠÐ·Ð½Ð°Ð¼ÐµÐ½Ð¸ÑĤ": 897,
      "##Ð½Ñİ": 898,
      "##Ð¾Ð±Ð¾Ð¹": 899,
      "ĠÐ³ÐµÑĢÐ¾ÐµÐ²": 900,
      "ĠÐ¨": 901,
      "ĠÐºÐ¾Ð³Ð¾": 902,
      "ĠÐ³Ð¾ÑĢ": 903,
      "##ÑĨÐµ": 904,
      "ĠÐ¿ÑĢÐ¾Ð²": 905,
      "ĠÑĤÐ²Ð¾Ð¸": 906,
      "Ġ2022": 907,
      "ĠÐ¿Ð¾ÑģÐ¼Ð¾ÑĤÑĢÐµÑĤÑĮ": 908,
      "ĠÐ¿Ñģ": 909,
      "ĠÐ¾ÑĤÐ»Ð¸Ñĩ": 910,
      "ĠÐ¿Ð°ÑĢÐ½ÐµÐ¼": 911,
      "ĠÐ¿Ð°ÑĢÐ½ÐµÐ¹": 912,
      "##Ð½Ð¾Ð¼Ñĥ": 913,
      "##Ð°Ñİ": 914,
      "##ÑĥÐ±": 915,
      "ĠÐ¼Ð°Ð½": 916,
      "##Ð¾Ð»Ð¾Ñģ": 917,
      "ĠÐĵÐ°Ð´Ð°Ð½Ð¸Ðµ": 918,
      "ĠÑĨÐ¸ÑĤÐ°ÑĤÐ°Ñħ": 919,
      "ĠÑģÐµÐ±": 920,
      "ĠÐºÐ¾Ð³Ð´Ð°": 921,
      "##ÑģÐºÐ°Ñı": 922,
      "ĠÑįÐº": 923,
      "ÐłÐ¸Ð²ÐµÑĢÐ´": 924,
      "##Ð¸ÑģÑĤ": 925,
      "ĠÐ¸ÑģÑĤ": 926,
      "##Ð¾Ð¼Ð°": 927,
      "##ÑģÐºÐ¸Ð¹": 928,
      "ĠÐ¿ÑģÐ¸Ñħ": 929,
      "ĠÑĤÐ¾Ð±Ð¾Ð¹": 930,
      "ĠÐºÐ¾Ð½": 931,
      "ĠÐ½Ð°Ð¿": 932,
      "##Ð¾Ð±ÐµÑĢÐ¸": 933,
      "##Ð¸ÑĪÑĮÑģÑı": 934,
      "ĠÐ½Ð¾Ð²Ð¾Ð³Ð¾Ð´": 935,
      "ĠÐ¿Ð¾Ð¼Ð½Ð¸ÑĪÑĮ": 936,
      "ĠÐ½Ð°Ð·Ð¾Ð²": 937,
      "##Ð°Ð½Ð°": 938,
      "ĠÐ¿Ð¾Ð»ÑĥÑĩ": 939,
      "##Ð¾ÑĨ": 940,
      "##Ð¸Ð¾Ð½": 941,
      "##Ð°Ð¶Ð¸": 942,
      "##ÑĢÐ¾Ñĩ": 943,
      "ĠÐ¿ÐµÑĢÐ²": 944,
      "ÐŃ": 945,
      "##Ð¾Ñĥ": 946,
      "##ÐµÐ»Ð¾Ð²": 947,
      "ĠÐ¤": 948,
      "##ÑĥÐº": 949,
      "##Ð°Ð½ÑĤ": 950,
      "##ÐµÐ´ÐµÑĪÑĮ": 951,
      "ĠÐ³Ð¾Ð´Ð°": 952,
      "ĠÑĪÐº": 953,
      "ĠÐ½ÑĥÐ¶Ð½Ð¾": 954,
      "##Ð°Ñĩ": 955,
      "##ÑĥÐ»Ñı": 956,
      "ĠÐºÐ°ÐºÐ¸Ðµ": 957,
      "ĠÐ¡Ð¾Ð±ÐµÑĢÐ¸": 958,
      "ĠÐ¶Ð¸Ð²": 959,
      "ĠÐ»ÐµÑĤÐ¾Ð¼": 960,
      "ĠÐ²ÑģÑĤÑĢÐµÑĩ": 961,
      "ĠÐ¿ÐµÑĢÑģÐ¾Ð½Ð°Ð¶Ð°": 962,
      "ÐĵÐ°ÑĢÑĢÐ¸": 963,
      "ĠÐ½Ð°Ð·Ð¾Ð²ÐµÐ¼": 964,
      "##ÑģÐ»Ð¸": 965,
      "##ÑĢÐ³": 966,
      "##ÑĢÐ¾Ð±": 967,
      "ĠÑģÑĩÐ°ÑģÑĤ": 968,
      "ĠÐ¼ÐµÑĩ": 969,
      "##Ð°ÑĤÐµÐ»ÑĮ": 970,
      "ĠÐ·Ð°Ð¼": 971,
      "##Ð»Ð¸Ð²": 972,
      "##ÐµÐ¹ÑĤ": 973,
      "ĠÐ£Ð·Ð½Ð°Ð¹": 974,
      "ĠÐ¶Ð´ÐµÑĤ": 975,
      "ĠÑģÐµÑĢÐ¸Ð°Ð»ÑĮ": 976,
      "ĠÐ³Ð»Ð°Ð²": 977,
      "ĠÐ½Ð°Ð¹ÑĤÐ¸": 978,
      "##ÐµÐ¿": 979,
      "##ÑĭÐµ": 980,
      "##ÑĥÐ»ÑĮ": 981,
      "##Ð»Ñİ": 982,
      "ĠÐºÐ½Ð¸": 983,
      "##Ð¿Ð¿": 984,
      "Â»,": 985,
      "##Ð½Ð¸Ð¼": 986,
      "##ÑĢÐ°ÑĪ": 987,
      "ĠÐ¼ÐµÑĩÑĤ": 988,
      "ÐŁ": 989,
      "##Ð°ÑĨ": 990,
      "##ÑĢÑı": 991,
      "##Ð¾Ð»Ð¾Ð³": 992,
      "ĠðŁĮ": 993,
      "ĠÐ³ÑĢÑĥ": 994,
      "##ÑĦÐ¸Ð»ÑĮÐ¼": 995,
      "ĠÐ¢ÐµÑģÑĤ": 996,
      "ĠÐµÐµ": 997,
      "ĠÑĨÐ²ÐµÑĤÐ°": 998,
      "ĠÑįÑĤÐ¾Ð¹": 999,
      "##Ð¾Ð²ÑĭÐ¹": 1000,
      "##Ð¸ÑĤÐµÐ»ÑĮ": 1001,
      "##ÑģÐºÐ¸Ñħ": 1002,
      "ĠÐ³Ð´Ðµ": 1003,
      "ĠÐ³ÐµÑĢÐ¾Ð¸Ð½Ñı": 1004,
      "ĠÐŁÐ¾ÑĤÑĤÐµÑĢÐ°": 1005,
      "##Ð¸ÐºÐ°": 1006,
      "##ÑĥÐ´Ð°": 1007,
      "ĠÑĦÐ°Ðº": 1008,
      "ĠÑįÑĤÐ¾ÑĤ": 1009,
      "ÐłÐ¸Ð²ÐµÑĢÐ´ÐµÐ¹": 1010,
      "##ÑĢÐ°Ð¼": 1011,
      "ĠÐºÐ¾ÑĤ": 1012,
      "ĠðŁĳ": 1013,
      "ĠÑĩÐµÐ³Ð¾": 1014,
      "ĠÐ²ÑģÐµ": 1015,
      "ĠÐ¿ÑĢÐ¸Ð½ÑĨ": 1016,
      "##en": 1017,
      "##ÑĢÐ°Ñģ": 1018,
      "##ÑĥÑĢÐµ": 1019,
      "##ÐºÐ¾Ð¹": 1020,
      "ĠÐ¸Ð³": 1021,
      "##Ð´Ñĥ": 1022,
      "##Ð·Ñĭ": 1023,
      "##ÐµÐ»Ð°": 1024,
      "##Ð¾Ð½Ð°": 1025,
      "##Ð°ÐµÑĪÑĮÑģÑı": 1026,
      "ĠÐ³ÐµÑĢÐ¾Ñı": 1027,
      "ĠÑģÐ¼Ð¾Ð¶ÐµÑĪÑĮ": 1028,
      "ĠÑįÐ¼Ð¾Ð´Ð·Ð¸": 1029,
      "ĠÑįÐ¼Ð¾Ð´Ð¶Ð¸": 1030,
      "ĠÐ¼ÑĥÐ»ÑĮÑĤÑĦÐ¸Ð»ÑĮÐ¼": 1031,
      "ĠÐ¡ÐºÐ¾Ð»ÑĮÐºÐ¾": 1032,
      "ĠI": 1033,
      "##¸ı": 1034,
      "##ï¸ı": 1035,
      "##Ð¼Ð°": 1036,
      "ĠÐ°Ðº": 1037,
      "##ÐµÐ»ÐµÐ½": 1038,
      "##ÑĥÐ´ÑĮÐ±": 1039,
      "ĠðŁĺī": 1040,
      "##Ð½Ð¾ÑģÑĤÐ¸": 1041,
      "##ÑĥÐ»Ð¼": 1042,
      "ĠÐ¼ÑĥÐ»ÑĮÑĤÐ¸": 1043,
      "ĠÐºÐ¸Ð½Ð¾": 1044,
      "##ÑĢÐ°ÑĤÑĮ": 1045,
      "ĠÐ¸ÑģÐ¿": 1046,
      "##ÑİÑĢ": 1047,
      "##ÑĢÐ¾Ñģ": 1048,
      "ĠÑĥÑĩ": 1049,
      "##Ð¾ÑģÑĤÑĮ": 1050,
      "ĠÑįÑĤÐ¸Ð¼": 1051,
      "ĠÑģÐ¾ÑĥÐ»Ð¼": 1052,
      "ĠÐ½Ð°Ð·Ð²": 1053,
      "##Ð¾ÑıÑī": 1054,
      "ĠÐ»ÑĥÑĩÑĪ": 1055,
      "ĠÐ¸ÑģÑĤÐ¾ÑĢ": 1056,
      "ĠÑģÐ¾ÑĥÐ»Ð¼ÐµÐ¹ÑĤ": 1057,
      "##ľ¨": 1058,
      "##ne": 1059,
      "##Ð¸ÑĤÐµÐ»": 1060,
      "##Ð°Ð½Ð¸": 1061,
      "ĠÐ·Ð°Ð²": 1062,
      "ĠÐ¿ÑĢÑıÐ¼": 1063,
      "ĠÐ¿Ð¾ÑģÐ»": 1064,
      "ĠÑģÐ°Ð¼Ð¾Ð¼": 1065,
      "ĠÐ´ÐµÐ»Ðµ": 1066,
      "ĠÐ³ÑĢÑĥÐ¿Ð¿": 1067,
      "ĠÐ¿ÑĢÑıÐ¼Ð¾": 1068,
      "ĠM": 1069,
      "ĠÐ¼Ð¾Ð³": 1070,
      "ĠÐ½ÐµÐ´": 1071,
      "##Ð°Ð½Ð¸Ñı": 1072,
      "##ÑĥÐ¿ÐµÑĢ": 1073,
      "ĠÑħÐ°ÑĢÐ°ÐºÑĤÐµÑĢ": 1074,
      "ĠÐ¶Ð¸Ð²Ð¾ÑĤ": 1075,
      "Ðŀ": 1076,
      "ĠS": 1077,
      "##ct": 1078,
      "##in": 1079,
      "ĠÐºÐ»Ð¸": 1080,
      "##Ð¾Ð²Ð¸": 1081,
      "##Ð°Ð½Ð´": 1082,
      "ĠÐ·Ð°Ðº": 1083,
      "ĠÑĩÐµÑĢ": 1084,
      "##Ð¾Ð¶ÐµÑĤ": 1085,
      "ĠÐºÐ¾ÑĢÐµÐ¹": 1086,
      "ĠÑĢÐ°ÑģÑģÐºÐ°Ð¶ÐµÐ¼": 1087,
      "ĠÐŁÑĢÐ¾Ð²ÐµÑĢÑĮ": 1088,
      "##ÐµÐ»Ð¾Ð²ÐµÐº": 1089,
      "ĠÐºÐ½Ð¸Ð³": 1090,
      "Ġ7": 1091,
      "##ÐµÑģÑı": 1092,
      "##ÑĤÑĢ": 1093,
      "##ÑĮÑı": 1094,
      "ĠÐļÐµÐ¼": 1095,
      "##Ð¾Ð»Ð½": 1096,
      "ĠÐ·Ð¸Ð¼": 1097,
      "Â»:": 1098,
      "ĠÐ¿ÑĢÐ¾Ð³": 1099,
      "##Ð¾Ð¶Ð´": 1100,
      "##ÐµÐºÑģ": 1101,
      "ĠâĢ": 1102,
      "ĠÐºÐ°Ð´ÑĢÑĥ": 1103,
      "ĠÐ·Ð°Ð¼ÑĥÐ¶": 1104,
      "ÐłÐ¸Ð²ÐµÑĢÐ´ÐµÐ¹Ð»Ð°": 1105,
      "##ÑĭÐ¼": 1106,
      "##ÐµÐ½Ð¸": 1107,
      "##Ð¾Ð»Ð¾Ð²": 1108,
      "ĠÐ¾Ðº": 1109,
      "ĠÐ¿ÑĢÐ¾Ð¹Ð´ÐµÑĤ": 1110,
      "ĠÐĿÐ°Ð¹": 1111,
      "ĠÐ³Ð»Ð°Ð·": 1112,
      "ĠBT": 1113,
      "ĠÐ³Ð¾ÑĢÐ¾Ð´": 1114,
      "##ÑĥÐ»ÑıÑĢ": 1115,
      "ĠÐºÐ»Ð¸Ð¿": 1116,
      "ĠâĢĵ": 1117,
      "ÑĤ": 1118,
      "ĠÑģÑĢÐµÐ´": 1119,
      "ĠÐ±Ð»Ð¸": 1120,
      "##Ð¾Ð¼Ð°Ð½": 1121,
      "##Ð°Ð¼Ð¸": 1122,
      "Ġâľ¨": 1123,
      "##ÑĢÐµÐ½Ð´": 1124,
      "ĠÐ¿ÑģÐ¸ÑħÐ¾Ð»Ð¾Ð³": 1125,
      "ĠBTS": 1126,
      "ÐĴ": 1127,
      "Ðľ": 1128,
      "##ÑĥÐ½": 1129,
      "ĠÑĤÐ¸Ð¿": 1130,
      "##ÐºÐ¾Ð²": 1131,
      "ĠÑģÑĥÐ´ÑĮÐ±": 1132,
      "ĠÐ²Ð¾Ð·": 1133,
      "##Ð±ÐµÑĢ": 1134,
      "##ÑĢÐ¸Ð³": 1135,
      "ĠÑģÐ¼Ð¾ÑĤ": 1136,
      "ĠÐ¼Ð°Ð½Ð¸Ðº": 1137,
      "ĠÐ²ÑģÑĤÑĢÐµÑĩÐ°ÑĤÑĮÑģÑı": 1138,
      "##ea": 1139,
      "##Ð»Ð¸ÑĤ": 1140,
      "ĠÐ²ÑĭÐ¹": 1141,
      "##Ð¾Ð²Ð°ÑĤÑĮ": 1142,
      "ĠÐ½Ð°Ñĩ": 1143,
      "##Ð½Ð¸Ðµ": 1144,
      "ĠÑĢÑĥÑģ": 1145,
      "ĠÐ»Ð¸Ñĩ": 1146,
      "ĠÑģÐµÑĢÐ¸Ð°Ð»Ð¾Ð²": 1147,
      "##Ð°Ð±Ð¾ÑĤ": 1148,
      "ĠÐ½Ð°ÑģÑĤÐ¾ÑıÑī": 1149,
      "ĠÐ¿Ð»Ð°ÑĤÑĮ": 1150,
      "ĠÐ¿ÑĢÐ¾Ð²ÐµÐ´ÐµÑĪÑĮ": 1151,
      "##Ð¸Ð»Ð°": 1152,
      "##Ð°Ð¶ÐµÑĤ": 1153,
      "##Ð¾Ð¼Ñĥ": 1154,
      "ĠÐ´Ð¾Ð»": 1155,
      "##Ð¿ÑĢÐ°Ð²": 1156,
      "ĠÐ¿Ð¾Ñĩ": 1157,
      "ĠðŁĲ": 1158,
      "ĠÐ¿ÑĢÐ¸Ð²": 1159,
      "##Ð¾ÑĢÐ¸Ð¼": 1160,
      "ĠÑģÑĤÐ°Ð½ÐµÑĤ": 1161,
      "##Ð¾Ð±Ñĭ": 1162,
      "ĠÐ¾Ð¿Ð¸Ñģ": 1163,
      "ĠÐ»ÑİÐ±Ð¸Ð¼ÑĭÐ¹": 1164,
      "ĠÐ¿Ð¾Ð¿ÑĥÐ»ÑıÑĢ": 1165,
      "ĠÑįÑĤÐ¸Ñħ": 1166,
      "ĠÑģÐ¾Ð²ÐµÑĤ": 1167,
      "##ÑĢÐ°Ñħ": 1168,
      "##ÑĥÑĢ": 1169,
      "##ÑĮÑİ": 1170,
      "ĠÑģÐµÑĢÐ´": 1171,
      "##ÑĪÐ»": 1172,
      "ĠÐ¼ÐµÑģÑı": 1173,
      "##ÑĨÐº": 1174,
      "ĠÐĿÐ°Ð·": 1175,
      "ĠÐ¿Ð¾Ð´Ð°ÑĢ": 1176,
      "ĠÑģÐ²Ð¾ÐµÐ³Ð¾": 1177,
      "ĠÐ´ÑĢÑĥÐ³Ð¸Ðµ": 1178,
      "ĠDi": 1179,
      "ĠÐĿÐ°Ð¹Ð´Ð¸": 1180,
      "##ar": 1181,
      "ĠÑĤÑĥÑĢÐµ": 1182,
      "ĠÑģÐ¾ÑģÑĤ": 1183,
      "ĠÐ²ÐºÑĥ": 1184,
      "ĠÐ¸Ð·Ð²ÐµÑģÑĤ": 1185,
      "ĠÐ¿ÑĢÐ°Ð²": 1186,
      "ĠÐ¿ÑĢÐ¸Ð³": 1187,
      "ĠÐĿÐ¾Ð²ÑĭÐ¹": 1188,
      "##Ð¾ÑĤÐ¾Ð²ÑĮ": 1189,
      "ĠÑģÐ»Ð¾Ð²": 1190,
      "ĠÑįÐ¼Ð¾ÑĨ": 1191,
      "ĠÐ¡Ð¿Ð¾ÑĢÐ¸Ð¼": 1192,
      "ĠÐ²Ð»ÑİÐ±Ð»ÐµÐ½": 1193,
      "ÐŃÐ»Ð¸ÑĤ": 1194,
      "ĠÐ¼Ð°Ð½Ð¸ÐºÑİÑĢ": 1195,
      "##Ð¾ÑģÐ¾Ð²": 1196,
      "##ÑģÐ¸Ð¸": 1197,
      "ĠÐ¿Ð¾Ð·": 1198,
      "##Ð»ÐµÑĤ": 1199,
      "ĠÐ²Ð¾": 1200,
      "##Ð°Ð½Ð¸Ð·": 1201,
      "ĠÐ°Ð¹": 1202,
      "##ÑĢÑĥÐ¶": 1203,
      "##ÑĢÐ°ÑģÑĤ": 1204,
      "##Ð½ÐµÐµ": 1205,
      "ĠÐ½Ð°ÑģÑĤÑĢÐ¾": 1206,
      "##Ð°ÑİÑĤ": 1207,
      "ĠÑįÐºÑģÑĤÑĢ": 1208,
      "##ÑĢÐ³Ð°Ð½Ð¸Ð·": 1209,
      "ĠÐĿÐ°Ð·Ð¾Ð²Ð¸": 1210,
      "ĠÑĤÑĥÑĢÐµÑĨÐº": 1211,
      "##sh": 1212,
      "##Ð¸ÑĪ": 1213,
      "ĠÐ²ÐµÑĩ": 1214,
      "##ÑĩÐµÐ½ÑĮ": 1215,
      "ĠÐ´Ð¾": 1216,
      "##ÑģÐºÐ¾Ð¹": 1217,
      "ĠÑĩÐµÑĢÑĤ": 1218,
      "ĠÑĩÐµÐ»Ð¾Ð²ÐµÐº": 1219,
      "ĠðŁĺı": 1220,
      "##Ð¾ÑĩÐºÐ°": 1221,
      "ĠÐ¿ÐµÑģÐ½Ñİ": 1222,
      "ĠÑģÐ¾Ð¾Ð±": 1223,
      "ĠÐ¸Ð´ÐµÐ°Ð»ÑĮÐ½ÑĭÐ¹": 1224,
      "ĠÐ»ÑĥÑĩÑĪÐµ": 1225,
      "ĠÐ½ÐµÐ´ÐµÐ»": 1226,
      "Ðļ": 1227,
      "##pa": 1228,
      "##ÑĢÐ¸Ð½": 1229,
      "ĠÑĤÑĢ": 1230,
      "ĠÑģÑĭ": 1231,
      "ĠÑģÐµÑĢ": 1232,
      "ĠÑģÐ²Ð°Ð´": 1233,
      "ĠÑĦÐ¸Ð»ÑĮÐ¼Ð°": 1234,
      "ĠÐłÐ°ÑģÑģÐº": 1235,
      "ĠÑģÐ»ÑĥÑĩ": 1236,
      "ĠÑģÑĢÐµÐ´Ð¸": 1237,
      "ĠÐ²ÐºÑĥÑģ": 1238,
      "ĠÐ°Ð¹Ð´": 1239,
      "ĠÐłÐ°ÑģÑģÐºÐ°Ð¶Ð¸": 1240,
      "Ðĳ": 1241,
      "##Ð¾Ñħ": 1242,
      "ĠÐ¼Ð¾ÑĢ": 1243,
      "##ÐµÐ½Ð°": 1244,
      "##Ð¾Ð»Ð¾ÑģÐ¾Ð²": 1245,
      "##ÑģÐºÑĥÑİ": 1246,
      "ĠÐ¡ÑĤ": 1247,
      "ĠÐ¿ÑĢÐ¸": 1248,
      "ĠÑĢÐ¾Ð´": 1249,
      "ĠÐŁÑĢÐ¸Ð³": 1250,
      "ĠÐ¾ÑĤÐ½Ð¾ÑĪÐµÐ½Ð¸ÑıÑħ": 1251,
      "ĠÐ¿ÑĢÐ¾Ð³Ð¾Ð»Ð¾ÑģÐ¾Ð²": 1252,
      "ĠÐ¿Ð»Ð°ÑĤÑĮÐµ": 1253,
      "ĠÐ¿ÑĢÐ¾Ð³Ð¾Ð»Ð¾ÑģÐ¾Ð²Ð°Ð»Ð¸": 1254,
      "##mpa": 1255,
      "##ÑĢÑıÑĤ": 1256,
      "##ÑĪÐµÐ±": 1257,
      "ĠÐ¼ÐµÐ¼": 1258,
      "##ÑĩÐ¸Ðº": 1259,
      "##Ð¾Ð»ÑĪÐµÐ±": 1260,
      "ĠÐ»Ñİ": 1261,
      "ĠÑĥÑģÐ¿": 1262,
      "ĠÐ¿Ð¾ÑģÑĤ": 1263,
      "ĠÐ±ÑĭÑĤÑĮ": 1264,
      "##Ð½Ð¸ÑĨ": 1265,
      "ĠÑĢÐ°Ð±Ð¾ÑĤ": 1266,
      "ĠÑģÑĤÐ¸Ñħ": 1267,
      "ĠÐłÐ¾Ñģ": 1268,
      "ĠÑĢÐ°Ð·Ð±": 1269,
      "ĠÑģÐ¿ÑĢÑıÑĤ": 1270,
      "ĠÐ¿Ð¾Ð´ÑģÐºÐ°Ð¶ÐµÐ¼": 1271,
      "##ensh": 1272,
      "ĠImpa": 1273,
      "ĠÐ¿ÑģÐ¸ÑħÐ¾Ð»Ð¾Ð³Ð¸ÑĩÐµÑģÐº": 1274,
      "ĠÑģÐ¼Ð¾ÑĤÑĢÐ¸": 1275,
      "##enshin": 1276,
      "ĠImpact": 1277,
      "##ÑģÑĭ": 1278,
      "ĠÐ²ÐµÑģ": 1279,
      "ĠÐ¶Ð¸ÑĤÑĮ": 1280,
      "##ÑĢÑĥÐ·": 1281,
      "ĠðŁĴĸ": 1282,
      "ĠÐºÐ°ÑĢÑĤÐ¸Ð½ÐºÐµ": 1283,
      "##Ð»Ð°ÑģÑĮ": 1284,
      "ĠÐ´Ð¾ÑĢÐ°Ð¼Ñĥ": 1285,
      "ĠÐ¿Ð¾Ð»ÑĥÑĩÐ¸": 1286,
      "ĠÐ²ÑĭÐ¹Ð´ÐµÑĪÑĮ": 1287,
      "ĠÑģÐ»ÑĥÑĩÐ¸ÑĤÑģÑı": 1288,
      "ĠÐŁÑĢÐ¸Ð³Ð¾ÑĤÐ¾Ð²ÑĮ": 1289,
      "Ð·": 1290,
      "##ÑĬ": 1291,
      "##ÑĥÐ²": 1292,
      "##Ð½Ð³": 1293,
      "ĠÑĤÐµÑģÑĤ": 1294,
      "##Ð²Ð°": 1295,
      "##ÐµÑĢÐ°": 1296,
      "##Ð¼Ð¸": 1297,
      "##ÑĢÐ¾ÑģÑĤ": 1298,
      "ĠÑĥÐ²": 1299,
      "ĠÐ¿Ð¾ÑĨ": 1300,
      "##ÐµÐ´Ð¸": 1301,
      "ĠÐ¿ÑĢÐ¾ÑĪÐ»": 1302,
      "ĠðŁĺį": 1303,
      "Ġ201": 1304,
      "##Ð¾Ð·Ð´": 1305,
      "ĠÐ¥Ð¾Ð³": 1306,
      "ĠÑģÑĤÑĢÐ°Ð½Ñĥ": 1307,
      "ĠÐ¼ÑĥÐ¶Ð°": 1308,
      "##Ð¾Ð»Ð¾ÑģÑĥÐ¹": 1309,
      "ĠÑģÐµÐ±Ñı": 1310,
      "ĠÑĦÐ°ÐºÑĤ": 1311,
      "ĠÐ²Ð¾Ð·ÑĢÐ°ÑģÑĤ": 1312,
      "ĠÐ´Ð¾Ð»Ð¶": 1313,
      "##ÐµÐµ": 1314,
      "##ÐµÑĨ": 1315,
      "##Ð½ÑĥÑĤ": 1316,
      "ĠÑģÑĥÐ¿ÐµÑĢ": 1317,
      "##ÑıÐ½": 1318,
      "##Ð²Ð°ÑĢÑĤ": 1319,
      "##Ð¼ÐµÑĤ": 1320,
      "##ÑģÐºÐ¾Ð³Ð¾": 1321,
      "##Ð¿Ñĥ": 1322,
      "ĠðŁĶ": 1323,
      "ĠÑĢÐ°Ñģ": 1324,
      "ĠÑĢÐ¾Ð¼Ð°Ð½": 1325,
      "ĠÐĵÐ¾Ð»Ð¾ÑģÑĥÐ¹": 1326,
      "ĠÐ¿Ð¾Ð´ÑĢÑĥÐ³": 1327,
      "ĠÐ¿ÑĢÐ¾ÑĦ": 1328,
      "##ÑĢÐ°ÑĦ": 1329,
      "ĠÐ¿ÐµÑĢÑģÐ¾Ð½Ð°Ð¶ÐµÐ¹": 1330,
      "##Ð»Ð°ÑģÑģ": 1331,
      "ĠðŁ¤Ķ": 1332,
      "ĠGenshin": 1333,
      "##ÑĥÐ»ÑĮÑĤ": 1334,
      "ĠÐ¿Ð¾ÑĩÐµÐ¼Ñĥ": 1335,
      "ÐŃÐ»Ð¸ÑĤÑĭ": 1336,
      "ĠÑģÐµÑĢÐ´Ðµ": 1337,
      "ÐĲ": 1338,
      "Ð¿": 1339,
      "##ÑĢÐ¾Ð¼": 1340,
      "##Ð»Ð¾Ð¶": 1341,
      "##Ð»Ð¾Ñĥ": 1342,
      "ĠÐºÑĢÐ°ÑĪ": 1343,
      "##Ð´Ð¶": 1344,
      "ĠÐ·Ð»": 1345,
      "##ÑģÐºÐ°Ð·": 1346,
      "ĠÑĥÐ¶": 1347,
      "##ÐµÑĪÑĮÑģÑı": 1348,
      "##Ð¾ÑĤÐ¾Ð²Ð°": 1349,
      "ĠÑģÐ»ÐµÐ´": 1350,
      "Ġ2021": 1351,
      "##Ð¼ÐµÐµÑĪÑĮ": 1352,
      "ĠÐ±ÑĥÐ´ÑĥÑīÐµÐ³Ð¾": 1353,
      "##ÐµÑģÑĤÐ²ÐµÐ½": 1354,
      "ĠÑģÐºÐ°Ð·Ð°Ð»": 1355,
      "ĠÑģÑĩÐ°ÑģÑĤÐ»Ð¸Ð²": 1356,
      "##eam": 1357,
      "ĠDis": 1358,
      "ĠÑģÐ¾ÑģÑĤÐ¾Ñı": 1359,
      "ĠÐłÐ¾ÑģÑģÐ¸Ð¸": 1360,
      "ĠÐ¥Ð¾Ð³Ð²Ð°ÑĢÑĤ": 1361,
      "Ġ(": 1362,
      "##ÑĥÐµÑĤ": 1363,
      "ĠÑĤÑĢÐ°Ð²": 1364,
      "##Ð²Ð°ÑĤ": 1365,
      "ĠÐ¸Ð¼": 1366,
      "ĠÐºÑĥÐ¿": 1367,
      "ĠÐ¼Ð¸ÑĢ": 1368,
      "##ÐµÑĤÐºÐ°": 1369,
      "ĠÐļÐ°ÑĢ": 1370,
      "ĠÐļÐ°ÐºÐ¸Ð¼": 1371,
      "##Ð¾Ð³ÑĢÐ°ÑĦ": 1372,
      "ĠÑĢÐ¾Ð¶Ð´": 1373,
      "##Ð°Ð¼Ð¿Ð¸": 1374,
      "##ÐµÑģÐµÑĤ": 1375,
      "ĠÑģÐ²Ð¾ÐµÐ¹": 1376,
      "##Ð¸ÑĢÐ°ÐµÑĪÑĮÑģÑı": 1377,
      "##ÑıÑĤÑĮ": 1378,
      "##Ð½Ð¸ÐºÐ¾Ð²": 1379,
      "ĠÐ¾ÑĤÐ»Ð¸ÑĩÐ¸ÑĤÑĮ": 1380,
      "##Ð¸Ð¾Ð½Ð°Ð»ÑĮ": 1381,
      "##ney": 1382,
      "ĠÑģÐ¾Ð¾Ð±ÑĢÐ°Ð·": 1383,
      "ĠÐ¿Ð¾ÑĨÐµÐ»": 1384,
      "ĠÑģÐµÑĢÐ´ÐµÑĩ": 1385,
      "ĠDisney": 1386,
      "##et": 1387,
      "##Ð¾ÑĤÐ¾": 1388,
      "ĠÑĤÐ¾Ñĩ": 1389,
      "ĠÑģÐµÐ¼": 1390,
      "ĠÐ¸Ð¼ÐµÐ½": 1391,
      "ĠÐºÑĢÐ°Ñģ": 1392,
      "ĠÐ²ÑĭÐ±": 1393,
      "##Ð³Ð»Ñı": 1394,
      "##Ð°Ð½Ð¸Ñİ": 1395,
      "##Ð¸Ð½Ð³": 1396,
      "##ÑĢÑĥÐ¹": 1397,
      "ĠÐŁÐ¾Ð¿": 1398,
      "##Ð´Ð°Ñĩ": 1399,
      "ĠÐ¾Ð±ÑĢÐ°Ð·": 1400,
      "ĠÐ·Ð½Ð°ÐºÑĥ": 1401,
      "##ÑįÐ»": 1402,
      "ĠÐºÐ¾ÑĤÐ¾ÑĢ": 1403,
      "##ÐµÑģÑĤÐ²Ð¾": 1404,
      "ĠÐ¾ÑģÐµÐ½ÑĮ": 1405,
      "ĠÐĺÐ·": 1406,
      "##ÑĢÐµÐ¼Ñı": 1407,
      "ĠÐ¶Ð¸Ð²Ð¾ÑĤÐ½Ð¾Ðµ": 1408,
      "ĠÑģÐ¾Ð¾Ð±ÑĢÐ°Ð·Ð¸ÑĤÐµÐ»ÑĮ": 1409,
      "Ñħ": 1410,
      "##Ð°ÑĪ": 1411,
      "##ÐµÑħ": 1412,
      "##Ð½ÐµÐ²": 1413,
      "##ÑĮÐµ": 1414,
      "##Ð»Ð°Ð½Ð¸": 1415,
      "ĠÐºÐ°ÑĢ": 1416,
      "ĠÐ²Ð¾Ð»ÑĪÐµÐ±": 1417,
      "ĠÐ²Ð°Ð¼Ð¿Ð¸": 1418,
      "##Ð¾Ð¹ÑĤÐ¸": 1419,
      "##Ð°Ð½Ð½ÑĭÑħ": 1420,
      "ĠÐ´Ð¾ÑģÑĤ": 1421,
      "ĠÑĥÐ´Ð°Ñĩ": 1422,
      "ĠðŁĵ": 1423,
      "ĠÑĦÐ¾ÑĤ": 1424,
      "##ÐµÐ²ÑĢ": 1425,
      "ĠÐµÑģÐ»Ð¸": 1426,
      "ĠÐľÑĭ": 1427,
      "ĠðŁĴĹ": 1428,
      "ĠÐºÐ°ÑĢÑĤÐ¸Ð½Ñĥ": 1429,
      "ĠÐ±ÑĥÐ´ÑĥÑīÐ¸Ð¹": 1430,
      "ĠÐ¸Ð´ÐµÐ°Ð»ÑĮÐ½Ð¾": 1431,
      "##ÑĢÑıÐ´": 1432,
      "##Ð·ÑĭÐº": 1433,
      "ÑĤÐµÑģÑĤ": 1434,
      "ĠÐ±Ð»Ð¸Ð¶": 1435,
      "ĠÑģÐµÑĢÐ´ÑĨÐµ": 1436,
      "ĠÑĢÐ°Ð·Ð±Ð¸ÑĢÐ°ÐµÑĪÑĮÑģÑı": 1437,
      "ĠÑģÐ¾Ð¾Ð±ÑĢÐ°Ð·Ð¸ÑĤÐµÐ»ÑĮÐ½Ð¾ÑģÑĤÑĮ": 1438,
      "##Ð»Ð°Ð½Ð¸ÑĢÑĥÐ¹": 1439,
      "Ð¢": 1440,
      "##Ģį": 1441,
      "##âĢį": 1442,
      "##ÑĥÐ³": 1443,
      "##Ð¾Ð²Ð¾Ð¹": 1444,
      "##Ð±Ð¸": 1445,
      "##ÐµÐ½Ð½Ð°Ñı": 1446,
      "##Ð°Ð½Ñĭ": 1447,
      "ĠÐ¾Ð½": 1448,
      "##ÐµÐ´ÑĮ": 1449,
      "ĠÑĦÐ°Ð½": 1450,
      "ĠÐ¶ÐµÐ½": 1451,
      "ĠÐµÐ»": 1452,
      "##Ð¾ÑĩÐºÑĥ": 1453,
      "ĠÐ²ÑĭÑħÐ¾Ð´": 1454,
      "ĠÐ¿ÑĢÐ¸Ð½ÐµÑģÐµÑĤ": 1455,
      "##ÑĭÐ²Ð°ÐµÑĤ": 1456,
      "ĠÑĪÐºÐ¾Ð»": 1457,
      "##ÑĢÐ¾Ð±ÑĥÐ¹": 1458,
      "ĠN": 1459,
      "##Ðĵ": 1460,
      "##ÑĤÐ°": 1461,
      "##ÑģÐ»": 1462,
      "##Ð½ÐµÐ¹": 1463,
      "ĠÑģÐµÐ»": 1464,
      "ĠÐ¼Ð¾Ð´": 1465,
      "##Ð¾Ð¹ÑĦ": 1466,
      "ĠÐ°Ð»ÑĮ": 1467,
      "ĠÐ¡Ð²": 1468,
      "ĠÑģÑĤÑĢÐ¾Ñĩ": 1469,
      "ĠÐ·Ð½Ð°ÐºÐ°": 1470,
      "ĠÐ¢Ð²": 1471,
      "ĠÐ¿ÐµÑģÐ½Ð¸": 1472,
      "ĠÐ±ÑĥÐ´ÑĥÑīÐµÐ¼": 1473,
      "ĠÐ¡Ð¿Ð»Ð°Ð½Ð¸ÑĢÑĥÐ¹": 1474,
      "ĠÐ¸Ð½ÑĤÐµÑĢ": 1475,
      "ĠðŁ¥°": 1476,
      "ĠÑģÐµÐ±Ðµ": 1477,
      "ÐŀÑĩÐµÐ½ÑĮ": 1478,
      "ĠÑĩÐµÑĢÐµÐ·": 1479,
      "ĠÐ¿ÑĢÐ¾ÑĦÐµÑģÑģ": 1480,
      "ĠÐ·Ð»Ð¾Ð´": 1481,
      "##ÐĵÐ": 1482,
      "ÑĢ": 1483,
      "Ġ9": 1484,
      "##el": 1485,
      "##Ð»Ðµ": 1486,
      "ĠÐºÐ»Ð°ÑģÑģ": 1487,
      "ĠÐ¼Ð°Ðº": 1488,
      "##Ð¼Ñĭ": 1489,
      "ĠÐ±ÑĥÐº": 1490,
      "ĠÐ±Ð¾Ð¹ÑĦ": 1491,
      "ĠÐ¾Ð¿": 1492,
      "ĠÐ¾ÑĢÐ³Ð°Ð½Ð¸Ð·": 1493,
      "ĠÐ´Ð¾Ð¼Ð°": 1494,
      "##ðŁı": 1495,
      "ĠÐ¸Ð·Ð¼ÐµÐ½": 1496,
      "ĠðŁ§": 1497,
      "ĠÐ¡Ð¾Ð·Ð´": 1498,
      "##Ð¾ÑĢÑĤ": 1499,
      "##Ð¾Ð¶ÐµÐ½": 1500,
      "##ÑĥÑİÑī": 1501,
      "ĠÑĦÐ¾ÑĤÐ¾": 1502,
      "##ÐµÑģÑĤÐ¸": 1503,
      "##ÑĤÐ¸Ñĩ": 1504,
      "ĠÐºÐ¾Ð¼Ð¿": 1505,
      "ĠÐ¾ÑģÐµÐ½": 1506,
      "ĠÑĪÐºÐ¾Ð»ÑĮ": 1507,
      "ĠÑģÑĭÐ³": 1508,
      "ĠÑĤÑĢÐ°Ð²Ð¼Ð°": 1509,
      "ĠÐ¡Ð¾Ð·Ð´Ð°Ð¹": 1510,
      "##Ð°ÑģÐº": 1511,
      "##ÑģÑĮ": 1512,
      "##ÑĢÐ°Ð¶": 1513,
      "##ÑĥÑħ": 1514,
      "##Ð»Ð¾Ðº": 1515,
      "ĠÐ¼Ð¸Ð»": 1516,
      "ĠÐ¼Ð½Ð¾Ð³Ð¾": 1517,
      "##ÐµÑĤÑģÑı": 1518,
      "##ÐµÐ½Ð¾Ðº": 1519,
      "ĠÐ±Ð»Ñİ": 1520,
      "ĠÐ¿Ð¾ÑĢ": 1521,
      "##ÑĨÐ¾": 1522,
      "##Ð½Ð¸ÑĨÐ°": 1523,
      "ĠÑĢÐµÐ±": 1524,
      "##Ð°ÑģÑĮ": 1525,
      "ĠÐ¿ÑĢÐ¾Ð¸Ð·": 1526,
      "ĠÑĨÐ²ÐµÑĤÐ¾Ðº": 1527
    },
    "merges": [
      "Ġ ##Ð",
      "##Ð ##°",
      "##Ð ##¾",
      "##Ð ##µ",
      "##Ñ ##Ĥ",
      "##Ð ##¸",
      "##Ð¾ ##Ð",
      "##Ð° ##Ð",
      "##Ñ ##ģ",
      "##Ñ ##Ģ",
      "##Ðµ ##Ð",
      "##Ñ ##ĭ",
      "##Ñ ##ĥ",
      "##Ð ##½",
      "Ġ ##ÑĤ",
      "##Ñ ##Į",
      "##Ð ##º",
      "Ġ ##Ñģ",
      "ĠÐ ##¿",
      "##Ñ ##ı",
      "##Ð ##»",
      "##Ð ##²",
      "##Ð°Ð ##º",
      "ĠÐ ##¸",
      "ĠÐ ##º",
      "##Ðµ ##ÑĢ",
      "##Ñ ##Ī",
      "ĠÑĤ ##Ñĭ",
      "##Ð ##´",
      "ĠÐ ##²",
      "Ġ ##Ñ",
      "##ÐµÐ ##¼",
      "ĠÐ ##¼",
      "##Ð ##¼",
      "ĠÐ ##½",
      "##Ðµ ##ÑĤ",
      "##Ð¾Ð ##¹",
      "##Ð ##·",
      "##Ð¾Ð ##²",
      "ĠÐ ##ļ",
      "##Ð ##±",
      "##ÐµÐ ##±",
      "##Ñģ ##ÑĤ",
      "##Ñ ##İ",
      "##Ñ ##ĩ",
      "##Ñ ##ħ",
      "##ÐµÐ ##½",
      "ĠÐ ##±",
      "ĠÐ½ ##Ð°",
      "ĠÑĤ ##ÐµÐ±",
      "##Ð¾Ð ##»",
      "##Ð¾Ð ##´",
      "ĠÐº ##Ð°Ðº",
      "##Ð ##³",
      "##Ð°Ð ##´",
      "##ÐµÑĢ ##Ð¸",
      "ĠÐ¼ ##Ñĭ",
      "##Ð¸ ##ÑĤ",
      "##Ð°Ð ##¶",
      "ĠÐļ ##Ð°Ðº",
      "##ÑĤ ##Ð¾",
      "##Ð°Ð ##¹",
      "ĠÑģ ##Ðº",
      "ĠÐ ##Ĵ",
      "##Ð°Ð ##½",
      "ĠÐ ##¾",
      "##Ð¾Ð ##³",
      "##ÑĪ ##ÑĮ",
      "##Ð° ##ÑĤ",
      "##Ð¾Ð ##¼",
      "ĠÐ ##·",
      "ĠÐ ##»",
      "##ÑĢ ##Ð¾",
      "ĠÐ ##´",
      "##Ñģ ##Ðº",
      "Ġ ##Ñĥ",
      "##Ð ##¿",
      "ĠÐ¿ ##Ð¾",
      "##ð ##Ł",
      "##Ð ##¹",
      "##Ð° ##ÑĢ",
      "ĠÐ¸ ##Ð·",
      "ĠÑĤ ##Ð²",
      "##Ð°Ð ##»",
      "##Ð°Ð¶ ##ÐµÐ¼",
      "Ġ ##ðŁ",
      "ĠÐ ##°",
      "##Ð» ##Ð¸",
      "##Ñĭ ##Ð±",
      "ĠÑĤÐµÐ± ##Ðµ",
      "##Ð° ##Ñı",
      "ĠÑģÐº ##Ð°Ð¶ÐµÐ¼",
      "ĠÐĴ ##ÑĭÐ±",
      "ĠÐĴÑĭÐ± ##ÐµÑĢÐ¸",
      "ĠÐ ##³",
      "##Ð¸ ##Ð½",
      "##Ðµ ##ÑĪÑĮ",
      "##ÐµÐ ##¹",
      "##ÐµÐ ##»",
      "ĠÐ ##¡",
      "##Ð¾Ð» ##ÑĮ",
      "##Ñ ##Ĩ",
      "ĠÐ± ##Ñĭ",
      "Ġ ##Â",
      "ĠÂ ##«",
      "Â ##»",
      "##Ð½ ##Ð¸",
      "ĠÐ¿ ##ÑĢ",
      "##Ð³ ##Ð°Ð´",
      "##Ð½ ##Ñĭ",
      "ĠÑĤÐ² ##Ð¾",
      "##Ð¾ ##ÑĢ",
      "ĠÑ ##ĩ",
      "##Ð ##¶",
      "Ġ ##ÑĢ",
      "##Ð°ÑĤ ##ÑĮ",
      "##Ð¾Ð ##½",
      "##Ð¸ ##Ð¼",
      "##Ð» ##Ð°",
      "##Ð°Ð ##¼",
      "##Ð¾Ð ##¶",
      "ĠÐ ##ĵ",
      "ĠÐ ##£",
      "##Ñģ ##Ñı",
      "##Ðº ##Ð¾",
      "##Ð² ##ÐµÑĤ",
      "##Ð· ##Ð½",
      "ĠÐ ##Ŀ",
      "##Ð½ ##Ð¾",
      "##Ð°Ð ##·",
      "##Ð¾Ð ##¿",
      "ĠÑĤÐµÐ± ##Ñı",
      "##Ñĥ ##Ð´",
      "##Ðº ##Ð°",
      "ĠÑ ##į",
      "##Ð¾Ð»ÑĮ ##ÐºÐ¾",
      "##Ð¾Ð³ ##Ð¾",
      "##ÐµÐ ##´",
      "##Ñĥ ##Ñİ",
      "##Ð¾ ##ÑĤ",
      "##Ð» ##ÑĮ",
      "ĠÐ¸ ##Ð»Ð¸",
      "ĠÑģ ##ÑĤ",
      "##Ð° ##ÐµÐ¼",
      "##Ñģ ##Ð¾Ð²",
      "ĠÐļÐ°Ðº ##Ð¾Ð¹",
      "ĠÐ» ##Ð¸",
      "##Ð¸ ##Ðµ",
      "ĠÑ ##Ħ",
      "ĠÐ ##ŀ",
      "##Ð³Ð°Ð´ ##Ð°Ð¹",
      "##Ñ ##Ħ",
      "ĠÐ£ ##Ð³Ð°Ð´Ð°Ð¹",
      "##ÐµÐ ##³",
      "ĠÐ ##¶",
      "##ÐµÐ ##²",
      "ĠÐºÐ°Ðº ##Ð¾Ð¹",
      "##Ðµ ##Ñģ",
      "ĠÐ· ##Ð½",
      "ĠÐļÐ°Ðº ##Ð°Ñı",
      "ĠÑģ ##Ð²",
      "ĠÐ¿ ##Ð¾Ð´",
      "##Ð·Ð½ ##Ð°Ð¹",
      "ĠÑ ##ħ",
      "ĠÑ ##Ĩ",
      "##Ð¾Ð ##±",
      "##ÑĢ ##Ñĥ",
      "ĠÐĵ ##Ð°Ð´",
      "ĠÐĿ ##Ð°",
      "##Ðµ ##ÑģÑĤ",
      "ĠÐļ ##ÑĤÐ¾",
      "##Ð¾Ð ##º",
      "ĠÑĥ ##Ð·Ð½Ð°Ð¹",
      "##Ð°Ð ##²",
      "ĠÐŀ ##ÑĤ",
      "ĠÐ ##Ł",
      "##Ñİ ##Ð±",
      "ĠÑĤÐ² ##Ð¾Ð¹",
      "##Ð¾Ð¿ ##ÑĢÐ¾",
      "##Ð° ##Ñģ",
      "ĠÐ² ##Ð¾Ð¿ÑĢÐ¾",
      "##Ñ ##ī",
      "##ÐµÑĢÐ¸ ##Ð°Ð»",
      "##ÑĤ ##Ð¸",
      "ĠÐ¾ ##ÑĤ",
      "##ÐµÐ½ ##ÑĮ",
      "ĠÐ± ##ÑĥÐ´",
      "ĠÐŀÑĤ ##Ð²ÐµÑĤ",
      "ĠÑģ ##ÐµÑĢÐ¸Ð°Ð»",
      "ĠÐŀÑĤÐ²ÐµÑĤ ##ÑĮ",
      "ĠÐĵÐ°Ð´ ##Ð°ÐµÐ¼",
      "ĠÐ²Ð¾Ð¿ÑĢÐ¾ ##ÑģÐ¾Ð²",
      "##ÑĢ ##Ð¸",
      "##Ðº ##Ñĥ",
      "##Ð¸ÑĤ ##ÑĮ",
      "ĠÐ ##¢",
      "##Ð½ ##Ñı",
      "##ÐµÐ³ ##Ð¾",
      "##Ð¸ ##Ñı",
      "##Ð° ##ÐµÑĪÑĮ",
      "ĠÐ¿ ##Ð°ÑĢ",
      "##Ð¾ ##Ðµ",
      "##Ð¸ ##Ñħ",
      "ĠÐ» ##ÑİÐ±",
      "Â» ##?",
      "Â ##ł",
      "##Ð¸ ##Ð¹",
      "ĠÐ¶ ##Ð¸",
      "##Ð¸ ##Ð»ÑĮ",
      "##Ð½Ñĭ ##Ð¹",
      "ĠÐ¿ ##ÑĢÐ¾",
      "â ##Ģ",
      "##ÐµÐ ##º",
      "##ÑģÐº ##Ð¾Ð»ÑĮÐºÐ¾",
      "ĠðŁ ##ĺ",
      "âĢ ##Ķ",
      "##ÐµÐ ##·",
      "##Ð» ##Ñı",
      "##Ð¾ ##ÑĢÐ¾",
      "##Ð¾Ð³ ##Ð»Ð°",
      "##Ð° ##Ñħ",
      "ĠÐ ##µ",
      "##Ð¸ ##Ðº",
      "##Ð¿ ##Ð¸",
      "##Ð°Ð» ##ÑĮ",
      "##ÑĪ ##Ðµ",
      "##Ð´ ##Ðµ",
      "ĠÐ¡ ##Ð¼",
      "ĠÑĩ ##ÑĤÐ¾",
      "##ÐµÑĢ ##Ð¾",
      "##Ð¾ÑĢÐ¾ ##ÑĪ",
      "ĠÐ¿ ##ÐµÑĢ",
      "ĠÑħ ##Ð¾ÑĢÐ¾ÑĪ",
      "##Ñĭ ##Ð¹",
      "##Ð¾ ##Ñĩ",
      "##ÑĢ ##Ð°",
      "##Ð¾Ð¶ ##ÐµÑĪÑĮ",
      "##Ð¸Ð»ÑĮ ##Ð¼",
      "##Ð¸ ##ÑĪÑĮ",
      "ĠÐ ##ľ",
      "##ÑģÑĤ ##ÑĢ",
      "##Ð¸ÑĤ ##Ð°ÑĤ",
      "##Ð½Ñĭ ##Ñħ",
      "##2 ##0",
      "ĠÐ³ ##ÐµÑĢÐ¾",
      "ĠÑħÐ¾ÑĢÐ¾ÑĪ ##Ð¾",
      "ĠÑĨ ##Ð¸ÑĤÐ°ÑĤ",
      "##Ñĥ ##Ñĩ",
      "ĠÐ¼ ##Ñĥ",
      "##Ðµ ##Ñĩ",
      "ĠÑĥ ##Ð³Ð°Ð´",
      "ĠÐ ##Ķ",
      "##Ð´ ##Ð°",
      "ĠÐ ##§",
      "##Ð¾ ##Ñģ",
      "##Ð´ ##ÐµÑĤ",
      "##Ð°ÑĢ ##ÑĤ",
      "##Ð°Ðº ##Ð°",
      "Ġ ##20",
      "##Ð¸ ##Ñģ",
      "##ÑĤ ##ÐµÑĢ",
      "##Ð¾ ##ÑģÑĤ",
      "##Ð°Ð½ ##Ð¸Ðµ",
      "##Ð¾Ð´ ##Ð¸",
      "ĠÐĿÐ° ##ÑģÐºÐ¾Ð»ÑĮÐºÐ¾",
      "ĠÐ³ ##Ð¾Ð´",
      "ĠÐ± ##Ð¾Ð»ÑĮ",
      "ĠÐ¿ ##ÐµÑģ",
      "ĠÑģÐ² ##Ð¾",
      "##Ð¾Ð ##·",
      "ĠÑĨ ##Ð²ÐµÑĤ",
      "##Ñħ ##Ð¾Ð´",
      "##Ð¸ ##Ð¸",
      "ĠÑģÐº ##Ð¾Ð»ÑĮÐºÐ¾",
      "##Ð¸ ##Ð²",
      "##Ð½ ##Ð¾Ð¹",
      "ĠÐ² ##Ñģ",
      "##ÐµÐ½ ##ÑĤ",
      "##Ð° ##ÑģÑĤ",
      "##Ðº ##Ð¸",
      "ĠðŁ ##Ĵ",
      "ĠÐºÐ°Ðº ##Ð°Ñı",
      "ĠÑĦ ##Ð¸Ð»ÑĮÐ¼",
      "ĠÐ±Ð¾Ð»ÑĮ ##ÑĪÐµ",
      "##Ð° ##ÐµÑĤ",
      "ĠÐ·Ð½ ##Ð°ÐµÑĪÑĮ",
      "ĠÐ¡Ð¼ ##Ð¾Ð¶ÐµÑĪÑĮ",
      "ĠÐ¼ ##Ð¾Ð³Ð»Ð°",
      "ĠÐ¾ ##Ð¿Ð¸",
      "ĠÐ ##ł",
      "ĠÐ» ##ÐµÑĤ",
      "ĠÐ ##ĳ",
      "##Ð¸ ##ÑĢ",
      "ĠÑģ ##Ð»",
      "ĠÐº ##ÑĤÐ¾",
      "##ÐµÐ» ##ÑĮ",
      "##ÐºÐ° ##Ñħ",
      "##Ð¸ ##Ð´",
      "ĠÑģ ##Ð¼",
      "ĠÐ· ##Ð¾Ð´Ð¸",
      "ĠÐ·Ð¾Ð´Ð¸ ##Ð°ÐºÐ°",
      "##Ð¸ ##Ð»",
      "##Ð¸ ##Ñĩ",
      "ĠÐ±ÑĥÐ´ ##ÐµÑĤ",
      "ĠÐ¾ ##Ð±",
      "##Ð°Ð ##±",
      "ĠÐºÐ°Ðº ##Ð¾Ð¼",
      "Ġ20 ##2",
      "##ÑĢ ##Ð°Ð½",
      "##Ð½ ##Ð°Ñı",
      "ĠÐ½ ##Ðµ",
      "##Ñģ ##Ð¾Ð½",
      "Ġ ##ÑĪ",
      "ĠÐº ##Ð°ÑĢÑĤ",
      "ĠÐ² ##Ñĭ",
      "ĠÐºÐ°Ðº ##Ð¾Ð³Ð¾",
      "##Ð°Ð ##¿",
      "##ÑĢ ##Ðµ",
      "ĠÐ· ##Ð²",
      "##Ñĥ ##ÑĤ",
      "ĠÐ·Ð½ ##Ð°Ðº",
      "##Ðµ ##ÑģÐº",
      "##Ñı ##ÑĤ",
      "ĠÐ ##Ĳ",
      "##Ð½ ##ÑĥÑİ",
      "##Ð½ ##Ðµ",
      "##Ð½Ð¾ ##Ðµ",
      "ĠÐ´ ##ÐµÐ½ÑĮ",
      "ĠÐ¿Ð¾ ##Ñħ",
      "##ÐµÐ½ ##Ð¸Ñı",
      "##Ñ ##į",
      "ĠÑį ##ÑĤ",
      "Ġ ##8",
      "ĠÐ¿Ð¾Ñħ ##Ð¾Ð¶",
      "##Ñĥ ##Ñī",
      "##Ñĥ ##Ð¶",
      "##Ð½ ##Ð°",
      "ĠÐ² ##ÑģÑĤÑĢ",
      "ĠÐ¿Ð¾ ##Ñģ",
      "ĠÑį ##Ð¼",
      "ĠÐ¿ÐµÑĢ ##ÑģÐ¾Ð½",
      "ĠÐºÐ°ÑĢÑĤ ##Ð¸Ð½",
      "ĠÐ ##¥",
      "Ġ ##â",
      "##Ðº ##Ðµ",
      "ĠÐ¾Ð¿Ð¸ ##ÑĪ",
      "##Ð°Ð ##³",
      "ĠÑĥÐ³Ð°Ð´ ##Ð°ÐµÐ¼",
      "##ÐµÐ· ##Ð´",
      "##Ð½ ##Ð¾Ð³Ð¾",
      "ĠÐ¿ÐµÑĢÑģÐ¾Ð½ ##Ð°Ð¶",
      "ĠÐ¿Ð¾Ð´ ##ÑħÐ¾Ð´",
      "##Ð¸ ##Ð·",
      "ĠÐ¿Ð°ÑĢ ##Ð½",
      "Ġ ##1",
      "##ÑĢ ##Ð¾Ð²",
      "ĠÑģÐµÑĢÐ¸Ð°Ð» ##Ð°",
      "ĠÐ§ ##ÑĤÐ¾",
      "##Ð¾Ð¹ ##Ð´ÐµÑĤ",
      "ĠÐ½ ##Ð¾Ð²",
      "ĠÐ¿Ð¾Ð´ÑħÐ¾Ð´ ##Ð¸ÑĤ",
      "ĠÐºÐ°Ðº ##ÑĥÑİ",
      "##Ð¸ÑĤ ##ÑģÑı",
      "##Ð¸ ##ÑĦ",
      "##Ð¼ ##Ðµ",
      "ĠÐ´ ##Ð»Ñı",
      "##Ð½Ð¾ ##ÑģÑĤ",
      "ĠÑģ ##Ð°Ð¼",
      "##Ð· ##Ð½Ð¸",
      "##Ð¾Ð² ##ÑĮ",
      "ĠÑĤÐ²Ð¾ ##Ñı",
      "ĠÐ¶Ð¸ ##Ð·Ð½Ð¸",
      "##Ð¸ ##Ñİ",
      "##ÑĢ ##Ð°Ð²",
      "ĠÐ¢ ##Ñĭ",
      "##ÐµÑĢ ##ÑĤ",
      "##Ð¸Ñĩ ##ÐµÑģÐº",
      "ĠÐ·Ð² ##ÐµÐ·Ð´",
      "ĠÐ ##Ľ",
      "##Ñĥ ##Ð»",
      "ĠÑģ ##Ð¾",
      "ĠÑģ ##Ð´",
      "ĠÑĢ ##Ð°Ð·",
      "ĠÑĤÐ²Ð¾ ##Ñİ",
      "ĠÑĤÐ²Ð¾ ##Ðµ",
      "ĠÐ¼Ñĥ ##Ð»ÑĮ",
      "ĠÐ¾Ð¿Ð¸ÑĪ ##ÐµÑĤ",
      "ĠÐºÐ°Ðº ##Ð¾Ðµ",
      "##Ñĥ ##ÑĪ",
      "##Ð°Ñģ ##ÑģÐº",
      "ĠÐ±ÑĥÐ´ ##ÑĥÑī",
      "ĠÐ¿ ##Ð¾Ð¼",
      "ĠÐ½ ##Ð°Ð·",
      "ĠÑģÑĤ ##ÑĢÐ°Ð½",
      "##ÑĢÑĥ ##Ð³",
      "ĠÐ¸ ##Ð´Ðµ",
      "ĠÑģÑĤ ##Ð°ÑĤÑĮ",
      "##Ð½ ##Ð¾Ð¼",
      "ĠÐ»ÑİÐ± ##Ð¸Ð¼",
      "ĠÐ¿ÐµÑģ ##Ð½Ñı",
      "ĠÐ¸Ð´Ðµ ##Ð°Ð»ÑĮ",
      "##Ð¾ ##Ñı",
      "ĠÐ¶Ð¸ ##Ð·Ð½",
      "##ÐµÑĢ ##Ð´",
      "ĠÐ±Ñĭ ##Ð»Ð°",
      "ĠÑĩ ##ÐµÐ¼",
      "##Ñĥ ##Ð¼",
      "##ÐµÑĤ ##Ñĥ",
      "##ÑĨ ##Ð°",
      "##Ñģ ##Ð°",
      "##Ñĥ ##Ð¿",
      "##ÐµÐ½ ##Ð¸Ðµ",
      "ĠÐļÐ°Ðº ##Ð¾Ðµ",
      "ĠÐ¶Ð¸Ð·Ð½ ##ÑĮ",
      "##Ñģ ##Ð¿",
      "ĠÐº ##Ð¾",
      "ĠÑį ##ÑĤÐ¾",
      "##ÐµÑģÑĤ ##Ð²",
      "##Ð³ ##Ð¾",
      "##Ð½Ñĭ ##Ðµ",
      "ĠÐ¿ÑĢ ##Ð¸Ð½",
      "ĠÐ³ÐµÑĢÐ¾ ##Ð¸Ð½",
      "ĠÐ¿ ##Ð¾Ð»",
      "ĠðŁ ##į",
      "ĠÐ³ ##Ð»",
      "##ÑĢ ##Ñĭ",
      "##ÐµÐ½ÑĤ ##Ð¾Ð²",
      "ĠÑįÐ¼ ##Ð¾Ð´",
      "ĠÐ¿ÑĢ ##ÐµÐ´",
      "##ÑģÑĤ ##Ð²",
      "ĠÐºÐ°Ðº ##Ð¸Ð¼",
      "##ÑĨ ##ÐµÐ½ÑĤÐ¾Ð²",
      "ĠÐ¿ÑĢÐ¾ ##ÑĨÐµÐ½ÑĤÐ¾Ð²",
      "ĠÐ¿Ð¾ ##ÑģÐ¾Ð²",
      "##Ð½Ð¸ ##Ðº",
      "ĠÑĤÐ²Ð¾ ##ÐµÐ¹",
      "ĠÐĶ ##Ð¶",
      "ĠÐ¿Ð¾ÑħÐ¾Ð¶ ##Ð°",
      "ĠÑģÐ´ ##ÐµÐ»",
      "##ÐµÑĤÑĥ ##ÐµÐ¼",
      "ĠÐ¿Ð¾ÑģÐ¾Ð² ##ÐµÑĤÑĥÐµÐ¼",
      "##ÑĢ ##ÐµÑĤ",
      "ĠÐ¿ ##Ð¾Ð¿",
      "ĠÐ´ ##ÐµÐ»",
      "ĠÑģÐ² ##Ð¾Ð¹",
      "ĠðŁ ##İ",
      "##ÐµÐ² ##ÑģÐº",
      "ĠÑģ ##ÑĤÐ¾",
      "##Ð¸ ##Ð³",
      "##Ð»Ð° ##Ñģ",
      "##Ñĥ ##Ð¹",
      "ĠÐ½Ð° ##ÑģÐºÐ¾Ð»ÑĮÐºÐ¾",
      "##Ð°ÑĤÑĮ ##ÑģÑı",
      "##Ñĥ ##Ñģ",
      "##Ð¾Ð´ ##Ð½Ñı",
      "ĠÑį ##ÑĤÐ¸",
      "ĠÐµ ##Ð³Ð¾",
      "##ÐµÑĤ ##Ð¸ÑĪÑĮ",
      "ĠÐ¡ ##Ð¿",
      "ĠÑĤÐ²Ð¾ ##ÐµÐ³Ð¾",
      "ĠÐ¿Ð°ÑĢ ##ÐµÐ½ÑĮ",
      "##ÑĤÐµÑĢ ##Ð°",
      "##ÑĢ ##ÐµÐ´",
      "ĠÐº ##Ð¾ÑĢ",
      "##ÐµÐ ##¶",
      "ĠÑģ ##Ð¿",
      "ĠÑģ ##ÐµÐ³",
      "ĠÐº ##Ð°Ð´",
      "##Ð´ ##Ð¸",
      "ĠÐ» ##ÑĥÑĩ",
      "ĠÑģÐµÐ³ ##Ð¾Ð´Ð½Ñı",
      "ĠÐ½Ð° ##ÑģÑĤ",
      "##ÐµÑģ ##Ñģ",
      "##Ð² ##Ð¸",
      "ĠÐº ##ÐµÐ¼",
      "##ÐµÐ¹ ##Ñĩ",
      "ĠÐ¼Ñĥ ##Ð¶",
      "ĠÐ¿ ##Ð»",
      "##Ð°Ð¼ ##ÐµÐ½",
      "ĠÐ³Ð¾Ð´ ##Ñĥ",
      "Ð ##¡",
      "##ÑĢ ##Ð°Ð·",
      "##Ñı ##Ð¼",
      "##Ð» ##ÐµÐ½",
      "ĠÐº ##Ð¾Ð¼",
      "ĠÑĤÐ²Ð¾ ##Ð¸Ð¼",
      "ĠÐ¡Ð¼ ##Ð¾Ð³Ð»Ð°",
      "ĠÐ²Ñģ ##ÐµÐ³Ð¾",
      "Ġ ##B",
      "##Ðµ ##ÑĪ",
      "ĠÑģ ##Ð¾Ð²",
      "ĠÐ¾ ##Ñģ",
      "##Ð°Ð» ##Ð¸",
      "ĠðŁ ##¤",
      "##Ð¸Ð½ ##Ð°",
      "ĠÐ¾ÑĤ ##Ð½Ð¾",
      "Ġ1 ##0",
      "Ġ ##5",
      "ĠÐ½ ##Ð°Ð¹",
      "ĠÐ³ ##Ð¸ÑĦ",
      "##Ð¾Ð³ ##Ð´Ð°",
      "ĠÐ´ ##Ð¾ÑĢ",
      "ĠÑģÐ² ##Ð¸Ð´",
      "ĠÑĥÐ³Ð°Ð´ ##Ð°ÑĤÑĮ",
      "##ÐµÐ¹Ñĩ ##Ð°Ñģ",
      "ĠÐ ##ĺ",
      "##Ð¸ ##Ð¿",
      "ĠÑģ ##ÐµÐ¹ÑĩÐ°Ñģ",
      "##Ð» ##ÑİÐ±",
      "ĠÐ»ÑİÐ± ##Ð¾Ð²ÑĮ",
      "##Ñĩ ##Ð°ÑģÑĤ",
      "ĠÑĢ ##Ð°ÑģÑģÐº",
      "ĠÑģÐ²Ð¾ ##Ñİ",
      "ĠÐ¸ ##Ð½",
      "##Ð»Ð¸ ##Ñĩ",
      "ĠÑģÑĤÐ¾ ##Ð¸ÑĤ",
      "Ġ ##Ñı",
      "##Ð¸ ##ÑĨ",
      "ĠÐ¾ ##Ð´",
      "##Ð°ÑĢ ##Ð°Ðº",
      "ĠÐ¾ÑĤÐ½Ð¾ ##ÑĪ",
      "Ð ##ł",
      "ĠÐ ##Ĺ",
      "##Ñĭ ##Ñħ",
      "##Ð°ÑĢ ##ÑĢÐ¸",
      "ĠÐ±ÑĥÐ´ ##ÐµÑĪÑĮ",
      "Ð ##ĵ",
      "##Ð¼ ##ÐµÐ½",
      "##Ð¼ ##Ð¾ÑĤ",
      "ĠÐ½ ##ÑĥÐ¶",
      "##Ð°Ð½ ##ÐµÑĤ",
      "ĠÐ´ ##Ð¸Ñģ",
      "ĠÐ´ ##ÑĢÑĥÐ³",
      "ĠÑĨÐ¸ÑĤÐ°ÑĤ ##Ñĥ",
      "##ÐµÐ¼ ##Ñĥ",
      "ĠÐ¿Ð¾Ð´ ##Ð¾Ð¹Ð´ÐµÑĤ",
      "ĠÑħ ##Ð°ÑĢÐ°Ðº",
      "ĠÐ²ÑģÑĤÑĢ ##ÐµÑĤÐ¸ÑĪÑĮ",
      "##Ñĭ ##Ð²",
      "##ÐµÑĢ ##ÑĮ",
      "ĠðŁ ##¥",
      "##Ð½Ðµ ##ÐµÐ²ÑģÐº",
      "ĠÐ¾ÑĤÐ½Ð¾ÑĪ ##ÐµÐ½Ð¸Ñı",
      "ĠÐ´Ð¸Ñģ ##Ð½ÐµÐµÐ²ÑģÐº",
      "##ÑĢ ##ÐµÐ¼",
      "##ÑĢ ##ÐµÐ½",
      "ĠÐ² ##Ð»ÑİÐ±",
      "ĠÐ° ##Ð½Ð¸",
      "ĠÑĨÐ¸ÑĤÐ°ÑĤ ##Ð°",
      "##ÑĢÐµÑĤ ##ÑĮ",
      "##o ##p",
      "##Ð½Ð¸ ##ÑĪÑĮ",
      "ĠÐ¿Ð°ÑĢ ##Ð½Ñı",
      "##Ð½Ð¾ÑģÑĤ ##ÑĮ",
      "p ##op",
      "Ġ ##k",
      "##ÑĮ ##Ð±",
      "ĠÐ³Ð¸ÑĦ ##ÐºÐ°Ñħ",
      "ĠÐ°Ð½Ð¸ ##Ð¼Ðµ",
      "ĠÐļÐ°Ðº ##ÑĥÑİ",
      "##Ð¾Ð³ ##Ð¾Ð´",
      "##Ð°Ð» ##Ð°",
      "##Ð½Ð¸ ##Ð¹",
      "ĠÐ ##Ń",
      "ĠÐ¿ ##Ð¾Ðº",
      "##Ð¾Ð² ##Ð°",
      "ĠÐ¼ÑĥÐ»ÑĮ ##ÑĤ",
      "ĠÐ´Ð¾ÑĢ ##Ð°Ð¼",
      "ĠÐ ##ķ",
      "##Ð² ##ÐµÑģÑĤ",
      "ĠÐ´ ##ÐµÑĤ",
      "ĠÐ¡ ##Ðº",
      "ĠðŁĺ ##İ",
      "Ġ202 ##3",
      "ĠÐ¿Ð¾Ñģ ##Ð¼Ð¾ÑĤ",
      "Ġ ##6",
      "Ġ ##D",
      "##ÑĤ ##ÑĮ",
      "ĠÐ· ##Ð°",
      "ĠÐŁ ##Ð¾ÑĤ",
      "##Ð· ##Ð¸",
      "##Ð¶ ##Ð¸",
      "ĠÐ»ÑİÐ± ##Ð²Ð¸",
      "##Ð°Ð¼ÐµÐ½ ##Ð¸ÑĤ",
      "Ð ##Ķ",
      "Ġ ##T",
      "Ġ ##G",
      "ĠÑģÐº ##Ð°Ð·",
      "ĠÐ´ ##ÐµÐ²",
      "##Ð½Ñĭ ##Ð¼",
      "ĠÐ¿Ð¾Ð´ ##ÑģÐº",
      "ĠÐŁ ##ÑĢÐ¾Ð²",
      "##Ð¸ÑĤÑĮ ##ÑģÑı",
      "##Ð¸Ð² ##ÐµÑĢÐ´",
      "ĠÑģÐ´ÐµÐ» ##Ð°ÑĤÑĮ",
      "ĠÑģÐ²Ð¸Ð´ ##Ð°Ð½Ð¸Ðµ",
      "ĠÐº ##Ð¸Ð½",
      "##Ð´ ##ÐµÑĪÑĮ",
      "##ÑĤÐ¾ ##ÑĢ",
      "ĠÐ·Ð½ ##Ð°Ð¼ÐµÐ½Ð¸ÑĤ",
      "##Ð½ ##Ñİ",
      "##Ð¾Ð± ##Ð¾Ð¹",
      "ĠÐ³ÐµÑĢÐ¾ ##ÐµÐ²",
      "ĠÐ ##¨",
      "ĠÐº ##Ð¾Ð³Ð¾",
      "ĠÐ³ ##Ð¾ÑĢ",
      "##ÑĨ ##Ðµ",
      "ĠÐ¿ÑĢ ##Ð¾Ð²",
      "ĠÑĤÐ²Ð¾ ##Ð¸",
      "Ġ202 ##2",
      "ĠÐ¿Ð¾ÑģÐ¼Ð¾ÑĤ ##ÑĢÐµÑĤÑĮ",
      "ĠÐ¿ ##Ñģ",
      "ĠÐ¾ÑĤ ##Ð»Ð¸Ñĩ",
      "ĠÐ¿Ð°ÑĢÐ½ ##ÐµÐ¼",
      "ĠÐ¿Ð°ÑĢÐ½ ##ÐµÐ¹",
      "##Ð½Ð¾Ð¼ ##Ñĥ",
      "##Ð° ##Ñİ",
      "##Ñĥ ##Ð±",
      "ĠÐ¼ ##Ð°Ð½",
      "##Ð¾Ð» ##Ð¾Ñģ",
      "ĠÐĵÐ°Ð´ ##Ð°Ð½Ð¸Ðµ",
      "ĠÑĨÐ¸ÑĤÐ°ÑĤ ##Ð°Ñħ",
      "ĠÑģ ##ÐµÐ±",
      "ĠÐº ##Ð¾Ð³Ð´Ð°",
      "##ÑģÐº ##Ð°Ñı",
      "ĠÑį ##Ðº",
      "Ðł ##Ð¸Ð²ÐµÑĢÐ´",
      "##Ð¸ ##ÑģÑĤ",
      "ĠÐ¸ ##ÑģÑĤ",
      "##Ð¾Ð¼ ##Ð°",
      "##ÑģÐº ##Ð¸Ð¹",
      "ĠÐ¿Ñģ ##Ð¸Ñħ",
      "ĠÑĤ ##Ð¾Ð±Ð¾Ð¹",
      "ĠÐº ##Ð¾Ð½",
      "ĠÐ½ ##Ð°Ð¿",
      "##Ð¾Ð± ##ÐµÑĢÐ¸",
      "##Ð¸ÑĪÑĮ ##ÑģÑı",
      "ĠÐ½Ð¾Ð² ##Ð¾Ð³Ð¾Ð´",
      "ĠÐ¿Ð¾Ð¼ ##Ð½Ð¸ÑĪÑĮ",
      "ĠÐ½Ð°Ð· ##Ð¾Ð²",
      "##Ð°Ð½ ##Ð°",
      "ĠÐ¿Ð¾Ð» ##ÑĥÑĩ",
      "##Ð¾ ##ÑĨ",
      "##Ð¸ ##Ð¾Ð½",
      "##Ð°Ð¶ ##Ð¸",
      "##ÑĢÐ¾ ##Ñĩ",
      "ĠÐ¿ÐµÑĢ ##Ð²",
      "Ð ##Ń",
      "##Ð¾ ##Ñĥ",
      "##ÐµÐ» ##Ð¾Ð²",
      "ĠÐ ##¤",
      "##Ñĥ ##Ðº",
      "##Ð°Ð½ ##ÑĤ",
      "##ÐµÐ´ ##ÐµÑĪÑĮ",
      "ĠÐ³Ð¾Ð´ ##Ð°",
      "ĠÑĪ ##Ðº",
      "ĠÐ½ÑĥÐ¶ ##Ð½Ð¾",
      "##Ð° ##Ñĩ",
      "##Ñĥ ##Ð»Ñı",
      "ĠÐºÐ°Ðº ##Ð¸Ðµ",
      "ĠÐ¡ ##Ð¾Ð±ÐµÑĢÐ¸",
      "ĠÐ¶Ð¸ ##Ð²",
      "ĠÐ»ÐµÑĤ ##Ð¾Ð¼",
      "ĠÐ²ÑģÑĤÑĢ ##ÐµÑĩ",
      "ĠÐ¿ÐµÑĢÑģÐ¾Ð½Ð°Ð¶ ##Ð°",
      "Ðĵ ##Ð°ÑĢÑĢÐ¸",
      "ĠÐ½Ð°Ð·Ð¾Ð² ##ÐµÐ¼",
      "##Ñģ ##Ð»Ð¸",
      "##ÑĢ ##Ð³",
      "##ÑĢ ##Ð¾Ð±",
      "ĠÑģ ##ÑĩÐ°ÑģÑĤ",
      "ĠÐ¼ ##ÐµÑĩ",
      "##Ð°ÑĤ ##ÐµÐ»ÑĮ",
      "ĠÐ· ##Ð°Ð¼",
      "##Ð»Ð¸ ##Ð²",
      "##ÐµÐ¹ ##ÑĤ",
      "ĠÐ£ ##Ð·Ð½Ð°Ð¹",
      "ĠÐ¶ ##Ð´ÐµÑĤ",
      "ĠÑģÐµÑĢÐ¸Ð°Ð» ##ÑĮ",
      "ĠÐ³Ð» ##Ð°Ð²",
      "ĠÐ½Ð°Ð¹ ##ÑĤÐ¸",
      "##ÐµÐ ##¿",
      "##Ñĭ ##Ðµ",
      "##Ñĥ ##Ð»ÑĮ",
      "##Ð» ##Ñİ",
      "ĠÐº ##Ð½Ð¸",
      "##Ð¿ ##Ð¿",
      "Â» ##,",
      "##Ð½Ð¸ ##Ð¼",
      "##ÑĢÐ° ##ÑĪ",
      "ĠÐ¼ÐµÑĩ ##ÑĤ",
      "Ð ##Ł",
      "##Ð° ##ÑĨ",
      "##ÑĢ ##Ñı",
      "##Ð¾Ð» ##Ð¾Ð³",
      "ĠðŁ ##Į",
      "ĠÐ³ ##ÑĢÑĥ",
      "##ÑĦ ##Ð¸Ð»ÑĮÐ¼",
      "ĠÐ¢ ##ÐµÑģÑĤ",
      "ĠÐµ ##Ðµ",
      "ĠÑĨÐ²ÐµÑĤ ##Ð°",
      "ĠÑįÑĤ ##Ð¾Ð¹",
      "##Ð¾Ð² ##ÑĭÐ¹",
      "##Ð¸ÑĤ ##ÐµÐ»ÑĮ",
      "##ÑģÐº ##Ð¸Ñħ",
      "ĠÐ³ ##Ð´Ðµ",
      "ĠÐ³ÐµÑĢÐ¾Ð¸Ð½ ##Ñı",
      "ĠÐŁÐ¾ÑĤ ##ÑĤÐµÑĢÐ°",
      "##Ð¸ ##ÐºÐ°",
      "##ÑĥÐ´ ##Ð°",
      "ĠÑĦ ##Ð°Ðº",
      "ĠÑįÑĤÐ¾ ##ÑĤ",
      "ÐłÐ¸Ð²ÐµÑĢÐ´ ##ÐµÐ¹",
      "##ÑĢ ##Ð°Ð¼",
      "ĠÐº ##Ð¾ÑĤ",
      "ĠðŁ ##ĳ",
      "ĠÑĩ ##ÐµÐ³Ð¾",
      "ĠÐ²Ñģ ##Ðµ",
      "ĠÐ¿ÑĢÐ¸Ð½ ##ÑĨ",
      "##e ##n",
      "##ÑĢ ##Ð°Ñģ",
      "##Ñĥ ##ÑĢÐµ",
      "##Ðº ##Ð¾Ð¹",
      "ĠÐ¸ ##Ð³",
      "##Ð´ ##Ñĥ",
      "##Ð· ##Ñĭ",
      "##ÐµÐ» ##Ð°",
      "##Ð¾Ð½ ##Ð°",
      "##Ð°ÐµÑĪÑĮ ##ÑģÑı",
      "ĠÐ³ÐµÑĢÐ¾ ##Ñı",
      "ĠÑģÐ¼ ##Ð¾Ð¶ÐµÑĪÑĮ",
      "ĠÑįÐ¼Ð¾Ð´ ##Ð·Ð¸",
      "ĠÑįÐ¼Ð¾Ð´ ##Ð¶Ð¸",
      "ĠÐ¼ÑĥÐ»ÑĮÑĤ ##ÑĦÐ¸Ð»ÑĮÐ¼",
      "ĠÐ¡Ðº ##Ð¾Ð»ÑĮÐºÐ¾",
      "Ġ ##I",
      "##¸ ##ı",
      "##ï ##¸ı",
      "##Ð¼ ##Ð°",
      "ĠÐ° ##Ðº",
      "##ÐµÐ» ##ÐµÐ½",
      "##ÑĥÐ´ ##ÑĮÐ±",
      "ĠðŁĺ ##ī",
      "##Ð½Ð¾ÑģÑĤ ##Ð¸",
      "##ÑĥÐ» ##Ð¼",
      "ĠÐ¼ÑĥÐ»ÑĮ ##ÑĤÐ¸",
      "ĠÐºÐ¸Ð½ ##Ð¾",
      "##ÑĢ ##Ð°ÑĤÑĮ",
      "ĠÐ¸ ##ÑģÐ¿",
      "##Ñİ ##ÑĢ",
      "##ÑĢÐ¾ ##Ñģ",
      "ĠÑĥ ##Ñĩ",
      "##Ð¾ÑģÑĤ ##ÑĮ",
      "ĠÑįÑĤ ##Ð¸Ð¼",
      "ĠÑģÐ¾ ##ÑĥÐ»Ð¼",
      "ĠÐ½Ð°Ð· ##Ð²",
      "##Ð¾Ñı ##Ñī",
      "ĠÐ»ÑĥÑĩ ##ÑĪ",
      "ĠÐ¸ÑģÑĤ ##Ð¾ÑĢ",
      "ĠÑģÐ¾ÑĥÐ»Ð¼ ##ÐµÐ¹ÑĤ",
      "##ľ ##¨",
      "##n ##e",
      "##Ð¸ÑĤ ##ÐµÐ»",
      "##Ð°Ð½ ##Ð¸",
      "ĠÐ· ##Ð°Ð²",
      "ĠÐ¿ÑĢ ##ÑıÐ¼",
      "ĠÐ¿Ð¾Ñģ ##Ð»",
      "ĠÑģÐ°Ð¼ ##Ð¾Ð¼",
      "ĠÐ´ÐµÐ» ##Ðµ",
      "ĠÐ³ÑĢÑĥ ##Ð¿Ð¿",
      "ĠÐ¿ÑĢÑıÐ¼ ##Ð¾",
      "Ġ ##M",
      "ĠÐ¼ ##Ð¾Ð³",
      "ĠÐ½ ##ÐµÐ´",
      "##Ð°Ð½ ##Ð¸Ñı",
      "##ÑĥÐ¿ ##ÐµÑĢ",
      "ĠÑħÐ°ÑĢÐ°Ðº ##ÑĤÐµÑĢ",
      "ĠÐ¶Ð¸Ð² ##Ð¾ÑĤ",
      "Ð ##ŀ",
      "Ġ ##S",
      "##c ##t",
      "##i ##n",
      "ĠÐº ##Ð»Ð¸",
      "##Ð¾Ð² ##Ð¸",
      "##Ð°Ð½ ##Ð´",
      "ĠÐ· ##Ð°Ðº",
      "ĠÑĩ ##ÐµÑĢ",
      "##Ð¾Ð¶ ##ÐµÑĤ",
      "ĠÐºÐ¾ÑĢ ##ÐµÐ¹",
      "ĠÑĢÐ°ÑģÑģÐº ##Ð°Ð¶ÐµÐ¼",
      "ĠÐŁÑĢÐ¾Ð² ##ÐµÑĢÑĮ",
      "##ÐµÐ»Ð¾Ð² ##ÐµÐº",
      "ĠÐºÐ½Ð¸ ##Ð³",
      "Ġ ##7",
      "##Ðµ ##ÑģÑı",
      "##ÑĤ ##ÑĢ",
      "##ÑĮ ##Ñı",
      "ĠÐļ ##ÐµÐ¼",
      "##Ð¾Ð» ##Ð½",
      "ĠÐ· ##Ð¸Ð¼",
      "Â» ##:",
      "ĠÐ¿ÑĢ ##Ð¾Ð³",
      "##Ð¾Ð¶ ##Ð´",
      "##ÐµÐº ##Ñģ",
      "Ġâ ##Ģ",
      "ĠÐºÐ°Ð´ ##ÑĢÑĥ",
      "ĠÐ·Ð°Ð¼ ##ÑĥÐ¶",
      "ÐłÐ¸Ð²ÐµÑĢÐ´ÐµÐ¹ ##Ð»Ð°",
      "##Ñĭ ##Ð¼",
      "##ÐµÐ½ ##Ð¸",
      "##Ð¾Ð» ##Ð¾Ð²",
      "ĠÐ¾ ##Ðº",
      "ĠÐ¿ÑĢ ##Ð¾Ð¹Ð´ÐµÑĤ",
      "ĠÐĿ ##Ð°Ð¹",
      "ĠÐ³Ð» ##Ð°Ð·",
      "ĠB ##T",
      "ĠÐ³Ð¾ÑĢ ##Ð¾Ð´",
      "##ÑĥÐ»Ñı ##ÑĢ",
      "ĠÐºÐ»Ð¸ ##Ð¿",
      "ĠâĢ ##ĵ",
      "Ñ ##Ĥ",
      "ĠÑģ ##ÑĢÐµÐ´",
      "ĠÐ± ##Ð»Ð¸",
      "##Ð¾Ð¼ ##Ð°Ð½",
      "##Ð°Ð¼ ##Ð¸",
      "Ġâ ##ľ¨",
      "##ÑĢÐµÐ½ ##Ð´",
      "ĠÐ¿ÑģÐ¸Ñħ ##Ð¾Ð»Ð¾Ð³",
      "ĠBT ##S",
      "Ð ##Ĵ",
      "Ð ##ľ",
      "##Ñĥ ##Ð½",
      "ĠÑĤ ##Ð¸Ð¿",
      "##Ðº ##Ð¾Ð²",
      "ĠÑģ ##ÑĥÐ´ÑĮÐ±",
      "ĠÐ² ##Ð¾Ð·",
      "##Ð± ##ÐµÑĢ",
      "##ÑĢÐ¸ ##Ð³",
      "ĠÑģÐ¼ ##Ð¾ÑĤ",
      "ĠÐ¼Ð°Ð½ ##Ð¸Ðº",
      "ĠÐ²ÑģÑĤÑĢÐµÑĩ ##Ð°ÑĤÑĮÑģÑı",
      "##e ##a",
      "##Ð» ##Ð¸ÑĤ",
      "ĠÐ² ##ÑĭÐ¹",
      "##Ð¾Ð² ##Ð°ÑĤÑĮ",
      "ĠÐ½Ð° ##Ñĩ",
      "##Ð½Ð¸ ##Ðµ",
      "ĠÑĢ ##ÑĥÑģ",
      "ĠÐ»Ð¸ ##Ñĩ",
      "ĠÑģÐµÑĢÐ¸Ð°Ð» ##Ð¾Ð²",
      "##Ð°Ð± ##Ð¾ÑĤ",
      "ĠÐ½Ð°ÑģÑĤ ##Ð¾ÑıÑī",
      "ĠÐ¿Ð» ##Ð°ÑĤÑĮ",
      "ĠÐ¿ÑĢÐ¾Ð² ##ÐµÐ´ÐµÑĪÑĮ",
      "##Ð¸ ##Ð»Ð°",
      "##Ð°Ð¶ ##ÐµÑĤ",
      "##Ð¾Ð¼ ##Ñĥ",
      "ĠÐ´ ##Ð¾Ð»",
      "##Ð¿ ##ÑĢÐ°Ð²",
      "ĠÐ¿Ð¾ ##Ñĩ",
      "ĠðŁ ##Ĳ",
      "ĠÐ¿ÑĢ ##Ð¸Ð²",
      "##Ð¾ÑĢ ##Ð¸Ð¼",
      "ĠÑģÑĤ ##Ð°Ð½ÐµÑĤ",
      "##Ð¾Ð± ##Ñĭ",
      "ĠÐ¾Ð¿Ð¸ ##Ñģ",
      "ĠÐ»ÑİÐ±Ð¸Ð¼ ##ÑĭÐ¹",
      "ĠÐ¿Ð¾Ð¿ ##ÑĥÐ»ÑıÑĢ",
      "ĠÑįÑĤÐ¸ ##Ñħ",
      "ĠÑģÐ¾Ð² ##ÐµÑĤ",
      "##ÑĢ ##Ð°Ñħ",
      "##Ñĥ ##ÑĢ",
      "##ÑĮ ##Ñİ",
      "ĠÑģ ##ÐµÑĢÐ´",
      "##ÑĪ ##Ð»",
      "ĠÐ¼ ##ÐµÑģÑı",
      "##ÑĨ ##Ðº",
      "ĠÐĿ ##Ð°Ð·",
      "ĠÐ¿Ð¾Ð´ ##Ð°ÑĢ",
      "ĠÑģÐ²Ð¾ ##ÐµÐ³Ð¾",
      "ĠÐ´ÑĢÑĥÐ³ ##Ð¸Ðµ",
      "ĠD ##i",
      "ĠÐĿÐ°Ð¹ ##Ð´Ð¸",
      "##a ##r",
      "ĠÑĤ ##ÑĥÑĢÐµ",
      "ĠÑģ ##Ð¾ÑģÑĤ",
      "ĠÐ² ##ÐºÑĥ",
      "ĠÐ¸Ð· ##Ð²ÐµÑģÑĤ",
      "ĠÐ¿ÑĢ ##Ð°Ð²",
      "ĠÐ¿ÑĢ ##Ð¸Ð³",
      "ĠÐĿ ##Ð¾Ð²ÑĭÐ¹",
      "##Ð¾ÑĤ ##Ð¾Ð²ÑĮ",
      "ĠÑģÐ» ##Ð¾Ð²",
      "ĠÑįÐ¼ ##Ð¾ÑĨ",
      "ĠÐ¡Ð¿ ##Ð¾ÑĢÐ¸Ð¼",
      "ĠÐ²Ð»ÑİÐ± ##Ð»ÐµÐ½",
      "ÐŃ ##Ð»Ð¸ÑĤ",
      "ĠÐ¼Ð°Ð½Ð¸Ðº ##ÑİÑĢ",
      "##Ð¾ ##ÑģÐ¾Ð²",
      "##Ñģ ##Ð¸Ð¸",
      "ĠÐ¿ ##Ð¾Ð·",
      "##Ð» ##ÐµÑĤ",
      "ĠÐ² ##Ð¾",
      "##Ð°Ð½ ##Ð¸Ð·",
      "ĠÐ° ##Ð¹",
      "##ÑĢÑĥ ##Ð¶",
      "##ÑĢÐ° ##ÑģÑĤ",
      "##Ð½Ðµ ##Ðµ",
      "ĠÐ½Ð°ÑģÑĤ ##ÑĢÐ¾",
      "##Ð°Ñİ ##ÑĤ",
      "ĠÑįÐº ##ÑģÑĤÑĢ",
      "##ÑĢÐ³ ##Ð°Ð½Ð¸Ð·",
      "ĠÐĿÐ°Ð· ##Ð¾Ð²Ð¸",
      "ĠÑĤÑĥÑĢÐµ ##ÑĨÐº",
      "##s ##h",
      "##Ð¸ ##ÑĪ",
      "ĠÐ² ##ÐµÑĩ",
      "##Ñĩ ##ÐµÐ½ÑĮ",
      "ĠÐ´ ##Ð¾",
      "##ÑģÐº ##Ð¾Ð¹",
      "ĠÑĩ ##ÐµÑĢÑĤ",
      "ĠÑĩ ##ÐµÐ»Ð¾Ð²ÐµÐº",
      "ĠðŁĺ ##ı",
      "##Ð¾Ñĩ ##ÐºÐ°",
      "ĠÐ¿ÐµÑģ ##Ð½Ñİ",
      "ĠÑģÐ¾ ##Ð¾Ð±",
      "ĠÐ¸Ð´ÐµÐ°Ð»ÑĮ ##Ð½ÑĭÐ¹",
      "ĠÐ»ÑĥÑĩ ##ÑĪÐµ",
      "ĠÐ½ÐµÐ´ ##ÐµÐ»",
      "Ð ##ļ",
      "##p ##a",
      "##ÑĢ ##Ð¸Ð½",
      "ĠÑĤ ##ÑĢ",
      "ĠÑģ ##Ñĭ",
      "ĠÑģ ##ÐµÑĢ",
      "ĠÑģÐ² ##Ð°Ð´",
      "ĠÑĦÐ¸Ð»ÑĮÐ¼ ##Ð°",
      "ĠÐł ##Ð°ÑģÑģÐº",
      "ĠÑģÐ» ##ÑĥÑĩ",
      "ĠÑģÑĢÐµÐ´ ##Ð¸",
      "ĠÐ²ÐºÑĥ ##Ñģ",
      "ĠÐ°Ð¹ ##Ð´",
      "ĠÐłÐ°ÑģÑģÐº ##Ð°Ð¶Ð¸",
      "Ð ##ĳ",
      "##Ð¾ ##Ñħ",
      "ĠÐ¼ ##Ð¾ÑĢ",
      "##ÐµÐ½ ##Ð°",
      "##Ð¾Ð» ##Ð¾ÑģÐ¾Ð²",
      "##ÑģÐº ##ÑĥÑİ",
      "ĠÐ¡ ##ÑĤ",
      "ĠÐ¿ÑĢ ##Ð¸",
      "ĠÑĢ ##Ð¾Ð´",
      "ĠÐŁ ##ÑĢÐ¸Ð³",
      "ĠÐ¾ÑĤÐ½Ð¾ÑĪÐµÐ½Ð¸Ñı ##Ñħ",
      "ĠÐ¿ÑĢÐ¾Ð³ ##Ð¾Ð»Ð¾ÑģÐ¾Ð²",
      "ĠÐ¿Ð»Ð°ÑĤÑĮ ##Ðµ",
      "ĠÐ¿ÑĢÐ¾Ð³Ð¾Ð»Ð¾ÑģÐ¾Ð² ##Ð°Ð»Ð¸",
      "##m ##pa",
      "##ÑĢ ##ÑıÑĤ",
      "##ÑĪ ##ÐµÐ±",
      "ĠÐ¼ ##ÐµÐ¼",
      "##Ñĩ ##Ð¸Ðº",
      "##Ð¾Ð» ##ÑĪÐµÐ±",
      "ĠÐ» ##Ñİ",
      "ĠÑĥ ##ÑģÐ¿",
      "ĠÐ¿Ð¾ ##ÑģÑĤ",
      "ĠÐ±Ñĭ ##ÑĤÑĮ",
      "##Ð½Ð¸ ##ÑĨ",
      "ĠÑĢ ##Ð°Ð±Ð¾ÑĤ",
      "ĠÑģÑĤ ##Ð¸Ñħ",
      "ĠÐł ##Ð¾Ñģ",
      "ĠÑĢÐ°Ð· ##Ð±",
      "ĠÑģÐ¿ ##ÑĢÑıÑĤ",
      "ĠÐ¿Ð¾Ð´ÑģÐº ##Ð°Ð¶ÐµÐ¼",
      "##en ##sh",
      "ĠI ##mpa",
      "ĠÐ¿ÑģÐ¸ÑħÐ¾Ð»Ð¾Ð³ ##Ð¸ÑĩÐµÑģÐº",
      "ĠÑģÐ¼Ð¾ÑĤ ##ÑĢÐ¸",
      "##ensh ##in",
      "ĠImpa ##ct",
      "##Ñģ ##Ñĭ",
      "ĠÐ² ##ÐµÑģ",
      "ĠÐ¶ ##Ð¸ÑĤÑĮ",
      "##ÑĢÑĥ ##Ð·",
      "ĠðŁĴ ##ĸ",
      "ĠÐºÐ°ÑĢÑĤÐ¸Ð½ ##ÐºÐµ",
      "##Ð»Ð°Ñģ ##ÑĮ",
      "ĠÐ´Ð¾ÑĢÐ°Ð¼ ##Ñĥ",
      "ĠÐ¿Ð¾Ð»ÑĥÑĩ ##Ð¸",
      "ĠÐ²ÑĭÐ¹ ##Ð´ÐµÑĪÑĮ",
      "ĠÑģÐ»ÑĥÑĩ ##Ð¸ÑĤÑģÑı",
      "ĠÐŁÑĢÐ¸Ð³ ##Ð¾ÑĤÐ¾Ð²ÑĮ",
      "Ð ##·",
      "##Ñ ##Ĭ",
      "##Ñĥ ##Ð²",
      "##Ð½ ##Ð³",
      "ĠÑĤ ##ÐµÑģÑĤ",
      "##Ð² ##Ð°",
      "##ÐµÑĢ ##Ð°",
      "##Ð¼ ##Ð¸",
      "##ÑĢÐ¾ ##ÑģÑĤ",
      "ĠÑĥ ##Ð²",
      "ĠÐ¿Ð¾ ##ÑĨ",
      "##ÐµÐ´ ##Ð¸",
      "ĠÐ¿ÑĢÐ¾ ##ÑĪÐ»",
      "ĠðŁĺ ##į",
      "Ġ20 ##1",
      "##Ð¾Ð· ##Ð´",
      "ĠÐ¥ ##Ð¾Ð³",
      "ĠÑģÑĤÑĢÐ°Ð½ ##Ñĥ",
      "ĠÐ¼ÑĥÐ¶ ##Ð°",
      "##Ð¾Ð»Ð¾Ñģ ##ÑĥÐ¹",
      "ĠÑģÐµÐ± ##Ñı",
      "ĠÑĦÐ°Ðº ##ÑĤ",
      "ĠÐ²Ð¾Ð· ##ÑĢÐ°ÑģÑĤ",
      "ĠÐ´Ð¾Ð» ##Ð¶",
      "##Ðµ ##Ðµ",
      "##Ðµ ##ÑĨ",
      "##Ð½ ##ÑĥÑĤ",
      "ĠÑģ ##ÑĥÐ¿ÐµÑĢ",
      "##Ñı ##Ð½",
      "##Ð² ##Ð°ÑĢÑĤ",
      "##Ð¼ ##ÐµÑĤ",
      "##ÑģÐº ##Ð¾Ð³Ð¾",
      "##Ð¿ ##Ñĥ",
      "ĠðŁ ##Ķ",
      "ĠÑĢ ##Ð°Ñģ",
      "ĠÑĢ ##Ð¾Ð¼Ð°Ð½",
      "ĠÐĵ ##Ð¾Ð»Ð¾ÑģÑĥÐ¹",
      "ĠÐ¿Ð¾Ð´ ##ÑĢÑĥÐ³",
      "ĠÐ¿ÑĢÐ¾ ##ÑĦ",
      "##ÑĢÐ° ##ÑĦ",
      "ĠÐ¿ÐµÑĢÑģÐ¾Ð½Ð°Ð¶ ##ÐµÐ¹",
      "##Ð»Ð°Ñģ ##Ñģ",
      "ĠðŁ¤ ##Ķ",
      "ĠG ##enshin",
      "##ÑĥÐ»ÑĮ ##ÑĤ",
      "ĠÐ¿Ð¾Ñĩ ##ÐµÐ¼Ñĥ",
      "ÐŃÐ»Ð¸ÑĤ ##Ñĭ",
      "ĠÑģÐµÑĢ ##Ð´Ðµ",
      "Ð ##Ĳ",
      "Ð ##¿",
      "##ÑĢ ##Ð¾Ð¼",
      "##Ð» ##Ð¾Ð¶",
      "##Ð» ##Ð¾Ñĥ",
      "ĠÐº ##ÑĢÐ°ÑĪ",
      "##Ð´ ##Ð¶",
      "ĠÐ· ##Ð»",
      "##ÑģÐº ##Ð°Ð·",
      "ĠÑĥ ##Ð¶",
      "##ÐµÑĪÑĮ ##ÑģÑı",
      "##Ð¾ÑĤ ##Ð¾Ð²Ð°",
      "ĠÑģÐ» ##ÐµÐ´",
      "Ġ202 ##1",
      "##Ð¼Ðµ ##ÐµÑĪÑĮ",
      "ĠÐ±ÑĥÐ´ÑĥÑī ##ÐµÐ³Ð¾",
      "##ÐµÑģÑĤÐ² ##ÐµÐ½",
      "ĠÑģÐºÐ°Ð· ##Ð°Ð»",
      "ĠÑģÑĩÐ°ÑģÑĤ ##Ð»Ð¸Ð²",
      "##ea ##m",
      "ĠDi ##s",
      "ĠÑģÐ¾ÑģÑĤ ##Ð¾Ñı",
      "ĠÐłÐ¾Ñģ ##ÑģÐ¸Ð¸",
      "ĠÐ¥Ð¾Ð³ ##Ð²Ð°ÑĢÑĤ",
      "Ġ ##(",
      "##Ñĥ ##ÐµÑĤ",
      "ĠÑĤ ##ÑĢÐ°Ð²",
      "##Ð² ##Ð°ÑĤ",
      "ĠÐ¸ ##Ð¼",
      "ĠÐº ##ÑĥÐ¿",
      "ĠÐ¼ ##Ð¸ÑĢ",
      "##ÐµÑĤ ##ÐºÐ°",
      "ĠÐļ ##Ð°ÑĢ",
      "ĠÐļÐ°Ðº ##Ð¸Ð¼",
      "##Ð¾Ð³ ##ÑĢÐ°ÑĦ",
      "ĠÑĢ ##Ð¾Ð¶Ð´",
      "##Ð°Ð¼ ##Ð¿Ð¸",
      "##ÐµÑģ ##ÐµÑĤ",
      "ĠÑģÐ²Ð¾ ##ÐµÐ¹",
      "##Ð¸ÑĢ ##Ð°ÐµÑĪÑĮÑģÑı",
      "##ÑıÑĤ ##ÑĮ",
      "##Ð½Ð¸Ðº ##Ð¾Ð²",
      "ĠÐ¾ÑĤÐ»Ð¸Ñĩ ##Ð¸ÑĤÑĮ",
      "##Ð¸Ð¾Ð½ ##Ð°Ð»ÑĮ",
      "##ne ##y",
      "ĠÑģÐ¾Ð¾Ð± ##ÑĢÐ°Ð·",
      "ĠÐ¿Ð¾ÑĨ ##ÐµÐ»",
      "ĠÑģÐµÑĢÐ´Ðµ ##Ñĩ",
      "ĠDis ##ney",
      "##e ##t",
      "##Ð¾ ##ÑĤÐ¾",
      "ĠÑĤ ##Ð¾Ñĩ",
      "ĠÑģ ##ÐµÐ¼",
      "ĠÐ¸ ##Ð¼ÐµÐ½",
      "ĠÐº ##ÑĢÐ°Ñģ",
      "ĠÐ² ##ÑĭÐ±",
      "##Ð³ ##Ð»Ñı",
      "##Ð°Ð½ ##Ð¸Ñİ",
      "##Ð¸Ð½ ##Ð³",
      "##ÑĢÑĥ ##Ð¹",
      "ĠÐŁ ##Ð¾Ð¿",
      "##Ð´Ð° ##Ñĩ",
      "ĠÐ¾Ð± ##ÑĢÐ°Ð·",
      "ĠÐ·Ð½Ð°Ðº ##Ñĥ",
      "##Ñį ##Ð»",
      "ĠÐºÐ¾ ##ÑĤÐ¾ÑĢ",
      "##ÐµÑģÑĤÐ² ##Ð¾",
      "ĠÐ¾Ñģ ##ÐµÐ½ÑĮ",
      "ĠÐĺ ##Ð·",
      "##ÑĢÐµÐ¼ ##Ñı",
      "ĠÐ¶Ð¸Ð²Ð¾ÑĤ ##Ð½Ð¾Ðµ",
      "ĠÑģÐ¾Ð¾Ð±ÑĢÐ°Ð· ##Ð¸ÑĤÐµÐ»ÑĮ",
      "Ñ ##ħ",
      "##Ð° ##ÑĪ",
      "##Ðµ ##Ñħ",
      "##Ð½ ##ÐµÐ²",
      "##ÑĮ ##Ðµ",
      "##Ð» ##Ð°Ð½Ð¸",
      "ĠÐº ##Ð°ÑĢ",
      "ĠÐ² ##Ð¾Ð»ÑĪÐµÐ±",
      "ĠÐ² ##Ð°Ð¼Ð¿Ð¸",
      "##Ð¾Ð¹ ##ÑĤÐ¸",
      "##Ð°Ð½ ##Ð½ÑĭÑħ",
      "ĠÐ´ ##Ð¾ÑģÑĤ",
      "ĠÑĥ ##Ð´Ð°Ñĩ",
      "ĠðŁ ##ĵ",
      "ĠÑĦ ##Ð¾ÑĤ",
      "##ÐµÐ² ##ÑĢ",
      "ĠÐµ ##ÑģÐ»Ð¸",
      "ĠÐľ ##Ñĭ",
      "ĠðŁĴ ##Ĺ",
      "ĠÐºÐ°ÑĢÑĤÐ¸Ð½ ##Ñĥ",
      "ĠÐ±ÑĥÐ´ÑĥÑī ##Ð¸Ð¹",
      "ĠÐ¸Ð´ÐµÐ°Ð»ÑĮ ##Ð½Ð¾",
      "##ÑĢÑı ##Ð´",
      "##Ð·Ñĭ ##Ðº",
      "ÑĤ ##ÐµÑģÑĤ",
      "ĠÐ±Ð»Ð¸ ##Ð¶",
      "ĠÑģÐµÑĢÐ´ ##ÑĨÐµ",
      "ĠÑĢÐ°Ð·Ð± ##Ð¸ÑĢÐ°ÐµÑĪÑĮÑģÑı",
      "ĠÑģÐ¾Ð¾Ð±ÑĢÐ°Ð·Ð¸ÑĤÐµÐ»ÑĮ ##Ð½Ð¾ÑģÑĤÑĮ",
      "##Ð»Ð°Ð½Ð¸ ##ÑĢÑĥÐ¹",
      "Ð ##¢",
      "##Ģ ##į",
      "##â ##Ģį",
      "##Ñĥ ##Ð³",
      "##Ð¾Ð² ##Ð¾Ð¹",
      "##Ð± ##Ð¸",
      "##ÐµÐ½ ##Ð½Ð°Ñı",
      "##Ð°Ð½ ##Ñĭ",
      "ĠÐ¾ ##Ð½",
      "##ÐµÐ´ ##ÑĮ",
      "ĠÑĦ ##Ð°Ð½",
      "ĠÐ¶ ##ÐµÐ½",
      "ĠÐµ ##Ð»",
      "##Ð¾Ñĩ ##ÐºÑĥ",
      "ĠÐ²Ñĭ ##ÑħÐ¾Ð´",
      "ĠÐ¿ÑĢÐ¸Ð½ ##ÐµÑģÐµÑĤ",
      "##ÑĭÐ² ##Ð°ÐµÑĤ",
      "ĠÑĪÐº ##Ð¾Ð»",
      "##ÑĢÐ¾Ð± ##ÑĥÐ¹",
      "Ġ ##N",
      "##Ð ##ĵ",
      "##ÑĤ ##Ð°",
      "##Ñģ ##Ð»",
      "##Ð½ ##ÐµÐ¹",
      "ĠÑģ ##ÐµÐ»",
      "ĠÐ¼ ##Ð¾Ð´",
      "##Ð¾Ð¹ ##ÑĦ",
      "ĠÐ° ##Ð»ÑĮ",
      "ĠÐ¡ ##Ð²",
      "ĠÑģÑĤ ##ÑĢÐ¾Ñĩ",
      "ĠÐ·Ð½ ##Ð°ÐºÐ°",
      "ĠÐ¢ ##Ð²",
      "ĠÐ¿ÐµÑģ ##Ð½Ð¸",
      "ĠÐ±ÑĥÐ´ÑĥÑī ##ÐµÐ¼",
      "ĠÐ¡Ð¿ ##Ð»Ð°Ð½Ð¸ÑĢÑĥÐ¹",
      "ĠÐ¸Ð½ ##ÑĤÐµÑĢ",
      "ĠðŁ¥ ##°",
      "ĠÑģÐµÐ± ##Ðµ",
      "Ðŀ ##ÑĩÐµÐ½ÑĮ",
      "ĠÑĩÐµÑĢ ##ÐµÐ·",
      "ĠÐ¿ÑĢÐ¾ÑĦ ##ÐµÑģÑģ",
      "ĠÐ·Ð» ##Ð¾Ð´",
      "##Ðĵ ##Ð",
      "Ñ ##Ģ",
      "Ġ ##9",
      "##e ##l",
      "##Ð» ##Ðµ",
      "ĠÐº ##Ð»Ð°ÑģÑģ",
      "ĠÐ¼ ##Ð°Ðº",
      "##Ð¼ ##Ñĭ",
      "ĠÐ± ##ÑĥÐº",
      "ĠÐ± ##Ð¾Ð¹ÑĦ",
      "ĠÐ¾ ##Ð¿",
      "ĠÐ¾ ##ÑĢÐ³Ð°Ð½Ð¸Ð·",
      "ĠÐ´ ##Ð¾Ð¼Ð°",
      "##ðŁ ##ı",
      "ĠÐ¸Ð· ##Ð¼ÐµÐ½",
      "ĠðŁ ##§",
      "ĠÐ¡ ##Ð¾Ð·Ð´",
      "##Ð¾ÑĢ ##ÑĤ",
      "##Ð¾Ð¶ ##ÐµÐ½",
      "##ÑĥÑİ ##Ñī",
      "ĠÑĦ ##Ð¾ÑĤÐ¾",
      "##ÐµÑģÑĤ ##Ð¸",
      "##ÑĤÐ¸ ##Ñĩ",
      "ĠÐºÐ¾Ð¼ ##Ð¿",
      "ĠÐ¾Ñģ ##ÐµÐ½",
      "ĠÑĪÐº ##Ð¾Ð»ÑĮ",
      "ĠÑģÑĭ ##Ð³",
      "ĠÑĤÑĢÐ°Ð² ##Ð¼Ð°",
      "ĠÐ¡Ð¾Ð·Ð´ ##Ð°Ð¹",
      "##Ð° ##ÑģÐº",
      "##Ñģ ##ÑĮ",
      "##ÑĢ ##Ð°Ð¶",
      "##Ñĥ ##Ñħ",
      "##Ð» ##Ð¾Ðº",
      "ĠÐ¼ ##Ð¸Ð»",
      "ĠÐ¼ ##Ð½Ð¾Ð³Ð¾",
      "##ÐµÑĤ ##ÑģÑı",
      "##ÐµÐ½ ##Ð¾Ðº",
      "ĠÐ± ##Ð»Ñİ",
      "ĠÐ¿Ð¾ ##ÑĢ",
      "##ÑĨ ##Ð¾",
      "##Ð½Ð¸ ##ÑĨÐ°",
      "ĠÑĢ ##ÐµÐ±",
      "##Ð°Ñģ ##ÑĮ",
      "ĠÐ¿ÑĢÐ¾ ##Ð¸Ð·",
      "ĠÑĨÐ²ÐµÑĤ ##Ð¾Ðº"
    ]
  }
}