{
  "version": "1.0",
  "truncation": null,
  "padding": null,
  "added_tokens": [
    {
      "id": 0,
      "content": "[PAD]",
      "single_word": false,
      "lstrip": false,
      "rstrip": false,
      "normalized": false,
      "special": true
    },
    {
      "id": 1,
      "content": "[CLS]",
      "single_word": false,
      "lstrip": false,
      "rstrip": false,
      "normalized": false,
      "special": true
    },
    {
      "id": 2,
      "content": "[SEP]",
      "single_word": false,
      "lstrip": false,
      "rstrip": false,
      "normalized": false,
      "special": true
    },
    {
      "id": 3,
      "content": "[UNK]",
      "single_word": false,
      "lstrip": false,
      "rstrip": false,
      "normalized": false,
      "special": true
    }
  ],
  "normalizer": null,
  "pre_tokenizer": {
    "type": "ByteLevel",
    "add_prefix_space": true,
    "trim_offsets": true,
    "use_regex": true
  },
  "post_processor": {
    "type": "TemplateProcessing",
    "single": [
      {
        "SpecialToken": {
          "id": "[CLS]",
          "type_id": 0
        }
      },
      {
        "Sequence": {
          "id": "A",
          "type_id": 0
        }
      },
      {
        "SpecialToken": {
          "id": "[SEP]",
          "type_id": 0
        }
      }
    ],
    "pair": [
      {
        "SpecialToken": {
          "id": "[CLS]",
          "type_id": 0
        }
      },
      {
        "Sequence": {
          "id": "A",
          "type_id": 0
        }
      },
      {
        "SpecialToken": {
          "id": "[SEP]",
          "type_id": 0
        }
      },
      {
        "Sequence": {
          "id": "B",
          "type_id": 1
        }
      },
      {
        "SpecialToken": {
          "id": "[SEP]",
          "type_id": 1
        }
      }
    ],
    "special_tokens": {
      "[CLS]": {
        "id": "[CLS]",
        "ids": [
          1
        ],
        "tokens": [
          "[CLS]"
        ]
      },
      "[SEP]": {
        "id": "[SEP]",
        "ids": [
          2
        ],
        "tokens": [
          "[SEP]"
        ]
      }
    }
  },
  "decoder": {
    "type": "ByteLevel",
    "add_prefix_space": true,
    "trim_offsets": true,
    "use_regex": true
  },
  "model": {
    "type": "BPE",
    "dropout": null,
    "unk_token": "[UNK]",
    "continuing_subword_prefix": "##",
    "end_of_word_suffix": null,
    "fuse_unk": false,
    "byte_fallback": false,
    "vocab": {
      "[PAD]": 0,
      "[CLS]": 1,
      "[SEP]": 2,
      "[UNK]": 3,
      "!": 4,
      "%": 5,
      "&": 6,
      "'": 7,
      "(": 8,
      ")": 9,
      "*": 10,
      "+": 11,
      ",": 12,
      "-": 13,
      ".": 14,
      "0": 15,
      "1": 16,
      "2": 17,
      "3": 18,
      "4": 19,
      "5": 20,
      "6": 21,
      "7": 22,
      "8": 23,
      "9": 24,
      ":": 25,
      "?": 26,
      "A": 27,
      "B": 28,
      "C": 29,
      "D": 30,
      "E": 31,
      "F": 32,
      "G": 33,
      "H": 34,
      "I": 35,
      "J": 36,
      "K": 37,
      "L": 38,
      "M": 39,
      "N": 40,
      "O": 41,
      "P": 42,
      "Q": 43,
      "R": 44,
      "S": 45,
      "T": 46,
      "U": 47,
      "V": 48,
      "W": 49,
      "X": 50,
      "Y": 51,
      "Z": 52,
      "[": 53,
      "]": 54,
      "`": 55,
      "a": 56,
      "b": 57,
      "c": 58,
      "d": 59,
      "e": 60,
      "f": 61,
      "g": 62,
      "h": 63,
      "i": 64,
      "j": 65,
      "k": 66,
      "l": 67,
      "m": 68,
      "n": 69,
      "o": 70,
      "p": 71,
      "q": 72,
      "r": 73,
      "s": 74,
      "t": 75,
      "u": 76,
      "v": 77,
      "w": 78,
      "x": 79,
      "y": 80,
      "z": 81,
      "¡": 82,
      "¢": 83,
      "£": 84,
      "¤": 85,
      "¥": 86,
      "¦": 87,
      "§": 88,
      "¨": 89,
      "«": 90,
      "®": 91,
      "¯": 92,
      "°": 93,
      "±": 94,
      "²": 95,
      "³": 96,
      "´": 97,
      "µ": 98,
      "¶": 99,
      "·": 100,
      "¸": 101,
      "¹": 102,
      "º": 103,
      "»": 104,
      "¼": 105,
      "½": 106,
      "¾": 107,
      "¿": 108,
      "Â": 109,
      "Ã": 110,
      "Ð": 111,
      "Ñ": 112,
      "â": 113,
      "Ġ": 114,
      "Ģ": 115,
      "ģ": 116,
      "Ĥ": 117,
      "ĥ": 118,
      "Ħ": 119,
      "ħ": 120,
      "Ĩ": 121,
      "ĩ": 122,
      "Ī": 123,
      "ī": 124,
      "Ĭ": 125,
      "ĭ": 126,
      "Į": 127,
      "į": 128,
      "İ": 129,
      "ı": 130,
      "Ĳ": 131,
      "ĳ": 132,
      "Ĵ": 133,
      "ĵ": 134,
      "Ķ": 135,
      "ķ": 136,
      "ĸ": 137,
      "Ĺ": 138,
      "ĺ": 139,
      "Ļ": 140,
      "ļ": 141,
      "Ľ": 142,
      "ľ": 143,
      "Ŀ": 144,
      "ŀ": 145,
      "Ł": 146,
      "ł": 147,
      "Ń": 148,
      "##Ð": 149,
      "##ļ": 150,
      "##¸": 151,
      "##Ñ": 152,
      "##Ģ": 153,
      "##º": 154,
      "##¾": 155,
      "##²": 156,
      "##½": 157,
      "##ĭ": 158,
      "##µ": 159,
      "##Ī": 160,
      "##İ": 161,
      "##¼": 162,
      "##°": 163,
      "##2": 164,
      "##0": 165,
      "##±": 166,
      "##¹": 167,
      "##Ĥ": 168,
      "##¿": 169,
      "##´": 170,
      "##»": 171,
      "##¶": 172,
      "##ı": 173,
      "##ħ": 174,
      "##³": 175,
      "##ģ": 176,
      "##ĩ": 177,
      "##ĥ": 178,
      "##Ħ": 179,
      "##Į": 180,
      "##Ł": 181,
      "##Ĺ": 182,
      "##·": 183,
      "##¥": 184,
      "##ĺ": 185,
      "##t": 186,
      "##I": 187,
      "##b": 188,
      "##i": 189,
      "##z": 190,
      "##a": 191,
      "##Ĩ": 192,
      "##¨": 193,
      "##ĵ": 194,
      "##ľ": 195,
      "##¢": 196,
      "##Ĳ": 197,
      "##§": 198,
      "##Ń": 199,
      "##¡": 200,
      "##ŀ": 201,
      "##Ķ": 202,
      "##Ŀ": 203,
      "##Ĵ": 204,
      "##ĳ": 205,
      "##ł": 206,
      "##į": 207,
      "##Ĭ": 208,
      "##¤": 209,
      "##5": 210,
      "##B": 211,
      "##g": 212,
      "##3": 213,
      "##ī": 214,
      "##Q": 215,
      "##£": 216,
      "##ķ": 217,
      "##M": 218,
      "##A": 219,
      "##N": 220,
      "##X": 221,
      "##K": 222,
      "##c": 223,
      "##k": 224,
      "##e": 225,
      "##y": 226,
      "##O": 227,
      "##l": 228,
      "##m": 229,
      "##p": 230,
      "##n": 231,
      "##C": 232,
      "##P": 233,
      "##S": 234,
      "##o": 235,
      "##ĸ": 236,
      "##U": 237,
      "##s": 238,
      "##Ľ": 239,
      "##Â": 240,
      "##?": 241,
      "##R": 242,
      "##d": 243,
      "##Ļ": 244,
      "##r": 245,
      "##T": 246,
      "##V": 247,
      "##®": 248,
      "##1": 249,
      "##8": 250,
      "##G": 251,
      "##w": 252,
      "##F": 253,
      "##h": 254,
      "##,": 255,
      "##¦": 256,
      "##J": 257,
      "##u": 258,
      "##!": 259,
      "##9": 260,
      "##E": 261,
      "##¯": 262,
      "##H": 263,
      "##q": 264,
      "##L": 265,
      "##Z": 266,
      "##7": 267,
      "##Y": 268,
      "##Ã": 269,
      "##.": 270,
      "##x": 271,
      "##W": 272,
      "##D": 273,
      "##(": 274,
      "##â": 275,
      "##4": 276,
      "##&": 277,
      "##:": 278,
      "##v": 279,
      "##f": 280,
      "##%": 281,
      "##6": 282,
      "##«": 283,
      "##-": 284,
      "##j": 285,
      "##[": 286,
      "##*": 287,
      "ĠÐ": 288,
      "##Ð°": 289,
      "##Ð¾": 290,
      "##Ðµ": 291,
      "##ÑĤ": 292,
      "##Ð¸": 293,
      "##Ð¾Ð": 294,
      "##Ð°Ð": 295,
      "##Ñģ": 296,
      "##ÑĢ": 297,
      "##ÐµÐ": 298,
      "##Ñĭ": 299,
      "##Ñĥ": 300,
      "##Ð½": 301,
      "ĠÑĤ": 302,
      "##ÑĮ": 303,
      "##Ðº": 304,
      "ĠÑģ": 305,
      "ĠÐ¿": 306,
      "##Ñı": 307,
      "##Ð»": 308,
      "##Ð²": 309,
      "##Ð°Ðº": 310,
      "ĠÐ¸": 311,
      "ĠÐº": 312,
      "##ÐµÑĢ": 313,
      "##ÑĪ": 314,
      "ĠÑĤÑĭ": 315,
      "##Ð´": 316,
      "ĠÐ²": 317,
      "ĠÑ": 318,
      "##ÐµÐ¼": 319,
      "ĠÐ¼": 320,
      "##Ð¼": 321,
      "ĠÐ½": 322,
      "##ÐµÑĤ": 323,
      "##Ð¾Ð¹": 324,
      "##Ð·": 325,
      "##Ð¾Ð²": 326,
      "ĠÐļ": 327,
      "##Ð±": 328,
      "##ÐµÐ±": 329,
      "##ÑģÑĤ": 330,
      "##Ñİ": 331,
      "##Ñĩ": 332,
      "##Ñħ": 333,
      "##ÐµÐ½": 334,
      "ĠÐ±": 335,
      "ĠÐ½Ð°": 336,
      "ĠÑĤÐµÐ±": 337,
      "##Ð¾Ð»": 338,
      "##Ð¾Ð´": 339,
      "ĠÐºÐ°Ðº": 340,
      "##Ð³": 341,
      "##Ð°Ð´": 342,
      "##ÐµÑĢÐ¸": 343,
      "ĠÐ¼Ñĭ": 344,
      "##Ð¸ÑĤ": 345,
      "##Ð°Ð¶": 346,
      "ĠÐļÐ°Ðº": 347,
      "##ÑĤÐ¾": 348,
      "##Ð°Ð¹": 349,
      "ĠÑģÐº": 350,
      "ĠÐĴ": 351,
      "##Ð°Ð½": 352,
      "ĠÐ¾": 353,
      "##Ð¾Ð³": 354,
      "##ÑĪÑĮ": 355,
      "##Ð°ÑĤ": 356,
      "##Ð¾Ð¼": 357,
      "ĠÐ·": 358,
      "ĠÐ»": 359,
      "##ÑĢÐ¾": 360,
      "ĠÐ´": 361,
      "##ÑģÐº": 362,
      "ĠÑĥ": 363,
      "##Ð¿": 364,
      "ĠÐ¿Ð¾": 365,
      "##Ð¹": 366,
      "##Ð°ÑĢ": 367,
      "ĠÐ¸Ð·": 368,
      "ĠÑĤÐ²": 369,
      "##Ð°Ð»": 370,
      "##Ð°Ð¶ÐµÐ¼": 371,
      "ĠÐ°": 372,
      "##Ð»Ð¸": 373,
      "##ÑĭÐ±": 374,
      "ĠÑĤÐµÐ±Ðµ": 375,
      "##Ð°Ñı": 376,
      "ĠÑģÐºÐ°Ð¶ÐµÐ¼": 377,
      "ĠÐĴÑĭÐ±": 378,
      "ĠÐĴÑĭÐ±ÐµÑĢÐ¸": 379,
      "ĠÐ³": 380,
      "##Ð¸Ð½": 381,
      "##ÐµÑĪÑĮ": 382,
      "##ÐµÐ¹": 383,
      "##ÐµÐ»": 384,
      "ĠÐ¡": 385,
      "##Ð¾Ð»ÑĮ": 386,
      "##ÑĨ": 387,
      "ĠÐ±Ñĭ": 388,
      "ĠÂ": 389,
      "ĠÂ«": 390,
      "Â»": 391,
      "##Ð½Ð¸": 392,
      "ĠÐ¿ÑĢ": 393,
      "##Ð³Ð°Ð´": 394,
      "##Ð½Ñĭ": 395,
      "ĠÑĤÐ²Ð¾": 396,
      "##Ð¾ÑĢ": 397,
      "ĠÑĩ": 398,
      "##Ð¶": 399,
      "ĠÑĢ": 400,
      "##Ð°ÑĤÑĮ": 401,
      "##Ð¾Ð½": 402,
      "##Ð¸Ð¼": 403,
      "##Ð»Ð°": 404,
      "##Ð°Ð¼": 405,
      "##Ð¾Ð¶": 406,
      "ĠÐĵ": 407,
      "ĠÐ£": 408,
      "##ÑģÑı": 409,
      "##ÐºÐ¾": 410,
      "##Ð²ÐµÑĤ": 411,
      "##Ð·Ð½": 412,
      "ĠÐĿ": 413,
      "##Ð½Ð¾": 414,
      "##Ð°Ð·": 415,
      "##Ð¾Ð¿": 416,
      "ĠÑĤÐµÐ±Ñı": 417,
      "##ÑĥÐ´": 418,
      "##ÐºÐ°": 419,
      "ĠÑį": 420,
      "##Ð¾Ð»ÑĮÐºÐ¾": 421,
      "##Ð¾Ð³Ð¾": 422,
      "##ÐµÐ´": 423,
      "##ÑĥÑİ": 424,
      "##Ð¾ÑĤ": 425,
      "##Ð»ÑĮ": 426,
      "ĠÐ¸Ð»Ð¸": 427,
      "ĠÑģÑĤ": 428,
      "##Ð°ÐµÐ¼": 429,
      "##ÑģÐ¾Ð²": 430,
      "ĠÐļÐ°ÐºÐ¾Ð¹": 431,
      "ĠÐ»Ð¸": 432,
      "##Ð¸Ðµ": 433,
      "ĠÑĦ": 434,
      "ĠÐŀ": 435,
      "##Ð³Ð°Ð´Ð°Ð¹": 436,
      "##ÑĦ": 437,
      "ĠÐ£Ð³Ð°Ð´Ð°Ð¹": 438,
      "##ÐµÐ³": 439,
      "ĠÐ¶": 440,
      "##ÐµÐ²": 441,
      "ĠÐºÐ°ÐºÐ¾Ð¹": 442,
      "##ÐµÑģ": 443,
      "ĠÐ·Ð½": 444,
      "ĠÐļÐ°ÐºÐ°Ñı": 445,
      "ĠÑģÐ²": 446,
      "ĠÐ¿Ð¾Ð´": 447,
      "##Ð·Ð½Ð°Ð¹": 448,
      "ĠÑħ": 449,
      "ĠÑĨ": 450,
      "##Ð¾Ð±": 451,
      "##ÑĢÑĥ": 452,
      "ĠÐĵÐ°Ð´": 453,
      "ĠÐĿÐ°": 454,
      "##ÐµÑģÑĤ": 455,
      "ĠÐļÑĤÐ¾": 456,
      "##Ð¾Ðº": 457,
      "ĠÑĥÐ·Ð½Ð°Ð¹": 458,
      "##Ð°Ð²": 459,
      "ĠÐŀÑĤ": 460,
      "ĠÐŁ": 461,
      "##ÑİÐ±": 462,
      "ĠÑĤÐ²Ð¾Ð¹": 463,
      "##Ð¾Ð¿ÑĢÐ¾": 464,
      "##Ð°Ñģ": 465,
      "ĠÐ²Ð¾Ð¿ÑĢÐ¾": 466,
      "##Ñī": 467,
      "##ÐµÑĢÐ¸Ð°Ð»": 468,
      "##ÑĤÐ¸": 469,
      "ĠÐ¾ÑĤ": 470,
      "##ÐµÐ½ÑĮ": 471,
      "ĠÐ±ÑĥÐ´": 472,
      "ĠÐŀÑĤÐ²ÐµÑĤ": 473,
      "ĠÑģÐµÑĢÐ¸Ð°Ð»": 474,
      "ĠÐŀÑĤÐ²ÐµÑĤÑĮ": 475,
      "ĠÐĵÐ°Ð´Ð°ÐµÐ¼": 476,
      "ĠÐ²Ð¾Ð¿ÑĢÐ¾ÑģÐ¾Ð²": 477,
      "##ÑĢÐ¸": 478,
      "##ÐºÑĥ": 479,
      "##Ð¸ÑĤÑĮ": 480,
      "ĠÐ¢": 481,
      "##Ð½Ñı": 482,
      "##ÐµÐ³Ð¾": 483,
      "##Ð¸Ñı": 484,
      "##Ð°ÐµÑĪÑĮ": 485,
      "ĠÐ¿Ð°ÑĢ": 486,
      "##Ð¾Ðµ": 487,
      "##Ð¸Ñħ": 488,
      "ĠÐ»ÑİÐ±": 489,
      "Â»?": 490,
      "Âł": 491,
      "##Ð¸Ð¹": 492,
      "ĠÐ¶Ð¸": 493,
      "##Ð¸Ð»ÑĮ": 494,
      "##Ð½ÑĭÐ¹": 495,
      "ĠÐ¿ÑĢÐ¾": 496,
      "âĢ": 497,
      "##ÐµÐº": 498,
      "##ÑģÐºÐ¾Ð»ÑĮÐºÐ¾": 499,
      "âĢĶ": 500,
      "##ÐµÐ·": 501,
      "##Ð»Ñı": 502,
      "##Ð¾ÑĢÐ¾": 503,
      "##Ð¾Ð³Ð»Ð°": 504,
      "##Ð°Ñħ": 505,
      "ĠÐµ": 506,
      "##Ð¸Ðº": 507,
      "##Ð¿Ð¸": 508,
      "##Ð°Ð»ÑĮ": 509,
      "##ÑĪÐµ": 510,
      "##Ð´Ðµ": 511,
      "ĠÐ¡Ð¼": 512,
      "ĠÑĩÑĤÐ¾": 513,
      "##ÐµÑĢÐ¾": 514,
      "##Ð¾ÑĢÐ¾ÑĪ": 515,
      "ĠÐ¿ÐµÑĢ": 516,
      "ĠÑħÐ¾ÑĢÐ¾ÑĪ": 517,
      "##ÑĭÐ¹": 518,
      "##Ð¾Ñĩ": 519,
      "##ÑĢÐ°": 520,
      "##Ð¾Ð¶ÐµÑĪÑĮ": 521,
      "##Ð¸Ð»ÑĮÐ¼": 522,
      "##Ð¸ÑĪÑĮ": 523,
      "ĠÐľ": 524,
      "##ÑģÑĤÑĢ": 525,
      "##Ð¸ÑĤÐ°ÑĤ": 526,
      "##Ð½ÑĭÑħ": 527,
      "##20": 528,
      "ĠÐ³ÐµÑĢÐ¾": 529,
      "ĠÑħÐ¾ÑĢÐ¾ÑĪÐ¾": 530,
      "ĠÑĨÐ¸ÑĤÐ°ÑĤ": 531,
      "##ÑĥÑĩ": 532,
      "ĠÐ¼Ñĥ": 533,
      "##ÐµÑĩ": 534,
      "ĠÑĥÐ³Ð°Ð´": 535,
      "ĠÐĶ": 536,
      "##Ð´Ð°": 537,
      "ĠÐ§": 538,
      "##Ð¾Ñģ": 539,
      "##Ð´ÐµÑĤ": 540,
      "##Ð°ÑĢÑĤ": 541,
      "##Ð°ÐºÐ°": 542,
      "Ġ20": 543,
      "##Ð¸Ñģ": 544,
      "##ÑĤÐµÑĢ": 545,
      "##Ð¾ÑģÑĤ": 546,
      "##Ð°Ð½Ð¸Ðµ": 547,
      "##Ð¾Ð´Ð¸": 548,
      "ĠÐĿÐ°ÑģÐºÐ¾Ð»ÑĮÐºÐ¾": 549,
      "ĠÐ³Ð¾Ð´": 550,
      "ĠÐ±Ð¾Ð»ÑĮ": 551,
      "ĠÐ¿ÐµÑģ": 552,
      "ĠÑģÐ²Ð¾": 553,
      "##Ð¾Ð·": 554,
      "ĠÑĨÐ²ÐµÑĤ": 555,
      "##ÑħÐ¾Ð´": 556,
      "##Ð¸Ð¸": 557,
      "ĠÑģÐºÐ¾Ð»ÑĮÐºÐ¾": 558,
      "##Ð¸Ð²": 559,
      "##Ð½Ð¾Ð¹": 560,
      "ĠÐ²Ñģ": 561,
      "##ÐµÐ½ÑĤ": 562,
      "##Ð°ÑģÑĤ": 563,
      "##ÐºÐ¸": 564,
      "ĠÐºÐ°ÐºÐ°Ñı": 565,
      "ĠÑĦÐ¸Ð»ÑĮÐ¼": 566,
      "ĠÐ±Ð¾Ð»ÑĮÑĪÐµ": 567,
      "##Ð°ÐµÑĤ": 568,
      "ĠÐ·Ð½Ð°ÐµÑĪÑĮ": 569,
      "ĠÐ¡Ð¼Ð¾Ð¶ÐµÑĪÑĮ": 570,
      "ĠÐ¼Ð¾Ð³Ð»Ð°": 571,
      "ĠÐ¾Ð¿Ð¸": 572,
      "ĠÐł": 573,
      "ĠÐ»ÐµÑĤ": 574,
      "ĠÐĳ": 575,
      "##Ð¸ÑĢ": 576,
      "ĠÑģÐ»": 577,
      "ĠÐºÑĤÐ¾": 578,
      "##ÐµÐ»ÑĮ": 579,
      "##ÐºÐ°Ñħ": 580,
      "##Ð¸Ð´": 581,
      "ĠÑģÐ¼": 582,
      "ĠÐ·Ð¾Ð´Ð¸": 583,
      "ĠÐ·Ð¾Ð´Ð¸Ð°ÐºÐ°": 584,
      "##Ð¸Ð»": 585,
      "##Ð¸Ñĩ": 586,
      "ĠÐ±ÑĥÐ´ÐµÑĤ": 587,
      "ĠÐ¾Ð±": 588,
      "##Ð°Ð±": 589,
      "ĠÐºÐ°ÐºÐ¾Ð¼": 590,
      "Ġ202": 591,
      "##ÑĢÐ°Ð½": 592,
      "##Ð½Ð°Ñı": 593,
      "ĠÐ½Ðµ": 594,
      "##ÑģÐ¾Ð½": 595,
      "ĠÑĪ": 596,
      "ĠÐºÐ°ÑĢÑĤ": 597,
      "ĠÐ²Ñĭ": 598,
      "ĠÐºÐ°ÐºÐ¾Ð³Ð¾": 599,
      "##Ð°Ð¿": 600,
      "##ÑĢÐµ": 601,
      "ĠÐ·Ð²": 602,
      "##ÑĥÑĤ": 603,
      "ĠÐ·Ð½Ð°Ðº": 604,
      "##ÐµÑģÐº": 605,
      "##ÑıÑĤ": 606,
      "ĠÐĲ": 607,
      "##Ð½ÑĥÑİ": 608,
      "##Ð½Ðµ": 609,
      "##Ð½Ð¾Ðµ": 610,
      "ĠÐ´ÐµÐ½ÑĮ": 611,
      "ĠÐ¿Ð¾Ñħ": 612,
      "##ÐµÐ½Ð¸Ñı": 613,
      "##Ñį": 614,
      "ĠÑįÑĤ": 615,
      "Ġ8": 616,
      "ĠÐ¿Ð¾ÑħÐ¾Ð¶": 617,
      "##ÑĥÑī": 618,
      "##ÑĥÐ¶": 619,
      "##Ð½Ð°": 620,
      "ĠÐ²ÑģÑĤÑĢ": 621,
      "ĠÐ¿Ð¾Ñģ": 622,
      "ĠÑįÐ¼": 623,
      "ĠÐ¿ÐµÑĢÑģÐ¾Ð½": 624,
      "ĠÐºÐ°ÑĢÑĤÐ¸Ð½": 625,
      "ĠÐ¥": 626,
      "##ÐºÐµ": 627,
      "ĠÐ¾Ð¿Ð¸ÑĪ": 628,
      "##Ð°Ð³": 629,
      "ĠÑĥÐ³Ð°Ð´Ð°ÐµÐ¼": 630,
      "##ÐµÐ·Ð´": 631,
      "##Ð½Ð¾Ð³Ð¾": 632,
      "ĠÐ¿ÐµÑĢÑģÐ¾Ð½Ð°Ð¶": 633,
      "ĠÐ¿Ð¾Ð´ÑħÐ¾Ð´": 634,
      "##Ð¸Ð·": 635,
      "ĠÐ¿Ð°ÑĢÐ½": 636,
      "Ġ1": 637,
      "##ÑĢÐ¾Ð²": 638,
      "ĠÑģÐµÑĢÐ¸Ð°Ð»Ð°": 639,
      "ĠÐ§ÑĤÐ¾": 640,
      "##Ð¾Ð¹Ð´ÐµÑĤ": 641,
      "ĠÐ½Ð¾Ð²": 642,
      "ĠÐ¿Ð¾Ð´ÑħÐ¾Ð´Ð¸ÑĤ": 643,
      "ĠÐºÐ°ÐºÑĥÑİ": 644,
      "##Ð¸ÑĤÑģÑı": 645,
      "##Ð¸ÑĦ": 646,
      "##Ð¼Ðµ": 647,
      "ĠÐ´Ð»Ñı": 648,
      "##Ð½Ð¾ÑģÑĤ": 649,
      "ĠÑģÐ°Ð¼": 650,
      "##Ð·Ð½Ð¸": 651,
      "##Ð¾Ð²ÑĮ": 652,
      "ĠÑĤÐ²Ð¾Ñı": 653,
      "ĠÐ¶Ð¸Ð·Ð½Ð¸": 654,
      "##Ð¸Ñİ": 655,
      "##ÑĢÐ°Ð²": 656,
      "ĠÐ¢Ñĭ": 657,
      "##ÐµÑĢÑĤ": 658,
      "##Ð¸ÑĩÐµÑģÐº": 659,
      "ĠÐ·Ð²ÐµÐ·Ð´": 660,
      "ĠÐĽ": 661,
      "##ÑĥÐ»": 662,
      "ĠÑģÐ¾": 663,
      "ĠÑģÐ´": 664,
      "ĠÑĢÐ°Ð·": 665,
      "ĠÑĤÐ²Ð¾Ñİ": 666,
      "ĠÑĤÐ²Ð¾Ðµ": 667,
      "ĠÐ¼ÑĥÐ»ÑĮ": 668,
      "ĠÐ¾Ð¿Ð¸ÑĪÐµÑĤ": 669,
      "ĠÐºÐ°ÐºÐ¾Ðµ": 670,
      "##ÑĥÑĪ": 671,
      "##Ð°ÑģÑģÐº": 672,
      "ĠÐ±ÑĥÐ´ÑĥÑī": 673,
      "ĠÐ¿Ð¾Ð¼": 674,
      "ĠÐ½Ð°Ð·": 675,
      "ĠÑģÑĤÑĢÐ°Ð½": 676,
      "##ÑĢÑĥÐ³": 677,
      "ĠÐ¸Ð´Ðµ": 678,
      "ĠÑģÑĤÐ°ÑĤÑĮ": 679,
      "##Ð½Ð¾Ð¼": 680,
      "ĠÐ»ÑİÐ±Ð¸Ð¼": 681,
      "ĠÐ¿ÐµÑģÐ½Ñı": 682,
      "ĠÐ¸Ð´ÐµÐ°Ð»ÑĮ": 683,
      "##Ð¾Ñı": 684,
      "ĠÐ¶Ð¸Ð·Ð½": 685,
      "##ÐµÑĢÐ´": 686,
      "ĠÐ±ÑĭÐ»Ð°": 687,
      "ĠÑĩÐµÐ¼": 688,
      "##ÑĥÐ¼": 689,
      "##ÐµÑĤÑĥ": 690,
      "##ÑĨÐ°": 691,
      "##ÑģÐ°": 692,
      "##ÑĥÐ¿": 693,
      "##ÐµÐ½Ð¸Ðµ": 694,
      "ĠÐļÐ°ÐºÐ¾Ðµ": 695,
      "ĠÐ¶Ð¸Ð·Ð½ÑĮ": 696,
      "##ÑģÐ¿": 697,
      "ĠÐºÐ¾": 698,
      "ĠÑįÑĤÐ¾": 699,
      "##ÐµÑģÑĤÐ²": 700,
      "##Ð³Ð¾": 701,
      "##Ð½ÑĭÐµ": 702,
      "ĠÐ¿ÑĢÐ¸Ð½": 703,
      "ĠÐ³ÐµÑĢÐ¾Ð¸Ð½": 704,
      "ĠÐ¿Ð¾Ð»": 705,
      "ĠÐ³Ð»": 706,
      "##ÑĢÑĭ": 707,
      "##ÐµÐ½ÑĤÐ¾Ð²": 708,
      "ĠÑįÐ¼Ð¾Ð´": 709,
      "ĠÐ¿ÑĢÐµÐ´": 710,
      "##ÑģÑĤÐ²": 711,
      "ĠÐºÐ°ÐºÐ¸Ð¼": 712,
      "##ÑĨÐµÐ½ÑĤÐ¾Ð²": 713,
      "ĠÐ¿ÑĢÐ¾ÑĨÐµÐ½ÑĤÐ¾Ð²": 714,
      "ĠÐ¿Ð¾ÑģÐ¾Ð²": 715,
      "##Ð½Ð¸Ðº": 716,
      "ĠÑĤÐ²Ð¾ÐµÐ¹": 717,
      "ĠÐĶÐ¶": 718,
      "ĠÐ¿Ð¾ÑħÐ¾Ð¶Ð°": 719,
      "ĠÑģÐ´ÐµÐ»": 720,
      "##ÐµÑĤÑĥÐµÐ¼": 721,
      "ĠÐ¿Ð¾ÑģÐ¾Ð²ÐµÑĤÑĥÐµÐ¼": 722,
      "##ÑĢÐµÑĤ": 723,
      "ĠÐ¿Ð¾Ð¿": 724,
      "ĠÐ´ÐµÐ»": 725,
      "ĠÑģÐ²Ð¾Ð¹": 726,
      "##ÐµÐ²ÑģÐº": 727,
      "ĠÑģÑĤÐ¾": 728,
      "##Ð¸Ð³": 729,
      "##Ð»Ð°Ñģ": 730,
      "##ÑĥÐ¹": 731,
      "ĠÐ½Ð°ÑģÐºÐ¾Ð»ÑĮÐºÐ¾": 732,
      "##Ð°ÑĤÑĮÑģÑı": 733,
      "##ÑĥÑģ": 734,
      "##Ð¾Ð´Ð½Ñı": 735,
      "ĠÑįÑĤÐ¸": 736,
      "ĠÐµÐ³Ð¾": 737,
      "##ÐµÑĤÐ¸ÑĪÑĮ": 738,
      "ĠÐ¡Ð¿": 739,
      "ĠÑĤÐ²Ð¾ÐµÐ³Ð¾": 740,
      "ĠÐ¿Ð°ÑĢÐµÐ½ÑĮ": 741,
      "##ÑĤÐµÑĢÐ°": 742,
      "##ÑĢÐµÐ´": 743,
      "ĠÐºÐ¾ÑĢ": 744,
      "##ÐµÐ¶": 745,
      "ĠÑģÐ¿": 746,
      "ĠÑģÐµÐ³": 747,
      "ĠÐºÐ°Ð´": 748,
      "##Ð´Ð¸": 749,
      "ĠÐ»ÑĥÑĩ": 750,
      "ĠÑģÐµÐ³Ð¾Ð´Ð½Ñı": 751,
      "ĠÐ½Ð°ÑģÑĤ": 752,
      "##ÐµÑģÑģ": 753,
      "##Ð²Ð¸": 754,
      "ĠÐºÐµÐ¼": 755,
      "##ÐµÐ¹Ñĩ": 756,
      "ĠÐ¼ÑĥÐ¶": 757,
      "ĠÐ¿Ð»": 758,
      "##Ð°Ð¼ÐµÐ½": 759,
      "ĠÐ³Ð¾Ð´Ñĥ": 760,
      "Ð¡": 761,
      "##ÑĢÐ°Ð·": 762,
      "##ÑıÐ¼": 763,
      "##Ð»ÐµÐ½": 764,
      "ĠÐºÐ¾Ð¼": 765,
      "ĠÑĤÐ²Ð¾Ð¸Ð¼": 766,
      "ĠÐ¡Ð¼Ð¾Ð³Ð»Ð°": 767,
      "ĠÐ²ÑģÐµÐ³Ð¾": 768,
      "ĠB": 769,
      "##ÐµÑĪ": 770,
      "ĠÑģÐ¾Ð²": 771,
      "ĠÐ¾Ñģ": 772,
      "##Ð°Ð»Ð¸": 773,
      "##Ð¸Ð½Ð°": 774,
      "ĠÐ¾ÑĤÐ½Ð¾": 775,
      "Ġ10": 776,
      "Ġ5": 777,
      "ĠÐ½Ð°Ð¹": 778,
      "ĠÐ³Ð¸ÑĦ": 779,
      "##Ð¾Ð³Ð´Ð°": 780,
      "ĠÐ´Ð¾ÑĢ": 781,
      "ĠÑģÐ²Ð¸Ð´": 782,
      "ĠÑĥÐ³Ð°Ð´Ð°ÑĤÑĮ": 783,
      "##ÐµÐ¹ÑĩÐ°Ñģ": 784,
      "ĠÐĺ": 785,
      "##Ð¸Ð¿": 786,
      "ĠÑģÐµÐ¹ÑĩÐ°Ñģ": 787,
      "##Ð»ÑİÐ±": 788,
      "ĠÐ»ÑİÐ±Ð¾Ð²ÑĮ": 789,
      "##ÑĩÐ°ÑģÑĤ": 790,
      "ĠÑĢÐ°ÑģÑģÐº": 791,
      "ĠÑģÐ²Ð¾Ñİ": 792,
      "ĠÐ¸Ð½": 793,
      "##Ð»Ð¸Ñĩ": 794,
      "ĠÑģÑĤÐ¾Ð¸ÑĤ": 795,
      "ĠÑı": 796,
      "##Ð¸ÑĨ": 797,
      "ĠÐ¾Ð´": 798,
      "##Ð°ÑĢÐ°Ðº": 799,
      "ĠÐ¾ÑĤÐ½Ð¾ÑĪ": 800,
      "Ðł": 801,
      "ĠÐĹ": 802,
      "##ÑĭÑħ": 803,
      "##Ð°ÑĢÑĢÐ¸": 804,
      "ĠÐ±ÑĥÐ´ÐµÑĪÑĮ": 805,
      "Ðĵ": 806,
      "##Ð¼ÐµÐ½": 807,
      "##Ð¼Ð¾ÑĤ": 808,
      "ĠÐ½ÑĥÐ¶": 809,
      "##Ð°Ð½ÐµÑĤ": 810,
      "ĠÐ´Ð¸Ñģ": 811,
      "ĠÐ´ÑĢÑĥÐ³": 812,
      "ĠÑĨÐ¸ÑĤÐ°ÑĤÑĥ": 813,
      "##ÐµÐ¼Ñĥ": 814,
      "ĠÐ¿Ð¾Ð´Ð¾Ð¹Ð´ÐµÑĤ": 815,
      "ĠÑħÐ°ÑĢÐ°Ðº": 816,
      "ĠÐ²ÑģÑĤÑĢÐµÑĤÐ¸ÑĪÑĮ": 817,
      "##ÑĭÐ²": 818,
      "##ÐµÑĢÑĮ": 819,
      "##Ð½ÐµÐµÐ²ÑģÐº": 820,
      "ĠÐ¾ÑĤÐ½Ð¾ÑĪÐµÐ½Ð¸Ñı": 821,
      "ĠÐ´Ð¸ÑģÐ½ÐµÐµÐ²ÑģÐº": 822,
      "##ÑĢÐµÐ¼": 823,
      "##ÑĢÐµÐ½": 824,
      "ĠÐ²Ð»ÑİÐ±": 825,
      "ĠÐ°Ð½Ð¸": 826,
      "ĠÑĨÐ¸ÑĤÐ°ÑĤÐ°": 827,
      "##ÑĢÐµÑĤÑĮ": 828,
      "##op": 829,
      "##Ð½Ð¸ÑĪÑĮ": 830,
      "ĠÐ¿Ð°ÑĢÐ½Ñı": 831,
      "##Ð½Ð¾ÑģÑĤÑĮ": 832,
      "pop": 833,
      "Ġk": 834,
      "##ÑĮÐ±": 835,
      "ĠÐ³Ð¸ÑĦÐºÐ°Ñħ": 836,
      "ĠÐ°Ð½Ð¸Ð¼Ðµ": 837,
      "ĠÐļÐ°ÐºÑĥÑİ": 838,
      "##Ð¾Ð³Ð¾Ð´": 839,
      "##Ð°Ð»Ð°": 840,
      "##Ð½Ð¸Ð¹": 841,
      "ĠÐŃ": 842,
      "ĠÐ¿Ð¾Ðº": 843,
      "##Ð¾Ð²Ð°": 844,
      "ĠÐ¼ÑĥÐ»ÑĮÑĤ": 845,
      "ĠÐ´Ð¾ÑĢÐ°Ð¼": 846,
      "ĠÐķ": 847,
      "##Ð²ÐµÑģÑĤ": 848,
      "ĠÐ´ÐµÑĤ": 849,
      "ĠÐ¡Ðº": 850,
      "Ġ2023": 851,
      "ĠÐ¿Ð¾ÑģÐ¼Ð¾ÑĤ": 852,
      "ĠD": 853,
      "Ġ6": 854,
      "##ÑĤÑĮ": 855,
      "ĠÐ·Ð°": 856,
      "ĠÐŁÐ¾ÑĤ": 857,
      "##Ð·Ð¸": 858,
      "##Ð¶Ð¸": 859,
      "ĠÐ»ÑİÐ±Ð²Ð¸": 860,
      "##Ð°Ð¼ÐµÐ½Ð¸ÑĤ": 861,
      "ÐĶ": 862,
      "ĠT": 863,
      "ĠG": 864,
      "ĠÑģÐºÐ°Ð·": 865,
      "ĠÐ´ÐµÐ²": 866,
      "##Ð½ÑĭÐ¼": 867,
      "ĠÐ¿Ð¾Ð´ÑģÐº": 868,
      "ĠÐŁÑĢÐ¾Ð²": 869,
      "##Ð¸ÑĤÑĮÑģÑı": 870,
      "##Ð¸Ð²ÐµÑĢÐ´": 871,
      "ĠÑģÐ´ÐµÐ»Ð°ÑĤÑĮ": 872,
      "ĠÑģÐ²Ð¸Ð´Ð°Ð½Ð¸Ðµ": 873,
      "ĠÐºÐ¸Ð½": 874,
      "##Ð´ÐµÑĪÑĮ": 875,
      "##ÑĤÐ¾ÑĢ": 876,
      "ĠÐ·Ð½Ð°Ð¼ÐµÐ½Ð¸ÑĤ": 877,
      "##Ð½Ñİ": 878,
      "##Ð¾Ð±Ð¾Ð¹": 879,
      "ĠÐ³ÐµÑĢÐ¾ÐµÐ²": 880,
      "ĠÐ¨": 881,
      "ĠÐºÐ¾Ð³Ð¾": 882,
      "ĠÐ³Ð¾ÑĢ": 883,
      "##ÑĨÐµ": 884,
      "ĠÐ¿ÑĢÐ¾Ð²": 885,
      "ĠÑĤÐ²Ð¾Ð¸": 886,
      "Ġ2022": 887,
      "ĠÐ¿Ð¾ÑģÐ¼Ð¾ÑĤÑĢÐµÑĤÑĮ": 888,
      "ĠÐ¿Ñģ": 889,
      "ĠÐ¾ÑĤÐ»Ð¸Ñĩ": 890,
      "ĠÐ¿Ð°ÑĢÐ½ÐµÐ¼": 891,
      "ĠÐ¿Ð°ÑĢÐ½ÐµÐ¹": 892,
      "##Ð½Ð¾Ð¼Ñĥ": 893,
      "##Ð°Ñİ": 894,
      "##ÑĥÐ±": 895,
      "ĠÐ¼Ð°Ð½": 896,
      "##Ð¾Ð»Ð¾Ñģ": 897,
      "ĠÐĵÐ°Ð´Ð°Ð½Ð¸Ðµ": 898,
      "ĠÑĨÐ¸ÑĤÐ°ÑĤÐ°Ñħ": 899,
      "ĠÑģÐµÐ±": 900,
      "ĠÐºÐ¾Ð³Ð´Ð°": 901,
      "##ÑģÐºÐ°Ñı": 902,
      "ĠÑįÐº": 903,
      "ÐłÐ¸Ð²ÐµÑĢÐ´": 904,
      "##Ð¸ÑģÑĤ": 905,
      "ĠÐ¸ÑģÑĤ": 906,
      "##Ð¾Ð¼Ð°": 907,
      "##ÑģÐºÐ¸Ð¹": 908,
      "ĠÐ¿ÑģÐ¸Ñħ": 909,
      "ĠÑĤÐ¾Ð±Ð¾Ð¹": 910,
      "ĠÐºÐ¾Ð½": 911,
      "ĠÐ½Ð°Ð¿": 912,
      "##Ð¾Ð±ÐµÑĢÐ¸": 913,
      "##Ð¸ÑĪÑĮÑģÑı": 914,
      "ĠÐ½Ð¾Ð²Ð¾Ð³Ð¾Ð´": 915,
      "ĠÐ¿Ð¾Ð¼Ð½Ð¸ÑĪÑĮ": 916,
      "ĠÐ½Ð°Ð·Ð¾Ð²": 917,
      "##Ð°Ð½Ð°": 918,
      "ĠÐ¿Ð¾Ð»ÑĥÑĩ": 919,
      "##Ð¾ÑĨ": 920,
      "##Ð¸Ð¾Ð½": 921,
      "##Ð°Ð¶Ð¸": 922,
      "##ÑĢÐ¾Ñĩ": 923,
      "ĠÐ¿ÐµÑĢÐ²": 924,
      "ÐŃ": 925,
      "##Ð¾Ñĥ": 926,
      "##ÐµÐ»Ð¾Ð²": 927,
      "ĠÐ¤": 928,
      "##ÑĥÐº": 929,
      "##Ð°Ð½ÑĤ": 930,
      "##ÐµÐ´ÐµÑĪÑĮ": 931,
      "ĠÐ³Ð¾Ð´Ð°": 932,
      "ĠÑĪÐº": 933,
      "ĠÐ½ÑĥÐ¶Ð½Ð¾": 934,
      "##Ð°Ñĩ": 935,
      "##ÑĥÐ»Ñı": 936,
      "ĠÐºÐ°ÐºÐ¸Ðµ": 937,
      "ĠÐ¡Ð¾Ð±ÐµÑĢÐ¸": 938,
      "ĠÐ¶Ð¸Ð²": 939,
      "ĠÐ»ÐµÑĤÐ¾Ð¼": 940,
      "ĠÐ²ÑģÑĤÑĢÐµÑĩ": 941,
      "ĠÐ¿ÐµÑĢÑģÐ¾Ð½Ð°Ð¶Ð°": 942,
      "ÐĵÐ°ÑĢÑĢÐ¸": 943,
      "ĠÐ½Ð°Ð·Ð¾Ð²ÐµÐ¼": 944,
      "##ÑģÐ»Ð¸": 945,
      "##ÑĢÐ³": 946,
      "##ÑĢÐ¾Ð±": 947,
      "ĠÑģÑĩÐ°ÑģÑĤ": 948,
      "ĠÐ¼ÐµÑĩ": 949,
      "##Ð°ÑĤÐµÐ»ÑĮ": 950,
      "ĠÐ·Ð°Ð¼": 951,
      "##Ð»Ð¸Ð²": 952,
      "##ÐµÐ¹ÑĤ": 953,
      "ĠÐ£Ð·Ð½Ð°Ð¹": 954,
      "ĠÐ¶Ð´ÐµÑĤ": 955,
      "ĠÑģÐµÑĢÐ¸Ð°Ð»ÑĮ": 956,
      "ĠÐ³Ð»Ð°Ð²": 957,
      "ĠÐ½Ð°Ð¹ÑĤÐ¸": 958,
      "##ÐµÐ¿": 959,
      "##ÑĭÐµ": 960,
      "##ÑĥÐ»ÑĮ": 961,
      "##Ð»Ñİ": 962,
      "ĠÐºÐ½Ð¸": 963,
      "##Ð¿Ð¿": 964,
      "Â»,": 965,
      "##Ð½Ð¸Ð¼": 966,
      "##ÑĢÐ°ÑĪ": 967,
      "ĠÐ¼ÐµÑĩÑĤ": 968,
      "ÐŁ": 969,
      "##Ð°ÑĨ": 970,
      "##ÑĢÑı": 971,
      "##Ð¾Ð»Ð¾Ð³": 972,
      "ĠÐ³ÑĢÑĥ": 973,
      "##ÑĦÐ¸Ð»ÑĮÐ¼": 974,
      "ĠÐ¢ÐµÑģÑĤ": 975,
      "ĠÐµÐµ": 976,
      "ĠÑĨÐ²ÐµÑĤÐ°": 977,
      "ĠÑįÑĤÐ¾Ð¹": 978,
      "##Ð¾Ð²ÑĭÐ¹": 979,
      "##Ð¸ÑĤÐµÐ»ÑĮ": 980,
      "##ÑģÐºÐ¸Ñħ": 981,
      "ĠÐ³Ð´Ðµ": 982,
      "ĠÐ³ÐµÑĢÐ¾Ð¸Ð½Ñı": 983,
      "ĠÐŁÐ¾ÑĤÑĤÐµÑĢÐ°": 984,
      "##Ð¸ÐºÐ°": 985,
      "##ÑĥÐ´Ð°": 986,
      "ĠÑĦÐ°Ðº": 987,
      "ĠÑįÑĤÐ¾ÑĤ": 988,
      "ÐłÐ¸Ð²ÐµÑĢÐ´ÐµÐ¹": 989,
      "##ÑĢÐ°Ð¼": 990,
      "ĠÐºÐ¾ÑĤ": 991,
      "ĠÑĩÐµÐ³Ð¾": 992,
      "ĠÐ²ÑģÐµ": 993,
      "ĠÐ¿ÑĢÐ¸Ð½ÑĨ": 994,
      "##en": 995,
      "##ÑĢÐ°Ñģ": 996,
      "##ÑĥÑĢÐµ": 997,
      "##ÐºÐ¾Ð¹": 998,
      "ĠÐ¸Ð³": 999,
      "##Ð´Ñĥ": 1000,
      "##Ð·Ñĭ": 1001,
      "##ÐµÐ»Ð°": 1002,
      "##Ð¾Ð½Ð°": 1003,
      "##Ð°ÐµÑĪÑĮÑģÑı": 1004,
      "ĠÐ³ÐµÑĢÐ¾Ñı": 1005,
      "ĠÑģÐ¼Ð¾Ð¶ÐµÑĪÑĮ": 1006,
      "ĠÑįÐ¼Ð¾Ð´Ð·Ð¸": 1007,
      "ĠÑįÐ¼Ð¾Ð´Ð¶Ð¸": 1008,
      "ĠÐ¼ÑĥÐ»ÑĮÑĤÑĦÐ¸Ð»ÑĮÐ¼": 1009,
      "ĠÐ¡ÐºÐ¾Ð»ÑĮÐºÐ¾": 1010,
      "ĠI": 1011,
      "##Ð¼Ð°": 1012,
      "ĠÐ°Ðº": 1013,
      "##ÐµÐ»ÐµÐ½": 1014,
      "##ÑĥÐ´ÑĮÐ±": 1015,
      "##Ð½Ð¾ÑģÑĤÐ¸": 1016,
      "##ÑĥÐ»Ð¼": 1017,
      "ĠÐ¼ÑĥÐ»ÑĮÑĤÐ¸": 1018,
      "ĠÐºÐ¸Ð½Ð¾": 1019,
      "##ÑĢÐ°ÑĤÑĮ": 1020,
      "ĠÐ¸ÑģÐ¿": 1021,
      "##ÑİÑĢ": 1022,
      "##ÑĢÐ¾Ñģ": 1023,
      "ĠÑĥÑĩ": 1024,
      "##Ð¾ÑģÑĤÑĮ": 1025,
      "ĠÑįÑĤÐ¸Ð¼": 1026,
      "ĠÑģÐ¾ÑĥÐ»Ð¼": 1027,
      "ĠÐ½Ð°Ð·Ð²": 1028,
      "##Ð¾ÑıÑī": 1029,
      "ĠÐ»ÑĥÑĩÑĪ": 1030,
      "ĠÐ¸ÑģÑĤÐ¾ÑĢ": 1031,
      "ĠÑģÐ¾ÑĥÐ»Ð¼ÐµÐ¹ÑĤ": 1032,
      "##ne": 1033,
      "##Ð¸ÑĤÐµÐ»": 1034,
      "##Ð°Ð½Ð¸": 1035,
      "ĠÐ·Ð°Ð²": 1036,
      "ĠÐ¿ÑĢÑıÐ¼": 1037,
      "ĠÐ¿Ð¾ÑģÐ»": 1038,
      "ĠÑģÐ°Ð¼Ð¾Ð¼": 1039,
      "ĠÐ´ÐµÐ»Ðµ": 1040,
      "ĠÐ³ÑĢÑĥÐ¿Ð¿": 1041,
      "ĠÐ¿ÑĢÑıÐ¼Ð¾": 1042,
      "ĠM": 1043,
      "ĠÐ¼Ð¾Ð³": 1044,
      "ĠÐ½ÐµÐ´": 1045,
      "##Ð°Ð½Ð¸Ñı": 1046,
      "##ÑĥÐ¿ÐµÑĢ": 1047,
      "ĠÑħÐ°ÑĢÐ°ÐºÑĤÐµÑĢ": 1048,
      "ĠÐ¶Ð¸Ð²Ð¾ÑĤ": 1049,
      "Ðŀ": 1050,
      "ĠS": 1051,
      "##in": 1052,
      "##ct": 1053,
      "ĠÐºÐ»Ð¸": 1054,
      "##Ð¾Ð²Ð¸": 1055,
      "##Ð°Ð½Ð´": 1056,
      "ĠÐ·Ð°Ðº": 1057,
      "ĠÑĩÐµÑĢ": 1058,
      "##Ð¾Ð¶ÐµÑĤ": 1059,
      "ĠÐºÐ¾ÑĢÐµÐ¹": 1060,
      "ĠÑĢÐ°ÑģÑģÐºÐ°Ð¶ÐµÐ¼": 1061,
      "ĠÐŁÑĢÐ¾Ð²ÐµÑĢÑĮ": 1062,
      "##ÐµÐ»Ð¾Ð²ÐµÐº": 1063,
      "ĠÐºÐ½Ð¸Ð³": 1064,
      "Ġ7": 1065,
      "Ġâ": 1066,
      "##ÐµÑģÑı": 1067,
      "##ÑĤÑĢ": 1068,
      "##ÑĮÑı": 1069,
      "ĠÐļÐµÐ¼": 1070,
      "##Ð¾Ð»Ð½": 1071,
      "ĠÐ·Ð¸Ð¼": 1072,
      "Â»:": 1073,
      "ĠÐ¿ÑĢÐ¾Ð³": 1074,
      "##Ð¾Ð¶Ð´": 1075,
      "##ÐµÐºÑģ": 1076,
      "ĠÐºÐ°Ð´ÑĢÑĥ": 1077,
      "ĠÐ·Ð°Ð¼ÑĥÐ¶": 1078,
      "ÐłÐ¸Ð²ÐµÑĢÐ´ÐµÐ¹Ð»Ð°": 1079,
      "ĠâĢ": 1080,
      "##ÑĭÐ¼": 1081,
      "##ÐµÐ½Ð¸": 1082,
      "##Ð¾Ð»Ð¾Ð²": 1083,
      "ĠÐ¾Ðº": 1084,
      "ĠÐ¿ÑĢÐ¾Ð¹Ð´ÐµÑĤ": 1085,
      "ĠÐĿÐ°Ð¹": 1086,
      "ĠÐ³Ð»Ð°Ð·": 1087,
      "ĠBT": 1088,
      "ĠÐ³Ð¾ÑĢÐ¾Ð´": 1089,
      "##ÑĥÐ»ÑıÑĢ": 1090,
      "ĠÐºÐ»Ð¸Ð¿": 1091,
      "ĠâĢĵ": 1092,
      "ÑĤ": 1093,
      "ĠÑģÑĢÐµÐ´": 1094,
      "ĠÐ±Ð»Ð¸": 1095,
      "##Ð¾Ð¼Ð°Ð½": 1096,
      "##Ð°Ð¼Ð¸": 1097,
      "##ÑĢÐµÐ½Ð´": 1098,
      "ĠÐ¿ÑģÐ¸ÑħÐ¾Ð»Ð¾Ð³": 1099,
      "ĠBTS": 1100,
      "Ðľ": 1101,
      "ÐĴ": 1102,
      "##ÑĥÐ½": 1103,
      "ĠÑĤÐ¸Ð¿": 1104,
      "##ÐºÐ¾Ð²": 1105,
      "ĠÑģÑĥÐ´ÑĮÐ±": 1106,
      "ĠÐ²Ð¾Ð·": 1107,
      "##Ð±ÐµÑĢ": 1108,
      "##ÑĢÐ¸Ð³": 1109,
      "ĠÑģÐ¼Ð¾ÑĤ": 1110,
      "ĠÐ¼Ð°Ð½Ð¸Ðº": 1111,
      "ĠÐ²ÑģÑĤÑĢÐµÑĩÐ°ÑĤÑĮÑģÑı": 1112,
      "##ea": 1113,
      "##Ð»Ð¸ÑĤ": 1114,
      "ĠÐ²ÑĭÐ¹": 1115,
      "##Ð¾Ð²Ð°ÑĤÑĮ": 1116,
      "ĠÐ½Ð°Ñĩ": 1117,
      "##Ð½Ð¸Ðµ": 1118,
      "ĠÑĢÑĥÑģ": 1119,
      "ĠÐ»Ð¸Ñĩ": 1120,
      "ĠÑģÐµÑĢÐ¸Ð°Ð»Ð¾Ð²": 1121,
      "##Ð°Ð±Ð¾ÑĤ": 1122,
      "ĠÐ½Ð°ÑģÑĤÐ¾ÑıÑī": 1123,
      "ĠÐ¿Ð»Ð°ÑĤÑĮ": 1124,
      "ĠÐ¿ÑĢÐ¾Ð²ÐµÐ´ÐµÑĪÑĮ": 1125,
      "##Ð¸Ð»Ð°": 1126,
      "##Ð°Ð¶ÐµÑĤ": 1127,
      "##Ð¾Ð¼Ñĥ": 1128,
      "ĠÐ´Ð¾Ð»": 1129,
      "##Ð¿ÑĢÐ°Ð²": 1130,
      "ĠÐ¿Ð¾Ñĩ": 1131,
      "ĠÐ¿ÑĢÐ¸Ð²": 1132,
      "##Ð¾ÑĢÐ¸Ð¼": 1133,
      "ĠÑģÑĤÐ°Ð½ÐµÑĤ": 1134,
      "##Ð¾Ð±Ñĭ": 1135,
      "ĠÐ¾Ð¿Ð¸Ñģ": 1136,
      "ĠÐ»ÑİÐ±Ð¸Ð¼ÑĭÐ¹": 1137,
      "ĠÐ¿Ð¾Ð¿ÑĥÐ»ÑıÑĢ": 1138,
      "ĠÑįÑĤÐ¸Ñħ": 1139,
      "ĠÑģÐ¾Ð²ÐµÑĤ": 1140,
      "##ÑĢÐ°Ñħ": 1141,
      "##ÑĥÑĢ": 1142,
      "##ÑĮÑİ": 1143,
      "ĠÑģÐµÑĢÐ´": 1144,
      "##ÑĪÐ»": 1145,
      "ĠÐ¼ÐµÑģÑı": 1146,
      "##ÑĨÐº": 1147,
      "ĠÐĿÐ°Ð·": 1148,
      "ĠÐ¿Ð¾Ð´Ð°ÑĢ": 1149,
      "ĠÑģÐ²Ð¾ÐµÐ³Ð¾": 1150,
      "ĠÐ´ÑĢÑĥÐ³Ð¸Ðµ": 1151,
      "ĠDi": 1152,
      "ĠÐĿÐ°Ð¹Ð´Ð¸": 1153,
      "##ar": 1154,
      "ĠÑĤÑĥÑĢÐµ": 1155,
      "ĠÑģÐ¾ÑģÑĤ": 1156,
      "ĠÐ²ÐºÑĥ": 1157,
      "ĠÐ¸Ð·Ð²ÐµÑģÑĤ": 1158,
      "ĠÐ¿ÑĢÐ°Ð²": 1159,
      "ĠÐ¿ÑĢÐ¸Ð³": 1160,
      "ĠÐĿÐ¾Ð²ÑĭÐ¹": 1161,
      "##Ð¾ÑĤÐ¾Ð²ÑĮ": 1162,
      "ĠÑģÐ»Ð¾Ð²": 1163,
      "ĠÑįÐ¼Ð¾ÑĨ": 1164,
      "ĠÐ¡Ð¿Ð¾ÑĢÐ¸Ð¼": 1165,
      "ĠÐ²Ð»ÑİÐ±Ð»ÐµÐ½": 1166,
      "ÐŃÐ»Ð¸ÑĤ": 1167,
      "ĠÐ¼Ð°Ð½Ð¸ÐºÑİÑĢ": 1168,
      "##Ð¾ÑģÐ¾Ð²": 1169,
      "##ÑģÐ¸Ð¸": 1170,
      "ĠÐ¿Ð¾Ð·": 1171,
      "##Ð»ÐµÑĤ": 1172,
      "ĠÐ²Ð¾": 1173,
      "##Ð°Ð½Ð¸Ð·": 1174,
      "ĠÐ°Ð¹": 1175,
      "##ÑĢÑĥÐ¶": 1176,
      "##ÑĢÐ°ÑģÑĤ": 1177,
      "##Ð½ÐµÐµ": 1178,
      "ĠÐ½Ð°ÑģÑĤÑĢÐ¾": 1179,
      "##Ð°ÑİÑĤ": 1180,
      "ĠÑįÐºÑģÑĤÑĢ": 1181,
      "##ÑĢÐ³Ð°Ð½Ð¸Ð·": 1182,
      "ĠÐĿÐ°Ð·Ð¾Ð²Ð¸": 1183,
      "ĠÑĤÑĥÑĢÐµÑĨÐº": 1184,
      "##sh": 1185,
      "##Ð¸ÑĪ": 1186,
      "ĠÐ²ÐµÑĩ": 1187,
      "##ÑĩÐµÐ½ÑĮ": 1188,
      "ĠÐ´Ð¾": 1189,
      "##ÑģÐºÐ¾Ð¹": 1190,
      "ĠÑĩÐµÑĢÑĤ": 1191,
      "ĠÑĩÐµÐ»Ð¾Ð²ÐµÐº": 1192,
      "##Ð¾ÑĩÐºÐ°": 1193,
      "ĠÐ¿ÐµÑģÐ½Ñİ": 1194,
      "ĠÑģÐ¾Ð¾Ð±": 1195,
      "ĠÐ¸Ð´ÐµÐ°Ð»ÑĮÐ½ÑĭÐ¹": 1196,
      "ĠÐ»ÑĥÑĩÑĪÐµ": 1197,
      "ĠÐ½ÐµÐ´ÐµÐ»": 1198,
      "Ðļ": 1199,
      "##pa": 1200,
      "##ÑĢÐ¸Ð½": 1201,
      "ĠÑĤÑĢ": 1202,
      "ĠÑģÑĭ": 1203,
      "ĠÑģÐµÑĢ": 1204,
      "ĠÑģÐ²Ð°Ð´": 1205,
      "ĠÑĦÐ¸Ð»ÑĮÐ¼Ð°": 1206,
      "ĠÐłÐ°ÑģÑģÐº": 1207,
      "ĠÑģÐ»ÑĥÑĩ": 1208,
      "ĠÑģÑĢÐµÐ´Ð¸": 1209,
      "ĠÐ²ÐºÑĥÑģ": 1210,
      "ĠÐ°Ð¹Ð´": 1211,
      "ĠÐłÐ°ÑģÑģÐºÐ°Ð¶Ð¸": 1212,
      "Ðĳ": 1213,
      "##Ð¾Ñħ": 1214,
      "ĠÐ¼Ð¾ÑĢ": 1215,
      "##ÐµÐ½Ð°": 1216,
      "##Ð¾Ð»Ð¾ÑģÐ¾Ð²": 1217,
      "##ÑģÐºÑĥÑİ": 1218,
      "ĠÐ¡ÑĤ": 1219,
      "ĠÐ¿ÑĢÐ¸": 1220,
      "ĠÑĢÐ¾Ð´": 1221,
      "ĠÐŁÑĢÐ¸Ð³": 1222,
      "ĠÐ¾ÑĤÐ½Ð¾ÑĪÐµÐ½Ð¸ÑıÑħ": 1223,
      "ĠÐ¿ÑĢÐ¾Ð³Ð¾Ð»Ð¾ÑģÐ¾Ð²": 1224,
      "ĠÐ¿Ð»Ð°ÑĤÑĮÐµ": 1225,
      "ĠÐ¿ÑĢÐ¾Ð³Ð¾Ð»Ð¾ÑģÐ¾Ð²Ð°Ð»Ð¸": 1226,
      "##mpa": 1227,
      "##ÑĢÑıÑĤ": 1228,
      "##ÑĪÐµÐ±": 1229,
      "ĠÐ¼ÐµÐ¼": 1230,
      "##ÑĩÐ¸Ðº": 1231,
      "##Ð¾Ð»ÑĪÐµÐ±": 1232,
      "ĠÐ»Ñİ": 1233,
      "ĠÑĥÑģÐ¿": 1234,
      "ĠÐ¿Ð¾ÑģÑĤ": 1235,
      "ĠÐ±ÑĭÑĤÑĮ": 1236,
      "##Ð½Ð¸ÑĨ": 1237,
      "ĠÑĢÐ°Ð±Ð¾ÑĤ": 1238,
      "ĠÑģÑĤÐ¸Ñħ": 1239,
      "ĠÐłÐ¾Ñģ": 1240,
      "ĠÑĢÐ°Ð·Ð±": 1241,
      "ĠÑģÐ¿ÑĢÑıÑĤ": 1242,
      "ĠÐ¿Ð¾Ð´ÑģÐºÐ°Ð¶ÐµÐ¼": 1243,
      "##ensh": 1244,
      "ĠImpa": 1245,
      "ĠÐ¿ÑģÐ¸ÑħÐ¾Ð»Ð¾Ð³Ð¸ÑĩÐµÑģÐº": 1246,
      "ĠÑģÐ¼Ð¾ÑĤÑĢÐ¸": 1247,
      "##enshin": 1248,
      "ĠImpact": 1249,
      "##ÑģÑĭ": 1250,
      "ĠÐ²ÐµÑģ": 1251,
      "ĠÐ¶Ð¸ÑĤÑĮ": 1252,
      "##ÑĢÑĥÐ·": 1253,
      "ĠÐºÐ°ÑĢÑĤÐ¸Ð½ÐºÐµ": 1254,
      "##Ð»Ð°ÑģÑĮ": 1255,
      "ĠÐ´Ð¾ÑĢÐ°Ð¼Ñĥ": 1256,
      "ĠÐ¿Ð¾Ð»ÑĥÑĩÐ¸": 1257,
      "ĠÐ²ÑĭÐ¹Ð´ÐµÑĪÑĮ": 1258,
      "ĠÑģÐ»ÑĥÑĩÐ¸ÑĤÑģÑı": 1259,
      "ĠÐŁÑĢÐ¸Ð³Ð¾ÑĤÐ¾Ð²ÑĮ": 1260,
      "Ð·": 1261,
      "##ÑĬ": 1262,
      "##ÑĥÐ²": 1263,
      "##Ð½Ð³": 1264,
      "ĠÑĤÐµÑģÑĤ": 1265,
      "##Ð²Ð°": 1266,
      "##ÐµÑĢÐ°": 1267,
      "##Ð¼Ð¸": 1268,
      "##ÑĢÐ¾ÑģÑĤ": 1269,
      "ĠÑĥÐ²": 1270,
      "ĠÐ¿Ð¾ÑĨ": 1271,
      "##ÐµÐ´Ð¸": 1272,
      "ĠÐ¿ÑĢÐ¾ÑĪÐ»": 1273,
      "Ġ201": 1274,
      "##Ð¾Ð·Ð´": 1275,
      "ĠÐ¥Ð¾Ð³": 1276,
      "ĠÑģÑĤÑĢÐ°Ð½Ñĥ": 1277,
      "ĠÐ¼ÑĥÐ¶Ð°": 1278,
      "##Ð¾Ð»Ð¾ÑģÑĥÐ¹": 1279,
      "ĠÑģÐµÐ±Ñı": 1280,
      "ĠÑĦÐ°ÐºÑĤ": 1281,
      "ĠÐ²Ð¾Ð·ÑĢÐ°ÑģÑĤ": 1282,
      "ĠÐ´Ð¾Ð»Ð¶": 1283,
      "##ÐµÐµ": 1284,
      "##ÐµÑĨ": 1285,
      "##Ð½ÑĥÑĤ": 1286,
      "ĠÑģÑĥÐ¿ÐµÑĢ": 1287,
      "##ÑıÐ½": 1288,
      "##Ð²Ð°ÑĢÑĤ": 1289,
      "##Ð¼ÐµÑĤ": 1290,
      "##ÑģÐºÐ¾Ð³Ð¾": 1291,
      "##Ð¿Ñĥ": 1292,
      "ĠÑĢÐ°Ñģ": 1293,
      "ĠÑĢÐ¾Ð¼Ð°Ð½": 1294,
      "ĠÐĵÐ¾Ð»Ð¾ÑģÑĥÐ¹": 1295,
      "ĠÐ¿Ð¾Ð´ÑĢÑĥÐ³": 1296,
      "ĠÐ¿ÑĢÐ¾ÑĦ": 1297,
      "##ÑĢÐ°ÑĦ": 1298,
      "ĠÐ¿ÐµÑĢÑģÐ¾Ð½Ð°Ð¶ÐµÐ¹": 1299,
      "##Ð»Ð°ÑģÑģ": 1300,
      "ĠGenshin": 1301,
      "##ÑĥÐ»ÑĮÑĤ": 1302,
      "ĠÐ¿Ð¾ÑĩÐµÐ¼Ñĥ": 1303,
      "ÐŃÐ»Ð¸ÑĤÑĭ": 1304,
      "ĠÑģÐµÑĢÐ´Ðµ": 1305,
      "Ð¿": 1306,
      "ÐĲ": 1307,
      "##ÑĢÐ¾Ð¼": 1308,
      "##Ð»Ð¾Ð¶": 1309,
      "##Ð»Ð¾Ñĥ": 1310,
      "ĠÐºÑĢÐ°ÑĪ": 1311,
      "##Ð´Ð¶": 1312,
      "ĠÐ·Ð»": 1313,
      "##ÑģÐºÐ°Ð·": 1314,
      "ĠÑĥÐ¶": 1315,
      "##ÐµÑĪÑĮÑģÑı": 1316,
      "##Ð¾ÑĤÐ¾Ð²Ð°": 1317,
      "ĠÑģÐ»ÐµÐ´": 1318,
      "Ġ2021": 1319,
      "##Ð¼ÐµÐµÑĪÑĮ": 1320,
      "ĠÐ±ÑĥÐ´ÑĥÑīÐµÐ³Ð¾": 1321,
      "##ÐµÑģÑĤÐ²ÐµÐ½": 1322,
      "ĠÑģÐºÐ°Ð·Ð°Ð»": 1323,
      "ĠÑģÑĩÐ°ÑģÑĤÐ»Ð¸Ð²": 1324,
      "##eam": 1325,
      "ĠDis": 1326,
      "ĠÑģÐ¾ÑģÑĤÐ¾Ñı": 1327,
      "ĠÐłÐ¾ÑģÑģÐ¸Ð¸": 1328,
      "ĠÐ¥Ð¾Ð³Ð²Ð°ÑĢÑĤ": 1329,
      "Ġ(": 1330,
      "##ÑĥÐµÑĤ": 1331,
      "ĠÑĤÑĢÐ°Ð²": 1332,
      "##Ð²Ð°ÑĤ": 1333,
      "ĠÐ¸Ð¼": 1334,
      "ĠÐºÑĥÐ¿": 1335,
      "ĠÐ¼Ð¸ÑĢ": 1336,
      "##ÐµÑĤÐºÐ°": 1337,
      "ĠÐļÐ°ÑĢ": 1338,
      "ĠÐļÐ°ÐºÐ¸Ð¼": 1339,
      "##Ð¾Ð³ÑĢÐ°ÑĦ": 1340,
      "ĠÑĢÐ¾Ð¶Ð´": 1341,
      "##Ð°Ð¼Ð¿Ð¸": 1342,
      "##ÐµÑģÐµÑĤ": 1343,
      "ĠÑģÐ²Ð¾ÐµÐ¹": 1344,
      "##Ð¸ÑĢÐ°ÐµÑĪÑĮÑģÑı": 1345,
      "##ÑıÑĤÑĮ": 1346,
      "##Ð½Ð¸ÐºÐ¾Ð²": 1347,
      "ĠÐ¾ÑĤÐ»Ð¸ÑĩÐ¸ÑĤÑĮ": 1348,
      "##Ð¸Ð¾Ð½Ð°Ð»ÑĮ": 1349,
      "##ney": 1350,
      "ĠÑģÐ¾Ð¾Ð±ÑĢÐ°Ð·": 1351,
      "ĠÐ¿Ð¾ÑĨÐµÐ»": 1352,
      "ĠÑģÐµÑĢÐ´ÐµÑĩ": 1353,
      "ĠDisney": 1354,
      "##et": 1355,
      "##Ð¾ÑĤÐ¾": 1356,
      "ĠÑĤÐ¾Ñĩ": 1357,
      "ĠÑģÐµÐ¼": 1358,
      "ĠÐ¸Ð¼ÐµÐ½": 1359,
      "ĠÐºÑĢÐ°Ñģ": 1360,
      "ĠÐ²ÑĭÐ±": 1361,
      "##Ð³Ð»Ñı": 1362,
      "##Ð°Ð½Ð¸Ñİ": 1363,
      "##Ð¸Ð½Ð³": 1364,
      "##ÑĢÑĥÐ¹": 1365,
      "ĠÐŁÐ¾Ð¿": 1366,
      "##Ð´Ð°Ñĩ": 1367,
      "ĠÐ¾Ð±ÑĢÐ°Ð·": 1368,
      "ĠÐ·Ð½Ð°ÐºÑĥ": 1369,
      "##ÑįÐ»": 1370,
      "ĠÐºÐ¾ÑĤÐ¾ÑĢ": 1371,
      "##ÐµÑģÑĤÐ²Ð¾": 1372,
      "ĠÐ¾ÑģÐµÐ½ÑĮ": 1373,
      "ĠÐĺÐ·": 1374,
      "##ÑĢÐµÐ¼Ñı": 1375,
      "ĠÐ¶Ð¸Ð²Ð¾ÑĤÐ½Ð¾Ðµ": 1376,
      "ĠÑģÐ¾Ð¾Ð±ÑĢÐ°Ð·Ð¸ÑĤÐµÐ»ÑĮ": 1377,
      "Ñħ": 1378,
      "##Ð°ÑĪ": 1379,
      "##ÐµÑħ": 1380,
      "##Ð½ÐµÐ²": 1381,
      "##ÑĮÐµ": 1382,
      "##Ð»Ð°Ð½Ð¸": 1383,
      "ĠÐºÐ°ÑĢ": 1384,
      "ĠÐ²Ð¾Ð»ÑĪÐµÐ±": 1385,
      "ĠÐ²Ð°Ð¼Ð¿Ð¸": 1386,
      "##Ð¾Ð¹ÑĤÐ¸": 1387,
      "##Ð°Ð½Ð½ÑĭÑħ": 1388,
      "ĠÐ´Ð¾ÑģÑĤ": 1389,
      "ĠÑĥÐ´Ð°Ñĩ": 1390,
      "ĠÑĦÐ¾ÑĤ": 1391,
      "##ÐµÐ²ÑĢ": 1392,
      "ĠÐµÑģÐ»Ð¸": 1393,
      "ĠÐľÑĭ": 1394,
      "ĠÐºÐ°ÑĢÑĤÐ¸Ð½Ñĥ": 1395,
      "ĠÐ±ÑĥÐ´ÑĥÑīÐ¸Ð¹": 1396,
      "ĠÐ¸Ð´ÐµÐ°Ð»ÑĮÐ½Ð¾": 1397,
      "##ÑĢÑıÐ´": 1398,
      "##Ð·ÑĭÐº": 1399,
      "ÑĤÐµÑģÑĤ": 1400,
      "ĠÐ±Ð»Ð¸Ð¶": 1401,
      "ĠÑģÐµÑĢÐ´ÑĨÐµ": 1402,
      "ĠÑĢÐ°Ð·Ð±Ð¸ÑĢÐ°ÐµÑĪÑĮÑģÑı": 1403,
      "ĠÑģÐ¾Ð¾Ð±ÑĢÐ°Ð·Ð¸ÑĤÐµÐ»ÑĮÐ½Ð¾ÑģÑĤÑĮ": 1404,
      "##Ð»Ð°Ð½Ð¸ÑĢÑĥÐ¹": 1405,
      "Ð¢": 1406,
      "##ÑĥÐ³": 1407,
      "##Ð¾Ð²Ð¾Ð¹": 1408,
      "##Ð±Ð¸": 1409,
      "##ÐµÐ½Ð½Ð°Ñı": 1410,
      "##Ð°Ð½Ñĭ": 1411,
      "ĠÐ¾Ð½": 1412,
      "##ÐµÐ´ÑĮ": 1413,
      "ĠÑĦÐ°Ð½": 1414,
      "ĠÐ¶ÐµÐ½": 1415,
      "ĠÐµÐ»": 1416,
      "##Ð¾ÑĩÐºÑĥ": 1417,
      "ĠÐ²ÑĭÑħÐ¾Ð´": 1418,
      "ĠÐ¿ÑĢÐ¸Ð½ÐµÑģÐµÑĤ": 1419,
      "##ÑĭÐ²Ð°ÐµÑĤ": 1420,
      "ĠÑĪÐºÐ¾Ð»": 1421,
      "##ÑĢÐ¾Ð±ÑĥÐ¹": 1422,
      "ĠN": 1423,
      "##Ðĵ": 1424,
      "##ÑĤÐ°": 1425,
      "##ÑģÐ»": 1426,
      "##Ð½ÐµÐ¹": 1427,
      "ĠÑģÐµÐ»": 1428,
      "ĠÐ¼Ð¾Ð´": 1429,
      "##Ð¾Ð¹ÑĦ": 1430,
      "ĠÐ°Ð»ÑĮ": 1431,
      "ĠÐ¡Ð²": 1432,
      "ĠÑģÑĤÑĢÐ¾Ñĩ": 1433,
      "ĠÐ·Ð½Ð°ÐºÐ°": 1434,
      "ĠÐ¢Ð²": 1435,
      "ĠÐ¿ÐµÑģÐ½Ð¸": 1436,
      "ĠÐ±ÑĥÐ´ÑĥÑīÐµÐ¼": 1437,
      "ĠÐ¡Ð¿Ð»Ð°Ð½Ð¸ÑĢÑĥÐ¹": 1438,
      "ĠÐ¸Ð½ÑĤÐµÑĢ": 1439,
      "ĠÑģÐµÐ±Ðµ": 1440,
      "ÐŀÑĩÐµÐ½ÑĮ": 1441,
      "ĠÑĩÐµÑĢÐµÐ·": 1442,
      "ĠÐ¿ÑĢÐ¾ÑĦÐµÑģÑģ": 1443,
      "ĠÐ·Ð»Ð¾Ð´": 1444,
      "##ÐĵÐ": 1445,
      "ÑĢ": 1446,
      "Ġ9": 1447,
      "##el": 1448,
      "##Ð»Ðµ": 1449,
      "ĠÐºÐ»Ð°ÑģÑģ": 1450,
      "ĠÐ¼Ð°Ðº": 1451,
      "##Ð¼Ñĭ": 1452,
      "ĠÐ±ÑĥÐº": 1453,
      "ĠÐ±Ð¾Ð¹ÑĦ": 1454,
      "ĠÐ¾Ð¿": 1455,
      "ĠÐ¾ÑĢÐ³Ð°Ð½Ð¸Ð·": 1456,
      "ĠÐ´Ð¾Ð¼Ð°": 1457,
      "ĠÐ¸Ð·Ð¼ÐµÐ½": 1458,
      "ĠÐ¡Ð¾Ð·Ð´": 1459,
      "##Ð¾ÑĢÑĤ": 1460,
      "##Ð¾Ð¶ÐµÐ½": 1461,
      "##ÑĥÑİÑī": 1462,
      "ĠÑĦÐ¾ÑĤÐ¾": 1463,
      "##ÐµÑģÑĤÐ¸": 1464,
      "##ÑĤÐ¸Ñĩ": 1465,
      "ĠÐºÐ¾Ð¼Ð¿": 1466,
      "ĠÐ¾ÑģÐµÐ½": 1467,
      "ĠÑĪÐºÐ¾Ð»ÑĮ": 1468,
      "ĠÑģÑĭÐ³": 1469,
      "ĠÑĤÑĢÐ°Ð²Ð¼Ð°": 1470,
      "ĠÐ¡Ð¾Ð·Ð´Ð°Ð¹": 1471,
      "##Ð°ÑģÐº": 1472,
      "##ÑģÑĮ": 1473,
      "##ÑĢÐ°Ð¶": 1474,
      "##ÑĥÑħ": 1475,
      "##Ð»Ð¾Ðº": 1476,
      "ĠÐ¼Ð¸Ð»": 1477,
      "ĠÐ¼Ð½Ð¾Ð³Ð¾": 1478,
      "##ÐµÑĤÑģÑı": 1479,
      "##ÐµÐ½Ð¾Ðº": 1480,
      "ĠÐ±Ð»Ñİ": 1481,
      "ĠÐ¿Ð¾ÑĢ": 1482,
      "##ÑĨÐ¾": 1483,
      "##Ð½Ð¸ÑĨÐ°": 1484,
      "ĠÑĢÐµÐ±": 1485,
      "##Ð°ÑģÑĮ": 1486,
      "ĠÐ¿ÑĢÐ¾Ð¸Ð·": 1487,
      "ĠÑĨÐ²ÐµÑĤÐ¾Ðº": 1488,
      "ĠÐºÐ¾ÑĦ": 1489,
      "ĠÐ¼ÐµÑĩÑĤÑĭ": 1490,
      "ĠÑģÑĥÐ´ÑĮÐ±Ð°": 1491,
      "ĠÐ¾Ð¿Ð¸ÑģÑĭÐ²Ð°ÐµÑĤ": 1492,
      "##Ð¿ÑĥÑģÐº": 1493,
      "ÐĹ": 1494,
      "ĠÐļÐ°ÐºÐ¾Ð³Ð¾": 1495,
      "##Ð°Ð»Ð°ÑģÑĮ": 1496,
      "ĠÐ¢Ð¾Ð»ÑĮÐºÐ¾": 1497,
      "##Ð¸ÑģÑĮ": 1498,
      "##Ð¸ÑĢÐ°Ð¹": 1499,
      "ĠÐ¿ÑĢÐµÐ´ÑģÐºÐ°Ð·": 1500,
      "ĠÑħÐ°ÑĢÐ°ÐºÑĤÐµÑĢÐ°": 1501,
      "ĠÐķÐĵÐ": 1502,
      "##Ð°ÑĨÐ¸Ñı": 1503,
      "ĠÐ¿ÑĢÐ¸Ð½ÑĨÐµÑģÑģ": 1504,
      "ĠÑģÐ»ÐµÐ´ÑĥÑİÑī": 1505,
      "ĠÑĤÐ¾ÑĩÐ½Ð¾": 1506,
      "ĠÐŁÐ¾Ð¿ÑĢÐ¾Ð±ÑĥÐ¹": 1507,
      "##ÑįÐ»Ð»Ð¾Ñĥ": 1508,
      "ĠÐķÐĵÐŃ": 1509,
      "Ġ[": 1510,
      "##ix": 1511,
      "ĠÑģÐµÐ·": 1512,
      "##Ð»Ð°Ð´": 1513,
      "##Ð»ÐµÐº": 1514,
      "##Ð²ÐµÑĢ": 1515,
      "ĠÐºÑĢÑĥ": 1516,
      "##Ð¾Ð²Ð¾ÑĢ": 1517,
      "##ÐµÐ½Ð´": 1518,
      "##Ð¸ÑĤÐµÑĢ": 1519,
      "##Ð°ÑĤÑĥ": 1520,
      "ĠÐ´Ð¾Ð¼": 1521,
      "ĠÐĴÑĭÐ±Ð¸ÑĢÐ°Ð¹": 1522,
      "##Ð¸Ð¼Ð°": 1523,
      "ĠÑģÑĤÐ°Ð½": 1524,
      "##ÑīÐµÐ½Ð½Ð°Ñı": 1525,
      "ĠÐºÐ¾ÑĤÐ¾": 1526,
      "ĠÐºÐ°Ð´ÑĢÐ°Ñħ": 1527,
      "ĠÑįÐºÑģÑĤÑĢÐµÐ¼": 1528,
      "Ð·Ð°Ð¿": 1529,
      "ĠÐ´Ð¾Ð»Ð¶Ð½Ð°": 1530,
      "##on": 1531,
      "##LA": 1532,
      "##ÑĢÐ°Ðº": 1533,
      "ĠÐ¿Ð¾Ð²": 1534,
      "##Ð»Ð¾Ð½": 1535,
      "##Ð¼Ð°Ð½": 1536,
      "ĠÐļÑĢÐ¸": 1537,
      "##ÐµÐ½Ð¸Ð¸": 1538,
      "##Ð¾Ð»Ð¾Ð´": 1539,
      "##Ð¸ÑĤÐ°Ð½": 1540,
      "ĠÑĤÐ²Ð¾ÐµÐ¼": 1541,
      "##Ð¾ÑĢÐ°": 1542,
      "ĠÑĦÐµÐ²ÑĢ": 1543,
      "ĠÑħÐ²Ð°ÑĤ": 1544,
      "ĠÐ¿ÑĢÐ¾ÑģÑĤ": 1545,
      "ĠÐ²ÑģÐµÐ»ÐµÐ½": 1546,
      "ĠÐ»ÐµÑĤÐ¾": 1547,
      "##ÑĢÐµÑīÐµÐ½Ð½Ð°Ñı": 1548,
      "ĠÐºÐ°ÑĢÑĤÐ¸Ð½ÐºÐ¸": 1549,
      "##ÑĥÐ»ÐµÑĤÐºÐ°": 1550,
      "##Ð¸ÑģÑĤÑģÐºÐ°Ñı": 1551,
      "ĠÐ°ÐºÑĤÐµÑĢ": 1552,
      "ĠÑĩÐµÑĢÑĤÑĥ": 1553,
      "##ÑĥÐ²ÑģÑĤÐ²": 1554,
      "ĠÐ¿ÑĢÐ¾ÑĪÐ»Ð¾Ð¹": 1555,
      "ĠÐ¥Ð¾Ð³Ð²Ð°ÑĢÑĤÑģÐ°": 1556,
      "ĠÐ¸Ð¼Ñı": 1557,
      "ÑĢÑĥÐ»ÐµÑĤÐºÐ°": 1558,
      "ĠÐ¾ÑĢÐ³Ð°Ð½Ð¸Ð·Ð°ÑĨÐ¸Ñı": 1559,
      "ĠÑįÐºÑģÑĤÑĢÐµÐ¼Ð¸ÑģÑĤÑģÐºÐ°Ñı": 1560,
      "Ð·Ð°Ð¿ÑĢÐµÑīÐµÐ½Ð½Ð°Ñı": 1561,
      "ĠÑħÐ²Ð°ÑĤÐ°ÐµÑĤ": 1562,
      "##IN": 1563,
      "##Ð°ÑĢÐ¾Ñĩ": 1564,
      "##ÑıÐ±": 1565,
      "##Ð´ÐµÐ¹": 1566,
      "ĠÐļÐ°ÐºÐ¸Ðµ": 1567,
      "ĠÐ´ÑĥÐ¼": 1568,
      "##ÑĨÑĥ": 1569,
      "ĠÑĢÐµ": 1570,
      "ĠÐ·Ð½Ð°ÐµÐ¼": 1571,
      "##Ð¸ÑıÐ¶": 1572,
      "ĠÐ»ÑİÐ±Ð¾Ð²": 1573,
      "##Ð¸Ð»ÑĮÐ½Ð¾": 1574,
      "##Ð¸Ð´ÐµÐ»Ð°": 1575,
      "ĠÐ¿Ð¾Ð¿ÑĢÐ¾Ð±": 1576,
      "ĠÐºÐ¾ÑĢÐ¾Ð»": 1577,
      "ĠÐ·Ð½Ð°Ð¼ÐµÐ½Ð¸ÑĤÐ¾ÑģÑĤÑĮ": 1578,
      "ĠÐ½Ð°Ð¿Ð¸Ñģ": 1579,
      "ĠÐ¸ÑģÐ¿Ð¾Ð»Ð½": 1580,
      "ĠÐ½Ð°ÑģÑĤÐ¾ÑıÑīÐ¸Ð¹": 1581,
      "##Ð¿ÑĢÐ°Ð²Ð»Ñı": 1582,
      "##ÑĢÑĥÐ·ÐµÐ¹": 1583,
      "ĠÑģÐ¾ÑģÑĤÐ¾ÑıÐ½Ð¸Ðµ": 1584,
      "ĠÐ±Ð»Ð¸Ð¶Ð°Ð¹": 1585,
      "ĠÑĦÐ°Ð½Ð°ÑĤ": 1586,
      "##INK": 1587,
      "ÐĿ": 1588,
      "##KP": 1589,
      "##le": 1590,
      "##CKP": 1591,
      "ĠÑģÐ½": 1592,
      "ĠÐ¿ÑĥÑĤ": 1593,
      "##ÑıÑĩ": 1594,
      "ĠÐºÐ¾Ñģ": 1595,
      "##ÐµÑĢÐ¾Ð¼": 1596,
      "##ÑĪÐ¸": 1597,
      "##ÑĪÐºÐ°": 1598,
      "ĠÐ²Ð·": 1599,
      "ĠÐ²Ð¾Ð»Ð¾Ñģ": 1600,
      "ĠÐ²Ð½Ð¸Ð¼": 1601,
      "ĠÐ½Ð°Ð´": 1602,
      "ĠÐļÐ²ÐµÑģÑĤ": 1603,
      "##ÑĩÐ¾Ð½": 1604,
      "ĠÐ½Ð°ÑĢÑıÐ´": 1605,
      "ĠÐ´Ð²": 1606,
      "ĠÐ´ÑĥÑĪ": 1607,
      "##Ð°ÑĢÐ´": 1608,
      "ĠÐ°Ð½Ð³": 1609,
      "##Ð»Ð¸Ð½": 1610,
      "##ÐµÐ¹Ð»": 1611,
      "ĠÐ±ÑĭÐ»": 1612,
      "ĠÐŁÑĢ": 1613,
      "##ÑĤÐ¸Ð²": 1614,
      "ĠÐľÐ°ÑĢ": 1615,
      "ĠÑģÑĤÑĢÐ°Ð½Ð½ÑĭÑħ": 1616,
      "ĠÐ³ÐµÑĢÐ¾Ð¸Ð½Ñİ": 1617,
      "ĠBLA": 1618,
      "ĠÐ¾ÑĤÐ»Ð¸ÑĩÐ¸Ð¹": 1619,
      "##Ð°ÑİÑī": 1620,
      "ĠÐ¸Ð³ÑĢÑĥ": 1621,
      "ĠÐ¸ÑģÑĤÐ¾ÑĢÐ¸Ñİ": 1622,
      "ĠÐ¼ÐµÑģÑıÑĨ": 1623,
      "ĠÐ¿ÑĢÐ¸Ð³Ð»Ð°Ñģ": 1624,
      "ĠÑįÐ¼Ð¾ÑĨÐ¸Ð¾Ð½Ð°Ð»ÑĮ": 1625,
      "ĠÑģÐ²Ð°Ð´ÑĮÐ±": 1626,
      "ĠÑģÐ¿ÑĢÑıÑĤÐ°Ð½Ð½ÑĭÑħ": 1627,
      "ĠÑĥÐ²Ð¸Ð´ÐµÐ»Ð°": 1628,
      "ĠÑģÐµÑĢÐ´ÐµÑĩÐºÐ¾": 1629,
      "ĠÑĦÐ¾ÑĤÐ¾Ð³ÑĢÐ°ÑĦ": 1630,
      "ĠÑģÐµÐ»ÐµÐ±": 1631,
      "ĠÐ°Ð»ÑĮÐ±": 1632,
      "ĠÐ±Ð¾Ð¹ÑĦÑĢÐµÐ½Ð´": 1633,
      "ĠÐ¿Ð¾Ð¿ÑĢÐ¾Ð±Ð¾Ð²Ð°ÑĤÑĮ": 1634,
      "##CKPINK": 1635,
      "ĠBLACKPINK": 1636,
      "ĠC": 1637,
      "ĠÑģÐ½Ñı": 1638,
      "ĠÐ¿Ð°Ð»": 1639,
      "ĠÐ¿Ð¾Ð½": 1640,
      "ĠÐ¸Ñħ": 1641,
      "ĠÐ²ÑĢÐµÐ¼Ñı": 1642,
      "ĠÐ¼ÐµÑĪ": 1643,
      "##ÑģÑĤÐ°Ð³": 1644,
      "ĠÐ´ÐµÑģ": 1645,
      "ĠÑĢÐ¾Ð»ÑĮ": 1646,
      "ĠÐ¶ÐµÐ»": 1647,
      "##Ð¾ÐºÐ¾Ð»": 1648,
      "ĠÐ¾ÑĤÐ²ÐµÑĤ": 1649,
      "ĠÐµÐ´Ñĥ": 1650,
      "##ÑģÑĤÑĢÐ¾Ð¹": 1651,
      "ĠÐĲÐ½": 1652,
      "ĠÑįÑĤÐ¾Ð¼": 1653,
      "ĠÐ¥ÑįÐ»Ð»Ð¾Ñĥ": 1654,
      "##Ð¸Ð·Ð¾Ð¼": 1655,
      "ĠÐ·Ð²ÐµÐ·Ð´Ñĥ": 1656,
      "ĠÐ´Ð¸ÑģÐ½ÐµÐµÐ²ÑģÐºÐ¸Ñħ": 1657,
      "ĠÐ´ÐµÐ²Ð¸Ð·Ð¾Ð¼": 1658,
      "##Ð½ÑİÑİ": 1659,
      "##Ð»ÑİÑĩ": 1660,
      "##Ð¸ÑĤÐµÐ»ÐµÐ¹": 1661,
      "ĠÐ¼Ð¾ÑĢÐ¾Ð¶ÐµÐ½": 1662,
      "ĠÐºÑĥÐ¿Ð¸ÑĤÑĮ": 1663,
      "ĠÑĥÐ´Ð°ÑĩÑĥ": 1664,
      "ĠÐ²ÑĭÑħÐ¾Ð´Ð½ÑĭÐµ": 1665,
      "ĠÐ¼Ð°ÐºÐ¸ÑıÐ¶": 1666,
      "ĠÐºÐ¾ÑĤÐ¾ÑĢÑĭ": 1667,
      "ĠÑĦÐµÐ²ÑĢÐ°Ð»": 1668,
      "##ÑģÑĤÐ°Ð³ÑĢÐ°Ð¼": 1669,
      "ĠÐ´ÐµÑģÐµÑĢÑĤ": 1670,
      "ĠV": 1671,
      "ĠÐĸ": 1672,
      "##ÑĤÑĥ": 1673,
      "##ÑģÐµ": 1674,
      "ĠÑĤÐ°Ð¹": 1675,
      "##ÐºÐ¾Ð¼": 1676,
      "ĠÐ¿Ð°ÑĢÐ¾Ñĩ": 1677,
      "ĠÐºÑĥÐ´Ð°": 1678,
      "##ÐµÑĢÐ¾Ð¹": 1679,
      "##ÑĪÐºÑĥ": 1680,
      "ĠÐ±ÐµÐ·": 1681,
      "##Ð³Ð¸": 1682,
      "ĠÐ¿ÑĢÐ¸ÑĩÐµÑģÐº": 1683,
      "ĠÑĩÑĥÐ²ÑģÑĤÐ²": 1684,
      "##Ð¾Ð½Ðµ": 1685,
      "ĠÐĵÐ°ÑĢÑĢÐ¸": 1686,
      "##Ð°Ð·Ð´": 1687,
      "ĠÑģÑĤÑĢ": 1688,
      "ĠÑģÑĤÐ°ÑĢ": 1689,
      "ĠÐ²Ð¾Ð¿ÑĢÐ¾ÑģÑĭ": 1690,
      "##ÐµÐ·ÐµÑĤ": 1691,
      "ĠÑĨÐ¸ÑĤÐ°ÑĤÐµ": 1692,
      "##Ð°ÑģÑĤÑĮ": 1693,
      "##Ð°ÐµÑĤÑģÑı": 1694,
      "ĠÐ²ÑĭÐ¿ÑĥÑģÐº": 1695,
      "ĠÐ¾Ð¿Ð¸ÑĪÐµÐ¼": 1696,
      "##ÑĢÐ°Ð²Ð¸ÑĤÑģÑı": 1697,
      "ĠÐ¿Ð¾Ð¼Ð°Ð´": 1698,
      "Ð¡Ð¿": 1699,
      "ĠÑĢÐ°ÑģÑģÐºÐ°Ð¶ÐµÑĤ": 1700,
      "ĠÐ¾Ð´Ð¸Ð½": 1701,
      "ĠÐ¿Ð¾ÐºÐ°Ð¶ÐµÐ¼": 1702,
      "ĠÐ¿Ð¾Ð´ÑģÐºÐ°Ð·": 1703,
      "ĠÐŁÑĢÐ¾Ð²ÐµÐ´Ð¸": 1704,
      "ĠÐºÐ¾Ð½ÑĨÐ°": 1705,
      "ĠÑĤÑĥÑĢÐµÑĨÐºÐ¸Ð¹": 1706,
      "ĠÐ°Ð¹Ð´Ð¾Ð»": 1707,
      "ĠÐ¿ÑģÐ¸ÑħÐ¾Ð»Ð¾Ð³Ð¸ÑĩÐµÑģÐºÐ°Ñı": 1708,
      "ĠÐ²ÐµÑģÐ½Ð¾Ð¹": 1709,
      "ĠÐ¿ÑĢÐµÐ´ÑģÐºÐ°Ð·Ð°Ð½Ð¸Ðµ": 1710,
      "ĠÑģÑĤÐ°Ð½ÐµÑĪÑĮ": 1711,
      "ĠÐ¿ÑĥÑĤÐµÑĪ": 1712,
      "ĠÐ²Ð½Ð¸Ð¼Ð°ÑĤÐµÐ»ÑĮ": 1713,
      "##ÐµÐ¹Ð»Ð¾ÑĢ": 1714,
      "ĠÐ¼ÐµÑĪÐ°ÐµÑĤ": 1715,
      "Ðĺ": 1716,
      "ĠA": 1717,
      "##he": 1718,
      "##vel": 1719,
      "##Ð¸ÑģÐº": 1720,
      "##ÑĭÑĩ": 1721,
      "##Ð½ÐµÑĢ": 1722,
      "##ÐºÐ°Ð¼": 1723,
      "##ÑıÐ·": 1724,
      "##Ð´ÐµÐ»": 1725,
      "##ÑģÑĤÑĮ": 1726,
      "##ÐµÑĢÐ¸Ð½": 1727,
      "ĠÐ¾Ñĩ": 1728,
      "ĠÐ·Ð°Ð½": 1729,
      "##ÑģÐºÐ¸Ðµ": 1730,
      "ĠÐ°ÑĢÐ¾Ð¼": 1731,
      "ĠÐ³Ð¾Ð²Ð¾ÑĢ": 1732,
      "ĠÐ¿ÑĢÐ°Ð·Ð´": 1733,
      "##ÑĢÑĥÐº": 1734,
      "##Ð¸ÐºÐµÑĢ": 1735,
      "##Ð¾ÑģÐ¾Ð±": 1736,
      "##Ð¾ÑģÑĤÐ¸": 1737,
      "##Ð¸ÑĢÐ¾Ð²": 1738,
      "ĠÐ½ÐµÐ¾Ð±": 1739,
      "ĠÑĪÐ¾ÐºÐ¾Ð»": 1740,
      "ĠÑģÐ´Ð°ÑĤÑĮ": 1741,
      "ĠÐ±ÑĥÐ´ÑĥÑīÐµÐµ": 1742,
      "ĠÐ¿ÑĢÐµÐ´Ð¼ÐµÑĤ": 1743,
      "ĠÐºÐ¾ÑĤÐ¸ÐºÐ°": 1744,
      "ĠMar": 1745,
      "ĠÐ½Ð°ÑģÑĤÑĢÐ¾ÐµÐ½Ð¸Ðµ": 1746,
      "ĠÑĢÐ¾Ð¼Ð°Ð½ÑĤÐ¸Ñĩ": 1747,
      "ĠÐ¸Ð½ÑĤÐµÑĢÐµÑģ": 1748,
      "ĠÐ¿ÑĥÑĤÐµÑĪÐµÑģÑĤÐ²": 1749,
      "ĠÐ°ÑĢÐ¾Ð¼Ð°ÑĤ": 1750,
      "ĠÑĪÐ¾ÐºÐ¾Ð»Ð°Ð´": 1751,
      "ĠMarvel": 1752,
      "Ð½": 1753,
      "ĠÐ®": 1754,
      "##Ð¸ÐºÐ°Ñħ": 1755,
      "ĠÐ¿Ð¸ÑĨ": 1756,
      "ĠÐºÐ»": 1757,
      "ĠÐ¼ÐµÑģÑĤ": 1758,
      "##Ð¼ÐµÐ½ÑĤ": 1759,
      "ĠÐºÐ°ÐºÐ¸Ñħ": 1760,
      "ĠÐ·Ð°Ð³": 1761,
      "##ÑģÐºÐ¾Ð¼": 1762,
      "##ÑģÐºÐ¾Ðµ": 1763,
      "ĠÑĥÑĩÐ°ÑģÑĤ": 1764,
      "##ÑĨÐµÐ½Ð¸": 1765,
      "ĠÐ£Ð¼ÐµÐµÑĪÑĮ": 1766,
      "ĠÑģÑĤÐ°Ð»": 1767,
      "ĠÐŀÑĨÐµÐ½Ð¸": 1768,
      "ĠÐŁÐ°ÑĢ": 1769,
      "##Ð°Ð»ÑĮÐ½ÑĭÐ¹": 1770,
      "##Ð´ÐµÑĤÑĮ": 1771,
      "ĠÑĦÐ¸Ð»ÑĮÐ¼Ð¾Ð²": 1772,
      "ĠÑģÐ»Ð°Ð´": 1773,
      "ĠÑģÐ¼Ð¾Ð³Ð»Ð°": 1774,
      "ĠÐ¿ÑĢÐµÐ´Ð»Ð¾Ð¶": 1775,
      "ĠÑģÐ¾Ð²ÑĢÐµÐ¼": 1776,
      "ĠÐ½Ð°Ð¹Ð´ÐµÑĪÑĮ": 1777,
      "ĠÐĺÐ½": 1778,
      "ĠÐ´ÐµÐ²ÑĥÑĪ": 1779,
      "ĠÐ²ÑģÐµÑħ": 1780,
      "ĠÑĥÑĩÐµÐ±": 1781,
      "ĠÐ³Ð¾ÑĢÐ¾Ð´Ðµ": 1782,
      "ĠÐ½Ð°ÑĩÐ¸Ð½": 1783,
      "##Ð¾Ð±ÑĭÑĩ": 1784,
      "ĠÐ¿Ð¾Ð´Ð°ÑĢÐ¸ÑĤ": 1785,
      "Ġ2018": 1786,
      "ĠÐºÐ¾ÑĦÐµ": 1787,
      "Ð¥": 1788,
      "ĠP": 1789,
      "##ÐµÑĦ": 1790,
      "##ÑĢÑĮ": 1791,
      "ĠÑĤÑĢÐµ": 1792,
      "ĠÐ²Ð¸Ð´": 1793,
      "ĠÐ¼Ð°Ð¼": 1794,
      "ĠÐ½Ð°Ð¼": 1795,
      "ĠÐ½Ð°Ð±": 1796,
      "##ÐµÑĤÑĮ": 1797,
      "##ÑİÑĤ": 1798,
      "ĠÐ±Ð°Ð±": 1799,
      "##Ð¾Ð¼Ð½": 1800,
      "ĠÐ·Ð°Ð¿": 1801,
      "ĠÐ¿ÑĢÐ¾Ð¹ÑĤÐ¸": 1802,
      "ĠÑģÑĤÐ¸ÐºÐµÑĢ": 1803,
      "ĠÑĦÑĢÑĥÐº": 1804,
      "##ÑĦÐ¾ÑĢ": 1805,
      "ĠÑģÐ²Ð¾Ðµ": 1806,
      "ĠÐľÐ¾ÑĢ": 1807,
      "##Ð´Ð°ÑĪÑĮ": 1808,
      "ĠÐ½ÐµÐ¾Ð±ÑĭÑĩ": 1809,
      "ĠÐĲÐ»": 1810,
      "##ÑįÐ¹": 1811,
      "ĠÐ¿Ð¾ÑħÐ¾Ð¶Ð¸": 1812,
      "ĠÐ¿Ð¾Ð¼Ð¾Ð¶ÐµÑĤ": 1813,
      "##ÑĥÐ¼ÐµÑĢ": 1814,
      "ĠÐŃÑĤÐ¾": 1815,
      "ĠTeam": 1816,
      "ĠÑĦÐ°ÐºÑĥÐ»ÑĮÑĤ": 1817,
      "ĠÐ³ÑĢÑĥÐ¿Ð¿Ñĥ": 1818,
      "ĠÑħÐ°ÑĢÐ°ÐºÑĤÐµÑĢÑĥ": 1819,
      "ĠÐºÐ½Ð¸Ð³Ñĥ": 1820,
      "ĠÑģÐ»Ð¾Ð²Ð¾": 1821,
      "##ÑĬÐµÑģÑĤ": 1822,
      "ĠÑģÑĥÐ¿ÐµÑĢÐ³": 1823,
      "ĠÐºÑĢÑĥÑĤ": 1824,
      "ĠÐ²ÑģÐµÐ»ÐµÐ½Ð½Ð¾Ð¹": 1825,
      "ĠÑĦÐ°ÐºÑĥÐ»ÑĮÑĤÐµÑĤ": 1826,
      "Ð±": 1827,
      "##ÐµÑı": 1828,
      "##ÑĤÐµÐ¹": 1829,
      "##Ð¸Ð»Ð¸": 1830,
      "##ÑĢÐ°ÑĤ": 1831,
      "##ÑĢÐ°Ð³": 1832,
      "ĠÐ¿ÐµÑĩ": 1833,
      "##ÐµÑĢÐµ": 1834,
      "##Ð´Ð¾": 1835,
      "ĠÐ¼Ð¾": 1836,
      "ĠÐ¼Ð°Ð»": 1837,
      "ĠÐ½ÐµÑĤ": 1838,
      "ĠÐ½ÐµÐ¹": 1839,
      "ĠÐļÐ¾Ð³Ð´Ð°": 1840,
      "ĠÐļÑĥÐ´Ð°": 1841,
      "##ÐµÐ½Ð¸Ð¹": 1842,
      "##Ð¸ÑĤÐ¾Ð¼": 1843,
      "##Ð°Ð¹Ð»Ð¸": 1844,
      "ĠÑģÐºÑĢÑĭ": 1845,
      "ĠÐ·Ð°ÑĢ": 1846,
      "ĠÑĥÐº": 1847,
      "ĠÐ³Ð¾ÑĤÐ¾Ð²Ð°": 1848,
      "##Ð¸Ð½ÐºÑĥ": 1849,
      "ĠÐ¿ÑĢÐ¾Ð¶": 1850,
      "ĠÑĩÐ°": 1851,
      "ĠÑĢÐ¾Ð·": 1852,
      "##Ð¾Ð½Ñĩ": 1853,
      "ĠÐĵÐ´Ðµ": 1854,
      "ĠÑģÑĤÐ¸Ð»": 1855,
      "ĠÑģÐ²Ð¾Ð¸Ñħ": 1856,
      "##Ð¸Ð²ÐµÑĪÑĮ": 1857,
      "ĠÐ»ÑİÐ±Ð¸Ð¼ÑĥÑİ": 1858,
      "ĠÐ»ÑİÐ±Ð¸Ð¼ÑĭÐµ": 1859,
      "ĠÐ¾Ð´Ð½Ð¾Ð¼Ñĥ": 1860,
      "ĠÐ½Ð°Ð¿Ð¸ÑĤ": 1861,
      "ĠÐ¼ÑĥÐ»ÑĮÑĤÐ¸Ðº": 1862,
      "##ÑĤÑĢÐ°Ðº": 1863,
      "ĠÐ³Ð»Ð°Ð·Ð°": 1864,
      "ĠÐ¾ÑģÐµÐ½ÑĮÑİ": 1865,
      "ĠÑģÑĭÐ³ÑĢÐ°ÑĤÑĮ": 1866,
      "ĠÑįÐ¼Ð¾ÑĨÐ¸Ð¾Ð½Ð°Ð»ÑĮÐ½Ð¾Ðµ": 1867,
      "ĠÑģÐµÐ»ÐµÐ±Ð¾Ð²": 1868,
      "ĠÐ¥ÑįÐ»Ð»Ð¾ÑĥÐ¸Ð½": 1869,
      "ĠÐºÐ¾ÑĤÐ¾ÑĢÑĭÐµ": 1870,
      "ĠÐ¿Ð¾Ð´ÑģÐºÐ°Ð·ÐºÑĥ": 1871,
      "ĠÑģÐ¾Ð²ÑĢÐµÐ¼ÐµÐ½": 1872,
      "ĠÑĦÑĢÑĥÐºÑĤ": 1873,
      "##ÑģÐ¸Ð¹": 1874,
      "ĠÑĤÐµÐ»": 1875,
      "##ÐºÐ¸Ð¹": 1876,
      "ĠÑģÐ¾Ð±": 1877,
      "ĠÑģÐµÐ½ÑĤ": 1878,
      "##Ð²Ð°ÑĢ": 1879,
      "ĠÐºÑĢ": 1880,
      "ĠÐºÐ°Ñĩ": 1881,
      "##ÐµÑĢÐ¾Ð²": 1882,
      "##ÐµÐ¼Ð¾Ð½": 1883,
      "##Ð¼ÐµÑģÑĤ": 1884,
      "ĠÐ½Ð¾Ñĩ": 1885,
      "ĠÐ±Ð¾Ð³": 1886,
      "ĠÐĴÐ¸Ð½": 1887,
      "ĠÐ»Ð¾Ð¶": 1888,
      "ĠÑĥÑģÑĤ": 1889,
      "##Ð°Ð»ÐµÐ½ÑĤ": 1890,
      "##Ð¸Ð½Ñĥ": 1891,
      "##ÐµÐ»Ð¸": 1892,
      "ĠÑĢÐ¾Ð´Ð¸": 1893,
      "##Ð¾Ð¶Ð½Ð¾": 1894,
      "ĠÐ¿Ð¾Ð´Ð±ÐµÑĢ": 1895,
      "##ÑīÐµ": 1896,
      "ĠÐ¾ÑĤÐº": 1897,
      "ĠÐ±ÑĥÐ´ÑĥÑĤ": 1898,
      "ĠÐ¢ÐµÐ¹Ð»Ð¾ÑĢ": 1899,
      "ĠÐ¼ÑĥÐ·ÑĭÐº": 1900,
      "ĠÐ²ÑĭÐ³Ð»Ñı": 1901,
      "ĠÐĲÑĢ": 1902,
      "ĠÐĲÐ¹": 1903,
      "##Ð¸ÑĦÑĤ": 1904,
      "##ÑıÐ¼Ð¸": 1905,
      "ĠÐ½Ð°Ð·Ð²Ð°ÑĤÑĮ": 1906,
      "ĠÐ³ÑĢÑĥÐ¿Ð¿Ñĭ": 1907,
      "ĠÐ°Ð¹Ð´Ð¾Ð»Ð¾Ð²": 1908,
      "ĠÑĢÐ°Ð±Ð¾ÑĤÐ°ÑĤÑĮ": 1909,
      "ĠÑĪÐºÐ¾Ð»Ðµ": 1910,
      "ĠÐ¡Ð²Ð¸ÑĦÑĤ": 1911,
      "ĠÐ±Ð»Ð¸Ð¶Ð°Ð¹ÑĪ": 1912,
      "ĠÑĦÐ¾ÑĤÐ¾Ð³ÑĢÐ°ÑĦÐ¸Ð¸": 1913,
      "Ð¡Ð¿Ð»ÐµÑĤ": 1914,
      "ĠÐ¿ÐµÑĩÐµÐ½ÑĮ": 1915,
      "ĠÑģÐµÐ½ÑĤÑıÐ±": 1916,
      "ĠÐ¿Ð¾Ð´Ð±ÐµÑĢÐµÐ¼": 1917,
      "Ðº": 1918,
      "ĠO": 1919,
      "ĠE": 1920,
      "ĠÑĢÐ¾Ñģ": 1921,
      "##lix": 1922,
      "##ou": 1923,
      "##flix": 1924,
      "##ÐµÑī": 1925,
      "##Ð¸Ð¶": 1926,
      "##Ð¸ÑĢÐ°": 1927,
      "##ÑĥÑģÑĤ": 1928,
      "ĠÑĤÐ¾": 1929,
      "##ÑĮÐ¸": 1930,
      "ĠÑģÐµÐºÑģ": 1931,
      "ĠÐ¿Ð¸ÑĤÐ¾Ð¼": 1932,
      "##Ð²ÑĪ": 1933,
      "##Ð´ÑĥÑĤ": 1934,
      "ĠÐ²ÐµÑĢ": 1935,
      "ĠÐ²ÑĤÐ¾ÑĢ": 1936,
      "ĠÐ²ÐµÐ´ÑĮ": 1937,
      "ĠÐ±Ð»": 1938,
      "##Ð¾Ð´Ñĭ": 1939,
      "##Ð°Ð¶ÑĥÑĤ": 1940,
      "##Ð°Ð¹Ð»": 1941,
      "ĠÑģÐºÑĢÐ¸Ð½": 1942,
      "ĠÐ´Ð¾Ð±": 1943,
      "ĠÑĥÐ¿ÑĢÐ°Ð²Ð»Ñı": 1944,
      "##Ð»Ð¸ÑĪ": 1945,
      "##ÐµÐ»Ñı": 1946,
      "##ÐµÐ»Ð¸Ðº": 1947,
      "##Ð½Ð¸ÐºÐ¸": 1948,
      "ĠÑĤÐ²Ð¾Ð¸Ñħ": 1949,
      "##Ð¾ÑĢÑĥ": 1950,
      "ĠÑĢÐ°Ð´": 1951,
      "##Ð¾ÑĤÑĥ": 1952,
      "ĠÑĦÑĢÐ°Ð·": 1953,
      "##ÐµÑģÑģÐ°": 1954,
      "ĠÑħÐ¾Ñĩ": 1955,
      "ĠÐŁÐ¾Ð´": 1956,
      "ĠÑģÐµÑĢÐ¸Ð°Ð»Ðµ": 1957,
      "ĠÐ»ÑİÐ±Ð¸ÑĪÑĮ": 1958,
      "ĠÐ±Ð¾Ð»ÑĮÑĪ": 1959,
      "ĠÐ¿ÐµÑģÐµÐ½": 1960,
      "ĠÑģÐ¼Ð¾Ð¶ÐµÑĤ": 1961,
      "ĠÐĲÑĢÐ¸": 1962,
      "ĠÐºÐ°ÑĢÑĤÐ¸Ð½ÐºÑĥ": 1963,
      "ĠÑģÐ°Ð¼ÑĭÐ¹": 1964,
      "##ÑģÑĤÐ²Ð°": 1965,
      "##ÑģÑĤÐ²ÐµÐ½": 1966,
      "ĠÑģÐ´ÐµÐ»Ð°ÐµÑĤ": 1967,
      "ÐĶÐ½ÐµÐ²": 1968,
      "ÐĶÑĢÑĥÐ·ÐµÐ¹": 1969,
      "ĠThe": 1970,
      "ĠÐ¿Ð¾Ð»ÑĥÑĩÐ¸ÑĪÑĮ": 1971,
      "ĠÐ»ÑĥÑĩÑĪÐµÐ¹": 1972,
      "ĠÐ¿Ð¾Ð·Ð¾Ð²": 1973,
      "ĠÐ²ÐµÑĩÐµÑĢÐ¸Ð½": 1974,
      "ĠÐ»ÑİÐ´ÐµÐ¹": 1975,
      "ĠÐ¿Ð¾Ð´ÑĢÑĥÐ³Ð¾Ð¹": 1976,
      "ĠÑĢÐ¾Ð¶Ð´ÐµÑģÑĤÐ²ÐµÐ½": 1977,
      "##etflix": 1978,
      "ĠÐºÐ¾ÑĤÐ¾ÑĢÑĭÐ¹": 1979,
      "ĠNetflix": 1980,
      "ĠÐ·Ð»Ð¾Ð´ÐµÐ¹": 1981,
      "ĠÐ±Ð»ÑİÐ´Ð¾": 1982,
      "ĠÑģÐµÐ·Ð¾Ð½": 1983,
      "##Ð»Ð¾Ð½Ð½Ð°": 1984,
      "ĠÐ½Ð°Ð´Ð¾": 1985,
      "ĠÐ´Ð²ÐµÑĢÑĮ": 1986,
      "ĠÐ¶ÐµÐ»Ð°Ð½Ð¸Ðµ": 1987,
      "ĠÑĢÐ¾ÑģÑģÐ¸Ð¹": 1988,
      "Ð¼": 1989,
      "##ir": 1990,
      "##ÑĢÐ¾Ð´": 1991,
      "##ÑĢÐµÐ²": 1992,
      "##ÑĥÐ·": 1993,
      "##Ð½Ð¾Ð²": 1994,
      "##ÐºÑģ": 1995,
      "ĠÑģÐµÑģÑĤ": 1996,
      "##ÐµÑĢÐ»Ð¾Ðº": 1997,
      "##Ð´Ð¸Ð½": 1998,
      "##Ð±ÑĥÐ´": 1999,
      "##ÑİÐ¼": 2000,
      "ĠÐ¾ÑģÑĤ": 2001,
      "ĠÐ³ÐµÑĢÐ¾Ð¹": 2002,
      "##ÐµÐ¹Ð½": 2003,
      "ĠÐ¡ÐµÑĢ": 2004,
      "ĠÐ¿ÑĢÐ¸Ðº": 2005,
      "ĠÐĵÑĢÐ°Ð½": 2006,
      "ĠÐĵÐ¾ÑĤÐ¾Ð²Ð°": 2007,
      "ĠÐ¾ÑĤÐ¿ÑĢÐ°Ð²": 2008,
      "ĠÑĦÐ¸Ð»ÑĮÐ¼Ñĭ": 2009,
      "ĠÐĳÐ¸Ð»": 2010,
      "ĠÐ¾Ð±ÑıÐ·": 2011,
      "ĠÑĪÐ°ÑĢ": 2012,
      "ĠÐ²ÑĭÐ¶": 2013,
      "Ġ14": 2014,
      "ĠÐ½Ð¾Ð²Ð¾Ð³Ð¾": 2015,
      "ĠÐ·Ð²ÐµÐ·Ð´Ñĭ": 2016,
      "ĠÐ¿ÐµÑģÐ½ÑıÑħ": 2017,
      "ĠÐ¸Ð´ÐµÐ°Ð»ÑĮÐ½Ð¾Ðµ": 2018,
      "Ð¡ÑĥÐ¼ÐµÑĢ": 2019,
      "##Ð°Ð½ÐµÑĤÑģÑı": 2020,
      "ĠÐ´Ð¾ÑĢÐ°Ð¼Ñĭ": 2021,
      "##Ð°ÑĨÐ¸Ð¸": 2022,
      "ĠÐ¼ÑĥÐ»ÑĮÑĤÑĦÐ¸Ð»ÑĮÐ¼Ð¾Ð²": 2023,
      "ĠÐ¼ÑĥÐ»ÑĮÑĤÐ¸ÐºÐ¾Ð²": 2024,
      "ĠÐ¿Ð¾ÑģÐ»ÐµÐ´": 2025,
      "ĠÑħÐ°ÑĢÐ°ÐºÑĤÐµÑĢÐµ": 2026,
      "ĠÐ·Ð°ÐºÐ¾Ð½Ñĩ": 2027,
      "ĠÐºÐ¾ÑĢÐµÐ¹ÑģÐºÑĥÑİ": 2028,
      "ĠÐ¼ÐµÑģÑıÑĨÐµ": 2029,
      "ĠÐ½Ð°ÑģÑĤÑĢÐ¾ÐµÐ½Ð¸Ð¸": 2030,
      "ĠÑģÐ²Ð°Ð´ÐµÐ±": 2031,
      "ĠÐ²Ð°Ð¼Ð¿Ð¸ÑĢÐ°": 2032,
      "ĠÐ´Ð¾ÑģÑĤÐ°Ð½ÐµÑĤÑģÑı": 2033,
      "ĠÑĢÐµÐ±ÐµÐ½Ð¾Ðº": 2034,
      "ĠÐ¿ÑĢÐ¸Ð½ÑĨÐµÑģÑģÑĥ": 2035,
      "ĠÐŁÑĢÐ¾Ð¹": 2036,
      "ĠÐ°Ð»ÑĮÐ±Ð¾Ð¼Ð°": 2037,
      "ĠÑĦÐµÐ²ÑĢÐ°Ð»Ñı": 2038,
      "ĠÐ³Ð¾Ð²Ð¾ÑĢÐ¸ÑĤ": 2039,
      "ĠÐ¿ÑĥÑĤÐµÑĪÐµÑģÑĤÐ²Ð¸Ðµ": 2040,
      "ĠÑģÑĤÐ¸Ð»Ðµ": 2041,
      "ĠÐ»Ð¾Ð¶ÑĮ": 2042,
      "Ð³": 2043,
      "Ñģ": 2044,
      "Ġ3": 2045,
      "##er": 2046,
      "##or": 2047,
      "##ds": 2048,
      "##ream": 2049,
      "##Ð°ÑĦ": 2050,
      "##Ð¾Ð¸ÑĪÑĮÑģÑı": 2051,
      "##ÑĥÑĢÐ°": 2052,
      "##ÑĥÑĢÐ³": 2053,
      "ĠÑģÑĥÑī": 2054,
      "ĠÐ¿ÐµÐ¹": 2055,
      "ĠÐ¿Ð¸Ñģ": 2056,
      "ĠÐ¿Ð¸ÑĢ": 2057,
      "ĠÐ¿ÑıÑĤ": 2058,
      "##Ð»Ð¾": 2059,
      "##Ð²Ð¾ÑĢ": 2060,
      "##Ð°ÐºÐ¸": 2061,
      "ĠÐºÐ¾Ð»ÑĮ": 2062,
      "##Ð¼ÐµÑĢÐ¸": 2063,
      "##Ð¼Ð¾Ð½": 2064,
      "ĠÐ½ÑĢÐ°Ð²Ð¸ÑĤÑģÑı": 2065,
      "##ÐµÑĤÐ¸": 2066,
      "ĠÑģÐºÐ¾ÑĢÐ¾": 2067,
      "##Ð¸Ð½Ðµ": 2068,
      "##Ð¸Ð½ÐµÐ¹": 2069,
      "ĠÐ±ÑĭÐ²ÑĪ": 2070,
      "ĠÐ¿ÑĢÐµÐ¼": 2071,
      "##Ð³Ð°Ð´Ð°ÑĤÑĮ": 2072,
      "ĠÑģÑĤÐ°Ð»Ð°": 2073,
      "ĠÑħÑĥÐ´": 2074,
      "ĠÐµÑģÑĤÑĮ": 2075,
      "##ÑĥÑĩÐ¸ÑģÑĮ": 2076,
      "ĠÐ§ÐµÐ¼": 2077,
      "Ġ2020": 2078,
      "##Ð¾ÑģÑĤÑĥÑĩÐ¸ÑģÑĮ": 2079,
      "ĠÑģÐ»Ð¾Ð¶": 2080,
      "ĠÐ¾Ð±Ñī": 2081,
      "ĠÐ¾Ð±Ð¼Ð°Ð½": 2082,
      "ĠÐ¥Ð¾Ð»": 2083,
      "##Ð¸ÑĩÐµÑģÐºÐ¸Ð¹": 2084,
      "ĠÑģÑĤÑĢÐ°Ð½Ðµ": 2085,
      "ĠÑģÐ¿Ð¾ÑģÐ¾Ð±": 2086,
      "ĠÐºÐ¾Ð¼Ð½": 2087,
      "ĠÐĹÐ°": 2088,
      "ĠÐ´Ð¸ÑģÐ½ÐµÐµÐ²ÑģÐºÑĥÑİ": 2089,
      "ĠÐķÑģÐ»Ð¸": 2090,
      "ĠDream": 2091,
      "##ÑĤÑĮÑģÑı": 2092,
      "ĠÐ³Ð¾ÑĢÑıÑĩ": 2093,
      "ĠÐºÐ¾Ð½ÑĦ": 2094,
      "ĠÐ½Ð¾Ð²Ð¾Ð³Ð¾Ð´Ð½Ð¸Ð¹": 2095,
      "ĠÐ¿ÐµÑĢÐ²ÑĥÑİ": 2096,
      "ÐŁÐ¾ÑģÑĤÑĥÑĩÐ¸ÑģÑĮ": 2097,
      "ĠÐ½ÐµÐ´ÐµÐ»Ð¸": 2098,
      "ĠÑĤÑĢÐµÐº": 2099,
      "ĠÐ¿ÑĢÐ¸Ð·Ð½": 2100,
      "ĠÑĥÑģÐ¿ÐµÑĪ": 2101,
      "ĠÐ¼Ð¸ÑĢÐµ": 2102,
      "ĠÑģÐµÐ¼ÑĮÐ¸": 2103,
      "ĠÐºÐ°ÑĢÐ°Ð½ÑĤ": 2104,
      "ĠÐ¿ÑĢÐ¾ÑĦÐµÑģÑģÐ¸Ñı": 2105,
      "ĠÐ¾ÑģÐµÐ½Ð½Ð¸Ð¹": 2106,
      "##ÑĩÐ¾Ð½ÐºÐ°": 2107,
      "ĠÐ¿ÑĢÐ¸ÑĩÐµÑģÐºÑĥ": 2108,
      "ĠÐ²Ð½Ð¸Ð¼Ð°ÑĤÐµÐ»ÑĮÐ½Ð¾ÑģÑĤÑĮ": 2109,
      "ĠÐ½ÐµÐ¾Ð±ÑħÐ¾Ð´": 2110,
      "##Ð¾Ð¼Ð½Ð¸ÑĤÑĮ": 2111,
      "ĠÑģÑĥÐ¿ÐµÑĢÐ³ÐµÑĢÐ¾": 2112,
      "ĠÐ¼Ð¾Ñİ": 2113,
      "ĠÐ¿ÑĢÐ¾Ð¶Ð¸Ð²ÐµÑĪÑĮ": 2114,
      "ĠÐ½Ð°Ð¿Ð¸ÑĤÐ¾Ðº": 2115,
      "ĠÐºÐ°ÑĩÐµÑģÑĤÐ²Ð¾": 2116,
      "ĠÐ¿Ð¾Ð·Ð¾Ð²ÐµÑĤ": 2117,
      "ĠÐĵÑĢÐ°Ð½Ð´Ðµ": 2118,
      "ĠÐ²ÑĭÐ¶Ð¸ÑĤÑĮ": 2119,
      "ĠÐŁÑĢÐ¾Ð¹Ð´Ð¸": 2120,
      "Ð´": 2121,
      "##00": 2122,
      "##ra": 2123,
      "##ÑĤÐ¾Ð±Ñĭ": 2124,
      "##Ð¸Ð»Ð°ÑģÑĮ": 2125,
      "##ÑĢÐ°Ð¹": 2126,
      "##ÑĭÑĪ": 2127,
      "##ÑĥÐµÑĪÑĮ": 2128,
      "##ÐºÐ°Ð½": 2129,
      "ĠÑģÐµÐº": 2130,
      "##ÑıÑĤÐ¸": 2131,
      "##Ð»Ð´": 2132,
      "##Ð²ÐµÐ´": 2133,
      "ĠÐ²Ð½ÑĥÑĤ": 2134,
      "ĠÐ¼Ð°Ð¹": 2135,
      "ĠÐ¼Ð¸ÑĦ": 2136,
      "##ÑħÑĬÐµÑģÑĤ": 2137,
      "##ÐµÐ½Ð¸Ñİ": 2138,
      "##ÐµÐ½Ð½ÐµÑĢ": 2139,
      "ĠÐ±ÑĢÐ°ÑĤÑĮ": 2140,
      "##Ð°Ð´Ð°ÐµÑĪÑĮ": 2141,
      "ĠÐ·Ð°Ð¹": 2142,
      "ĠÐ»Ð¸ÑĤÐµÑĢ": 2143,
      "ĠÑĥÐ·Ð½": 2144,
      "##Ð¿ÐµÑĢ": 2145,
      "##Ð¿Ð¾Ñĩ": 2146,
      "##Ð°ÑĢÑĥ": 2147,
      "##Ð°ÑĢÐ¾Ð²": 2148,
      "ĠÐ°Ð²": 2149,
      "##ÐµÐ¹Ð»Ð¸": 2150,
      "ĠÐ¡Ð´ÐµÐ»": 2151,
      "##Ð¾ÑĢÐ¾Ð´": 2152,
      "ĠÑĩÐ°ÑģÑĤÑĮ": 2153,
      "ĠÑĩÑĤÐ¾Ð±Ñĭ": 2154,
      "##ÐµÐ²Ð°": 2155,
      "ĠÐŁÐ¾": 2156,
      "##Ð°ÑģÑģ": 2157,
      "##Ð¸ÐºÐ¾Ð²": 2158,
      "##Ð°Ð»ÑĮÐ½Ð¾Ðµ": 2159,
      "ĠÐľÐ°Ðº": 2160,
      "ĠÑģÐ²Ð¾Ð¸Ð¼": 2161,
      "ĠÐ²ÑģÐ¿": 2162,
      "ĠÐ»ÐµÑĤÐ°": 2163,
      "ĠÐĳÐ°ÑĢ": 2164,
      "ĠÐ¾Ð±Ð»Ð¾Ð¶": 2165,
      "ĠÑĪÐ»ÐµÑĤ": 2166,
      "ĠÐ·Ð²ÐµÐ·": 2167,
      "ĠÐ·Ð²ÐµÐ·Ð´Ð½ÑĭÐ¹": 2168,
      "##ÑĥÑĪÐ°ÑĤÑĮ": 2169,
      "ĠÑģÑĤÐ¾ÑĢ": 2170,
      "ĠÐ¡Ð¿ÑĢÐ¾": 2171,
      "ĠÐºÐ¾Ð¼ÐµÐ´": 2172,
      "##ÑĭÐ²Ð°ÑĤÑĮ": 2173,
      "##ÑĥÐ±Ð°": 2174,
      "ĠÑįÐºÐ·": 2175,
      "ĠÐ¿ÐµÑĢÐ²ÑĭÐ¹": 2176,
      "##Ð°ÑĤÐµÐ»ÑĮÐ½Ð¾": 2177,
      "ĠÐ³Ð»Ð°Ð²Ð½ÑĥÑİ": 2178,
      "ĠÐ½Ð°Ð·Ð²Ð°Ð½Ð¸Ñı": 2179,
      "ĠÐ½Ð°Ð·Ð²Ð°Ð½Ð¸Ñİ": 2180,
      "ĠÐ·Ð°Ð²ÑĤÑĢÐ°Ðº": 2181,
      "ĠÐ¿Ð¾ÑģÐ»ÑĥÑĪÐ°ÑĤÑĮ": 2182,
      "ĠÐ¾ÐºÐ°Ð·": 2183,
      "ĠÐ¿ÑĢÐ¸Ð²ÑĭÑĩ": 2184,
      "ĠÐ¸Ð·Ð²ÐµÑģÑĤÐ½ÑĭÑħ": 2185,
      "ĠÐ½ÐµÐ´ÐµÐ»Ñİ": 2186,
      "ĠÐ¿ÑĢÐ¸Ð´ÐµÑĤ": 2187,
      "ĠÐ»ÑİÐ´Ð¸": 2188,
      "##Ð½Ð¸ÑĨÑĭ": 2189,
      "ĠÑĦÐ°ÐºÑĤÑĭ": 2190,
      "ĠÐļÐ°ÑĢÐ´Ð°ÑĪÑĮ": 2191,
      "ĠÐ±ÑĥÐºÐ²": 2192,
      "ĠÐ±ÑĥÐºÐµÑĤ": 2193,
      "ĠÐ°ÐºÑĤÐµÑĢÐ¾Ð²": 2194,
      "ĠÑģÐ½ÐµÐ¶": 2195,
      "ĠÐºÐ¾ÑģÐ¼": 2196,
      "ĠÐ½Ð°ÑĢÑıÐ´Ñĭ": 2197,
      "ĠÐ¿ÑĢÐ¸Ð³Ð»Ð°ÑģÐ¸Ð»": 2198,
      "ĠÑģÐ²Ð°Ð´ÑĮÐ±Ñĥ": 2199,
      "ĠÐ¼Ð¾ÑĢÐ¾Ð¶ÐµÐ½Ð¾Ðµ": 2200,
      "ĠÐ·Ð°Ð³Ð°Ð´": 2201,
      "ĠÐĺÐ½ÑģÑĤÐ°Ð³ÑĢÐ°Ð¼": 2202,
      "ĠÐ½Ð°Ð±Ð¾ÑĢÑĥ": 2203,
      "ĠÐĲÐ»ÐµÐºÑģ": 2204,
      "ĠÑĢÐ¾Ð´Ð¸Ð»Ð°ÑģÑĮ": 2205,
      "ĠÐĲÐ¹Ð»Ð¸ÑĪ": 2206,
      "ĠÐ²ÐµÑĩÐµÑĢÐ¸Ð½ÐºÑĥ": 2207,
      "##irl": 2208,
      "ĠÐ¿ÑĢÐ¸ÐºÐ»ÑİÑĩ": 2209,
      "ĠÐĳÐ¸Ð»Ð»Ð¸": 2210,
      "ĠÐ½ÐµÐ¾Ð±ÑħÐ¾Ð´Ð¸Ð¼": 2211,
      "##ÑħÑĬÐµÑģÑĤÐµÑģÑĤÐ²ÐµÐ½": 2212,
      "ĠÐ¡Ð´ÐµÐ»Ð°Ð¹": 2213,
      "ĠÐļÐ°ÑĢÐ´Ð°ÑĪÑĮÑıÐ½": 2214,
      "ÐĽ": 2215,
      "Ġ4": 2216,
      "##Ð¡": 2217,
      "##Ñĳ": 2218,
      "##im": 2219,
      "##Ð°ÑĢÐ¾": 2220,
      "##ÑģÑģ": 2221,
      "ĠÑĤÐ°Ð»": 2222,
      "##ÑĮÐµÑĢ": 2223,
      "##ÐºÐ¸Ð½Ð°": 2224,
      "ĠÑģÑĦ": 2225,
      "ĠÑģÐ¸Ð»ÑĮÐ½Ð¾": 2226,
      "##ÑıÑħ": 2227,
      "##Ð»Ñĭ": 2228,
      "##Ð²ÐµÐ·Ð´": 2229,
      "##ÐµÑĢÐ¶": 2230,
      "##ÑĪÐ¾ÑĤÑĥ": 2231,
      "ĠÐ²ÐµÑī": 2232,
      "ĠÐ¼Ð¾Ð½": 2233,
      "ĠÐ¼Ð°Ð³": 2234,
      "##ÐµÐ½ÐºÐ°": 2235,
      "ĠÐ·Ð°Ð±": 2236,
      "ĠÐ´ÐµÐº": 2237,
      "ĠÑĥÐ¼ÐµÐµÑĪÑĮ": 2238,
      "##Ð¿ÑĢ": 2239,
      "##Ð°ÑĢÐ°": 2240,
      "ĠÐ³ÑĥÐ±": 2241,
      "##Ð¸Ð½Ñĭ": 2242,
      "ĠÐ¡Ð°Ð±": 2243,
      "ĠÑĩÑĥÐ´": 2244,
      "##Ð¶ÐµÑĤ": 2245,
      "##Ð¾ÑĤÐ¾Ð²": 2246,
      "ĠÐ»Ð¸ÑĨÐ°": 2247,
      "ĠÑĦÐ¸Ð³": 2248,
      "ĠÐŁÑĢÐ°Ð²": 2249,
      "##ÐµÐ½ÑĮÐº": 2250,
      "ĠÑĨÐ²ÐµÑĤÐ¾Ð²Ð¾Ð¹": 2251,
      "ĠÐĳÐµÐ»": 2252,
      "##ÐµÐ½Ð¸ÑıÑħ": 2253,
      "##ÑįÐ½": 2254,
      "##Ð¸ÑĩÐµÑģÐºÐ¸Ñħ": 2255,
      "ĠÐ·Ð²ÐµÐ·Ð´Ð¾Ð¹": 2256,
      "##ÑĥÐ¼Ð°Ð¶": 2257,
      "ĠÐºÐ¾ÑĪ": 2258,
      "ĠÐ¿ÑĢÐµÐ´Ð¿Ð¾Ñĩ": 2259,
      "ĠÐ¸Ð½ÑĤ": 2260,
      "ĠÑıÐ·ÑĭÐº": 2261,
      "ĠÐ²Ð»ÑİÐ±Ð¸ÑĤÑģÑı": 2262,
      "ĠÐ¿Ð¾ÐºÐ¾Ð»": 2263,
      "ĠÐ½Ð¾Ð²Ð¾Ð³Ð¾Ð´Ð½ÐµÐµ": 2264,
      "ĠÐ½Ð¾Ð²Ð¾Ð³Ð¾Ð´Ð½ÑİÑİ": 2265,
      "ĠSim": 2266,
      "ĠÐ¿Ð¾Ð¿ÑĥÐ»ÑıÑĢÐ½ÑĭÑħ": 2267,
      "ĠÐ²ÐµÑĩÐµÑĢ": 2268,
      "ĠÑĩÐµÑĢÑĤÐ°": 2269,
      "ĠÐ²ÐºÑĥÑģÐ½Ñı": 2270,
      "ĠÐ¡ÑĤÐ°Ð¹Ð»": 2271,
      "ĠÑĢÐ¾Ð´Ð¸ÑĤÐµÐ»": 2272,
      "ĠÑĢÐ¾Ð¶Ð´ÐµÐ½Ð¸Ñı": 2273,
      "ĠÐµÐ»Ð¾Ñĩ": 2274,
      "ĠÑģÐ½ÑıÑĤÑĮÑģÑı": 2275,
      "ĠÐ²ÑĭÐ¿ÑĥÑģÐºÐ½Ð¾Ð¹": 2276,
      "ÐĺÐ³": 2277,
      "ĠÐ¿ÑĢÐµÐ´Ð»Ð¾Ð¶ÐµÐ½Ð¸Ðµ": 2278,
      "ĠÐ±Ð»Ð¸Ð¶Ð°Ð¹ÑĪÐµÐ¼": 2279,
      "ĠÑģÐºÑĢÐ¸Ð½ÑĪÐ¾ÑĤÑĥ": 2280,
      "ĠÐ¾Ð±ÑıÐ·Ð°ÑĤÐµÐ»ÑĮÐ½Ð¾": 2281,
      "ĠÐ±ÑĢÐ°ÑĤÑĮÐµÐ²": 2282,
      "##Ð°ÑĢÑĥÑĤÐ¾": 2283,
      "ĠÐ·Ð²ÐµÐ·Ð´Ð°": 2284,
      "ĠSims": 2285,
      "Ð²": 2286,
      "ĠH": 2287,
      "##ion": 2288,
      "##ot": 2289,
      "##re": 2290,
      "ĠÐ¦": 2291,
      "##Ð¾Ñī": 2292,
      "##ÑĤÑĢÐ¸": 2293,
      "##ÑģÐ¾Ð¼": 2294,
      "##Ð½ÐµÐ³Ð¾": 2295,
      "##Ð½Ð°ÐµÑĪÑĮ": 2296,
      "ĠÑĤÑĢÐµÐ½Ð´": 2297,
      "ĠÑģÑĥÐ¼": 2298,
      "ĠÑģÐ¾Ð»Ð½": 2299,
      "ĠÐºÐ°ÑģÑĤ": 2300,
      "ĠÐºÑĥÐ»ÑĮÑĤ": 2301,
      "##ÑĪÐ°": 2302,
      "##Ð´Ð¾Ñħ": 2303,
      "##ÐµÐ¼Ð°": 2304,
      "ĠÐ¼Ð°ÑĢÑĤ": 2305,
      "ĠÐ¼Ð¾Ð¶ÐµÑĤ": 2306,
      "ĠÐ¼Ð°ÑģÐº": 2307,
      "ĠÐ¼Ð¸ÑĢÐ°": 2308,
      "##ÑģÑĤÐ¸ÑĤÐµÐ»ÐµÐ¹": 2309,
      "ĠÐ±Ð¾Ð¸ÑĪÑĮÑģÑı": 2310,
      "##Ð¾Ð»ÐµÑĤ": 2311,
      "##Ð¾Ð´Ð°": 2312,
      "ĠÐ·Ð°Ð´": 2313,
      "ĠÑĥÐ¼": 2314,
      "##Ð¹ÑĦÐ¾ÑĢ": 2315,
      "##ÑĨÐµÐ½": 2316,
      "##Ð½Ð¸Ð¸": 2317,
      "##Ð½Ð¸Ñħ": 2318,
      "ĠÐ¿ÑĢÐ¾Ð´": 2319,
      "ĠÑĤÐ²Ð¾ÐµÐ¼Ñĥ": 2320,
      "ĠÑĢÐµÑĪ": 2321,
      "ĠÐĵÐµÑĢÐ¾": 2322,
      "##ÐµÐ´Ð°": 2323,
      "ĠÑĦÐµ": 2324,
      "ĠÐŀÑĢÐ³Ð°Ð½Ð¸Ð·": 2325,
      "##Ð¾Ð±Ð±Ð¸": 2326,
      "##ÑĤÐ¸Ðº": 2327,
      "ĠÑģÐµÑĢÐ¸Ð°Ð»Ñĭ": 2328,
      "##Ð¸ÐºÑĤ": 2329,
      "ĠÐľÐ°Ð»": 2330,
      "ĠÐĳÐ»": 2331,
      "ĠÐºÐ°ÐºÐ¾Ð¼Ñĥ": 2332,
      "##Ð½ÐµÑĪ": 2333,
      "ĠÐ¿Ð¾ÑģÐ²": 2334,
      "ĠÑģÐ°Ð¼ÑĥÑİ": 2335,
      "ĠÐ³ÐµÑĢÐ¾Ð¸Ð½Ð¸": 2336,
      "ĠÐ¿Ð¾Ð»Ð¾Ð²": 2337,
      "ĠÐĶÐ¶ÐµÐ¹": 2338,
      "ĠÐ¿Ð»ÐµÐ¹Ð»Ð¸": 2339,
      "ĠÑıÐ·Ñĭ": 2340,
      "ĠÐ´Ð¸ÑģÐ½ÐµÐµÐ²ÑģÐºÐ°Ñı": 2341,
      "ĠÐķÐ³": 2342,
      "ĠÐ´ÐµÑĤÑģÐºÐ°Ñı": 2343,
      "ĠÐŁÐ¾ÑĤÑĤÐµÑĢ": 2344,
      "ĠÐ¨ÐµÑĢÐ»Ð¾Ðº": 2345,
      "ĠÐ¸ÑģÑĤÐ¸Ð½": 2346,
      "ĠÑģÐµÑĢÐ¸Ð°Ð»ÑĮÐ½ÑĭÐ¹": 2347,
      "ĠÐ¿Ð¾ÑģÐ»Ðµ": 2348,
      "ĠÐ·Ð¸Ð¼Ð¾Ð¹": 2349,
      "ÐĴÐ¾Ð»": 2350,
      "ĠÐ¿ÑĢÐ¸Ð²Ð»ÐµÐº": 2351,
      "ĠÐ¿Ð¾Ð´Ð°ÑĢÐ¾Ðº": 2352,
      "ĠÑĦÐ°ÐºÑĤÐ¾Ð²": 2353,
      "ĠÐ¸Ð¼ÐµÐ½Ð°": 2354,
      "##ÑģÐ»Ð°Ð²": 2355,
      "Ġ90": 2356,
      "ĠÐ¿ÑĢÐ¾ÑģÑĤÐ¾": 2357,
      "ĠÐ´ÑĥÐ¼Ð°ÐµÑĤ": 2358,
      "ÐĿÐ°ÑĢÑĥÑĤÐ¾": 2359,
      "ĠÐ±Ð¾Ð¹ÑĦÑĢÐµÐ½Ð´Ð¾Ð¼": 2360,
      "ĠÐ°Ð¹Ð´Ð¾Ð»Ð°": 2361,
      "ĠÑĢÐ¾Ð¼Ð°Ð½ÑĤÐ¸ÑĩÐµÑģÐº": 2362,
      "ĠÐ¿Ð¸ÑĨÑĨÑĥ": 2363,
      "Ð¡Ð¿Ð»ÐµÑĤÐ½Ð¸ÑĨÑĭ": 2364,
      "ĠÐ²ÐµÐ´ÑĮÐ¼Ð°": 2365,
      "ĠÑĥÐ¿ÑĢÐ°Ð²Ð»ÑıÐµÑĤ": 2366,
      "ĠÑħÐ¾ÑĩÐµÑĤ": 2367,
      "##ÑĥÑĢÐ³ÐµÑĢ": 2368,
      "ĠÐ¿ÐµÐ¹Ð·": 2369,
      "ĠÐºÐ¾Ð»ÑĮÑĨÐ¾": 2370,
      "##Ð¼ÐµÑĢÐ¸ÐºÐ°Ð½": 2371,
      "ĠÐ¾Ð±Ð¼Ð°Ð½Ñī": 2372,
      "ĠÐĲÐ»ÐµÐºÑģÐ°Ð½Ð´": 2373,
      "ĠÐ´ÐµÐºÐ°Ð±": 2374,
      "ĠÐŁÑĢÐ°Ð²Ð´Ð°": 2375,
      "ĠÐŀÑĢÐ³Ð°Ð½Ð¸Ð·ÑĥÐ¹": 2376,
      "ĠÐ¿Ð»ÐµÐ¹Ð»Ð¸ÑģÑĤ": 2377,
      "Ð¸": 2378,
      "ĠW": 2379,
      "##oo": 2380,
      "##Ð¾Ð¸": 2381,
      "##ÑĭÑĤ": 2382,
      "ĠÑĤÐ°Ðº": 2383,
      "ĠÑĤÐµÐ¼": 2384,
      "ĠÐºÐ¾Ð»": 2385,
      "ĠÐºÐ¾Ðº": 2386,
      "ĠÐºÐ¾ÑģÑĤ": 2387,
      "##ÐµÑĢÐº": 2388,
      "##ÑĪÐ½ÑĭÐ¹": 2389,
      "ĠÐ¼ÐµÐ´": 2390,
      "##ÑĩÐ¸ÑĤ": 2391,
      "##Ð¾Ð»Ð¾ÑģÑĤ": 2392,
      "##Ð°Ð´ÐµÑĪÑĮ": 2393,
      "ĠÑģÐºÐ»Ð¾Ð½Ð½Ð°": 2394,
      "##Ð°Ð½Ñĥ": 2395,
      "##Ð°Ð½ÑĮ": 2396,
      "ĠÐ»ÐµÐ³": 2397,
      "ĠÐ´ÐµÑĢ": 2398,
      "ĠÑĥÑĤ": 2399,
      "ĠÑĥÐ±": 2400,
      "ĠÐ¿Ð¾Ñį": 2401,
      "ĠÐ°Ð¿ÑĢ": 2402,
      "##Ð»Ð¸Ð¹": 2403,
      "##Ð¸Ð½Ð¸": 2404,
      "##Ð¸Ð½Ð´": 2405,
      "##ÑĨÐ¸Ð¸": 2406,
      "ĠÐ±ÑĭÐ»Ð¸": 2407,
      "##Ð½Ð¸ÐºÐ°": 2408,
      "ĠÑĩÐ¸Ñģ": 2409,
      "ĠÑĢÐ¸Ñģ": 2410,
      "##Ð¾Ð½Ñĥ": 2411,
      "##Ð¾ÑĤÐ²Ð¾ÑĢ": 2412,
      "ĠÑģÑĤÐ¸Ð»ÑĮ": 2413,
      "##ÐµÐ²Ð¾Ð¹": 2414,
      "ĠÐ¿Ð¾Ð´ÑĢÑĥÐ¶": 2415,
      "ĠÐ¿Ð¾Ð´ÑĢÐ¾ÑģÑĤ": 2416,
      "##Ð¾ÐºÑĢÐ¾Ð²": 2417,
      "ĠÐ¿ÑĢÐ¾ÑģÐ»Ð°Ð²": 2418,
      "##Ð¸ÐºÐµ": 2419,
      "##Ð¸ÐºÐ¸": 2420,
      "##Ð¿Ð¸Ñĩ": 2421,
      "##ÑĪÐµÑĩ": 2422,
      "##Ð¾ÑĩÐµÐº": 2423,
      "ĠÐĶÐµÐ½ÑĮ": 2424,
      "##Ð¾ÑģÑĤÐµÐ¹": 2425,
      "ĠÐ²ÑģÐµÐ¹": 2426,
      "ĠÑĦÐ¸Ð»ÑĮÐ¼Ðµ": 2427,
      "ĠÐ·Ð½Ð°ÐºÐ¸": 2428,
      "ĠÐ·Ð½Ð°ÐºÐ¾Ð¼": 2429,
      "ĠÐ²ÑģÑĤÑĢÐµÑĤ": 2430,
      "ĠÐ¥Ð¾ÑĢÐ¾ÑĪ": 2431,
      "##Ð°Ð³Ð¸": 2432,
      "ĠÐ½Ð¾Ð²ÑĭÐ¹": 2433,
      "ĠÑģÐ°Ð¼Ð¾Ðµ": 2434,
      "ĠÑģÐ°Ð¼Ð¾Ð»ÐµÑĤ": 2435,
      "ĠÐĽÑĥ": 2436,
      "ĠÐĽÑİÐ±": 2437,
      "ĠÑĢÐ°Ð·Ð³Ð°Ð´Ð°ÑĤÑĮ": 2438,
      "##ÑĥÑĪÐºÑĥ": 2439,
      "ĠÐ´ÐµÐ»Ð°ÑĤÑĮ": 2440,
      "ĠÐ¼ÑĥÐ¶ÐµÐ¼": 2441,
      "ĠÐ¾Ð´ÐµÐ¶": 2442,
      "ĠÐĹÐ°Ðº": 2443,
      "ĠÐĹÐ½Ð°ÐµÑĪÑĮ": 2444,
      "ĠÐ´ÑĢÑĥÐ³Ð¾Ð¼": 2445,
      "ĠÐ´Ð¸ÑģÐ½ÐµÐµÐ²ÑģÐºÐ¸Ð¹": 2446,
      "ĠÐ²Ð»ÑİÐ±Ð»Ñı": 2447,
      "ÐŃÐ¹ÑĦÐ¾ÑĢ": 2448,
      "ĠÑģÐµÑĢÐ¸Ð°Ð»ÑĮÐ½ÑĭÑħ": 2449,
      "ĠÐ¸Ð³ÑĢ": 2450,
      "ĠÑģÐ¾ÑĥÐ»Ð¼ÐµÐ¹ÑĤÐ°": 2451,
      "##Ð°Ð½Ð¸ÐºÑĥ": 2452,
      "ĠÐ¾ÐºÑĢÑĥÐ¶": 2453,
      "ĠÐ¾Ð¿Ð¸ÑģÐ°Ð½Ð¸Ñİ": 2454,
      "ÐĳÑĥÐ¼Ð°Ð¶": 2455,
      "ĠÐ¿Ð¾ÑģÑĤÑĥÐ¿": 2456,
      "ĠÐ¿Ð¾ÑĨÐµÐ»ÑĥÐµÑĤ": 2457,
      "ĠÐ¿ÑĢÐ¾Ð¸Ð·Ð²ÐµÐ´": 2458,
      "ĠÑģÐ»ÐµÐ´ÑĥÑİÑīÐµÐ¹": 2459,
      "ĠÐ°Ð½Ð³ÐµÐ»": 2460,
      "ĠÐ°Ð½Ð³Ð»Ð¸Ð¹": 2461,
      "ĠÑģÑĤÐ¸ÐºÐµÑĢÐ°Ñħ": 2462,
      "ĠÐ½Ð¾ÑĩÑĮ": 2463,
      "ĠÐĴÐ¸Ð½ÐºÑģ": 2464,
      "ĠOne": 2465,
      "ĠÐ±Ð»Ð¾Ð³": 2466,
      "ĠÐ·Ð°ÐºÐ¾Ð½ÑĩÐ¸ÑĤÑģÑı": 2467,
      "ĠÑģÐµÐºÑĢÐµÑĤ": 2468,
      "ĠÐ²Ð½ÑĥÑĤÑĢÐµÐ½": 2469,
      "ĠÐ»Ð¸ÑĤÐµÑĢÐ°ÑĤ": 2470,
      "ĠÑįÐºÐ·Ð°Ð¼ÐµÐ½": 2471,
      "ĠÐ¿ÑĢÐµÐ´Ð¿Ð¾ÑĩÑĤ": 2472,
      "ĠÐ¿Ð¾ÐºÐ¾Ð»ÐµÐ½Ð¸Ñı": 2473,
      "ĠÐĵÐµÑĢÐ¾Ð¸Ð½ÐµÐ¹": 2474,
      "Ġ00": 2475,
      "##Ð¾ÑĦ": 2476,
      "##ÑģÐµÑĢÐ¸Ð°Ð»": 2477,
      "##ÑģÐµÐ»ÐµÐ½": 2478,
      "##Ð½ÐµÑĤ": 2479,
      "##Ð½Ð²Ð°ÑĢ": 2480,
      "ĠÑĤÐ¾ÑĢ": 2481,
      "ĠÑĤÑĢÐ¸": 2482,
      "ĠÑĤÐµÐ»Ð°": 2483,
      "ĠÑĤÐ°ÑĤÑĥ": 2484,
      "ĠÑĤÐ¸ÐºÑĤ": 2485,
      "##ÐºÐ¾ÑĢ": 2486,
      "ĠÐ¿ÐµÐ²": 2487,
      "##ÑıÐ³": 2488,
      "##Ð»ÐµÐ½Ð¸Ðµ": 2489,
      "##Ð»ÐµÐ¶": 2490,
      "##Ð²Ð°Ð´": 2491,
      "ĠÐºÐ°Ð½Ð¸ÐºÑĥ": 2492,
      "##ÐµÑĢÐ²": 2493,
      "##ÐµÑĢÐ¾Ð±": 2494,
      "ĠÐ²Ð¾Ñģ": 2495,
      "ĠÐ¼Ð¸ÑĪ": 2496,
      "ĠÐ¼Ð¾Ð¶Ð½Ð¾": 2497,
      "##Ð¼Ñĥ": 2498,
      "##Ð¼Ð°ÑĤ": 2499
    },
    "merges": [
      "Ġ ##Ð",
      "##Ð ##°",
      "##Ð ##¾",
      "##Ð ##µ",
      "##Ñ ##Ĥ",
      "##Ð ##¸",
      "##Ð¾ ##Ð",
      "##Ð° ##Ð",
      "##Ñ ##ģ",
      "##Ñ ##Ģ",
      "##Ðµ ##Ð",
      "##Ñ ##ĭ",
      "##Ñ ##ĥ",
      "##Ð ##½",
      "Ġ ##ÑĤ",
      "##Ñ ##Į",
      "##Ð ##º",
      "Ġ ##Ñģ",
      "ĠÐ ##¿",
      "##Ñ ##ı",
      "##Ð ##»",
      "##Ð ##²",
      "##Ð°Ð ##º",
      "ĠÐ ##¸",
      "ĠÐ ##º",
      "##Ðµ ##ÑĢ",
      "##Ñ ##Ī",
      "ĠÑĤ ##Ñĭ",
      "##Ð ##´",
      "ĠÐ ##²",
      "Ġ ##Ñ",
      "##ÐµÐ ##¼",
      "ĠÐ ##¼",
      "##Ð ##¼",
      "ĠÐ ##½",
      "##Ðµ ##ÑĤ",
      "##Ð¾Ð ##¹",
      "##Ð ##·",
      "##Ð¾Ð ##²",
      "ĠÐ ##ļ",
      "##Ð ##±",
      "##ÐµÐ ##±",
      "##Ñģ ##ÑĤ",
      "##Ñ ##İ",
      "##Ñ ##ĩ",
      "##Ñ ##ħ",
      "##ÐµÐ ##½",
      "ĠÐ ##±",
      "ĠÐ½ ##Ð°",
      "ĠÑĤ ##ÐµÐ±",
      "##Ð¾Ð ##»",
      "##Ð¾Ð ##´",
      "ĠÐº ##Ð°Ðº",
      "##Ð ##³",
      "##Ð°Ð ##´",
      "##ÐµÑĢ ##Ð¸",
      "ĠÐ¼ ##Ñĭ",
      "##Ð¸ ##ÑĤ",
      "##Ð°Ð ##¶",
      "ĠÐļ ##Ð°Ðº",
      "##ÑĤ ##Ð¾",
      "##Ð°Ð ##¹",
      "ĠÑģ ##Ðº",
      "ĠÐ ##Ĵ",
      "##Ð°Ð ##½",
      "ĠÐ ##¾",
      "##Ð¾Ð ##³",
      "##ÑĪ ##ÑĮ",
      "##Ð° ##ÑĤ",
      "##Ð¾Ð ##¼",
      "ĠÐ ##·",
      "ĠÐ ##»",
      "##ÑĢ ##Ð¾",
      "ĠÐ ##´",
      "##Ñģ ##Ðº",
      "Ġ ##Ñĥ",
      "##Ð ##¿",
      "ĠÐ¿ ##Ð¾",
      "##Ð ##¹",
      "##Ð° ##ÑĢ",
      "ĠÐ¸ ##Ð·",
      "ĠÑĤ ##Ð²",
      "##Ð°Ð ##»",
      "##Ð°Ð¶ ##ÐµÐ¼",
      "ĠÐ ##°",
      "##Ð» ##Ð¸",
      "##Ñĭ ##Ð±",
      "ĠÑĤÐµÐ± ##Ðµ",
      "##Ð° ##Ñı",
      "ĠÑģÐº ##Ð°Ð¶ÐµÐ¼",
      "ĠÐĴ ##ÑĭÐ±",
      "ĠÐĴÑĭÐ± ##ÐµÑĢÐ¸",
      "ĠÐ ##³",
      "##Ð¸ ##Ð½",
      "##Ðµ ##ÑĪÑĮ",
      "##ÐµÐ ##¹",
      "##ÐµÐ ##»",
      "ĠÐ ##¡",
      "##Ð¾Ð» ##ÑĮ",
      "##Ñ ##Ĩ",
      "ĠÐ± ##Ñĭ",
      "Ġ ##Â",
      "ĠÂ ##«",
      "Â ##»",
      "##Ð½ ##Ð¸",
      "ĠÐ¿ ##ÑĢ",
      "##Ð³ ##Ð°Ð´",
      "##Ð½ ##Ñĭ",
      "ĠÑĤÐ² ##Ð¾",
      "##Ð¾ ##ÑĢ",
      "ĠÑ ##ĩ",
      "##Ð ##¶",
      "Ġ ##ÑĢ",
      "##Ð°ÑĤ ##ÑĮ",
      "##Ð¾Ð ##½",
      "##Ð¸ ##Ð¼",
      "##Ð» ##Ð°",
      "##Ð°Ð ##¼",
      "##Ð¾Ð ##¶",
      "ĠÐ ##ĵ",
      "ĠÐ ##£",
      "##Ñģ ##Ñı",
      "##Ðº ##Ð¾",
      "##Ð² ##ÐµÑĤ",
      "##Ð· ##Ð½",
      "ĠÐ ##Ŀ",
      "##Ð½ ##Ð¾",
      "##Ð°Ð ##·",
      "##Ð¾Ð ##¿",
      "ĠÑĤÐµÐ± ##Ñı",
      "##Ñĥ ##Ð´",
      "##Ðº ##Ð°",
      "ĠÑ ##į",
      "##Ð¾Ð»ÑĮ ##ÐºÐ¾",
      "##Ð¾Ð³ ##Ð¾",
      "##ÐµÐ ##´",
      "##Ñĥ ##Ñİ",
      "##Ð¾ ##ÑĤ",
      "##Ð» ##ÑĮ",
      "ĠÐ¸ ##Ð»Ð¸",
      "ĠÑģ ##ÑĤ",
      "##Ð° ##ÐµÐ¼",
      "##Ñģ ##Ð¾Ð²",
      "ĠÐļÐ°Ðº ##Ð¾Ð¹",
      "ĠÐ» ##Ð¸",
      "##Ð¸ ##Ðµ",
      "ĠÑ ##Ħ",
      "ĠÐ ##ŀ",
      "##Ð³Ð°Ð´ ##Ð°Ð¹",
      "##Ñ ##Ħ",
      "ĠÐ£ ##Ð³Ð°Ð´Ð°Ð¹",
      "##ÐµÐ ##³",
      "ĠÐ ##¶",
      "##ÐµÐ ##²",
      "ĠÐºÐ°Ðº ##Ð¾Ð¹",
      "##Ðµ ##Ñģ",
      "ĠÐ· ##Ð½",
      "ĠÐļÐ°Ðº ##Ð°Ñı",
      "ĠÑģ ##Ð²",
      "ĠÐ¿ ##Ð¾Ð´",
      "##Ð·Ð½ ##Ð°Ð¹",
      "ĠÑ ##ħ",
      "ĠÑ ##Ĩ",
      "##Ð¾Ð ##±",
      "##ÑĢ ##Ñĥ",
      "ĠÐĵ ##Ð°Ð´",
      "ĠÐĿ ##Ð°",
      "##Ðµ ##ÑģÑĤ",
      "ĠÐļ ##ÑĤÐ¾",
      "##Ð¾Ð ##º",
      "ĠÑĥ ##Ð·Ð½Ð°Ð¹",
      "##Ð°Ð ##²",
      "ĠÐŀ ##ÑĤ",
      "ĠÐ ##Ł",
      "##Ñİ ##Ð±",
      "ĠÑĤÐ² ##Ð¾Ð¹",
      "##Ð¾Ð¿ ##ÑĢÐ¾",
      "##Ð° ##Ñģ",
      "ĠÐ² ##Ð¾Ð¿ÑĢÐ¾",
      "##Ñ ##ī",
      "##ÐµÑĢÐ¸ ##Ð°Ð»",
      "##ÑĤ ##Ð¸",
      "ĠÐ¾ ##ÑĤ",
      "##ÐµÐ½ ##ÑĮ",
      "ĠÐ± ##ÑĥÐ´",
      "ĠÐŀÑĤ ##Ð²ÐµÑĤ",
      "ĠÑģ ##ÐµÑĢÐ¸Ð°Ð»",
      "ĠÐŀÑĤÐ²ÐµÑĤ ##ÑĮ",
      "ĠÐĵÐ°Ð´ ##Ð°ÐµÐ¼",
      "ĠÐ²Ð¾Ð¿ÑĢÐ¾ ##ÑģÐ¾Ð²",
      "##ÑĢ ##Ð¸",
      "##Ðº ##Ñĥ",
      "##Ð¸ÑĤ ##ÑĮ",
      "ĠÐ ##¢",
      "##Ð½ ##Ñı",
      "##ÐµÐ³ ##Ð¾",
      "##Ð¸ ##Ñı",
      "##Ð° ##ÐµÑĪÑĮ",
      "ĠÐ¿ ##Ð°ÑĢ",
      "##Ð¾ ##Ðµ",
      "##Ð¸ ##Ñħ",
      "ĠÐ» ##ÑİÐ±",
      "Â» ##?",
      "Â ##ł",
      "##Ð¸ ##Ð¹",
      "ĠÐ¶ ##Ð¸",
      "##Ð¸ ##Ð»ÑĮ",
      "##Ð½Ñĭ ##Ð¹",
      "ĠÐ¿ ##ÑĢÐ¾",
      "â ##Ģ",
      "##ÐµÐ ##º",
      "##ÑģÐº ##Ð¾Ð»ÑĮÐºÐ¾",
      "âĢ ##Ķ",
      "##ÐµÐ ##·",
      "##Ð» ##Ñı",
      "##Ð¾ ##ÑĢÐ¾",
      "##Ð¾Ð³ ##Ð»Ð°",
      "##Ð° ##Ñħ",
      "ĠÐ ##µ",
      "##Ð¸ ##Ðº",
      "##Ð¿ ##Ð¸",
      "##Ð°Ð» ##ÑĮ",
      "##ÑĪ ##Ðµ",
      "##Ð´ ##Ðµ",
      "ĠÐ¡ ##Ð¼",
      "ĠÑĩ ##ÑĤÐ¾",
      "##ÐµÑĢ ##Ð¾",
      "##Ð¾ÑĢÐ¾ ##ÑĪ",
      "ĠÐ¿ ##ÐµÑĢ",
      "ĠÑħ ##Ð¾ÑĢÐ¾ÑĪ",
      "##Ñĭ ##Ð¹",
      "##Ð¾ ##Ñĩ",
      "##ÑĢ ##Ð°",
      "##Ð¾Ð¶ ##ÐµÑĪÑĮ",
      "##Ð¸Ð»ÑĮ ##Ð¼",
      "##Ð¸ ##ÑĪÑĮ",
      "ĠÐ ##ľ",
      "##ÑģÑĤ ##ÑĢ",
      "##Ð¸ÑĤ ##Ð°ÑĤ",
      "##Ð½Ñĭ ##Ñħ",
      "##2 ##0",
      "ĠÐ³ ##ÐµÑĢÐ¾",
      "ĠÑħÐ¾ÑĢÐ¾ÑĪ ##Ð¾",
      "ĠÑĨ ##Ð¸ÑĤÐ°ÑĤ",
      "##Ñĥ ##Ñĩ",
      "ĠÐ¼ ##Ñĥ",
      "##Ðµ ##Ñĩ",
      "ĠÑĥ ##Ð³Ð°Ð´",
      "ĠÐ ##Ķ",
      "##Ð´ ##Ð°",
      "ĠÐ ##§",
      "##Ð¾ ##Ñģ",
      "##Ð´ ##ÐµÑĤ",
      "##Ð°ÑĢ ##ÑĤ",
      "##Ð°Ðº ##Ð°",
      "Ġ ##20",
      "##Ð¸ ##Ñģ",
      "##ÑĤ ##ÐµÑĢ",
      "##Ð¾ ##ÑģÑĤ",
      "##Ð°Ð½ ##Ð¸Ðµ",
      "##Ð¾Ð´ ##Ð¸",
      "ĠÐĿÐ° ##ÑģÐºÐ¾Ð»ÑĮÐºÐ¾",
      "ĠÐ³ ##Ð¾Ð´",
      "ĠÐ± ##Ð¾Ð»ÑĮ",
      "ĠÐ¿ ##ÐµÑģ",
      "ĠÑģÐ² ##Ð¾",
      "##Ð¾Ð ##·",
      "ĠÑĨ ##Ð²ÐµÑĤ",
      "##Ñħ ##Ð¾Ð´",
      "##Ð¸ ##Ð¸",
      "ĠÑģÐº ##Ð¾Ð»ÑĮÐºÐ¾",
      "##Ð¸ ##Ð²",
      "##Ð½ ##Ð¾Ð¹",
      "ĠÐ² ##Ñģ",
      "##ÐµÐ½ ##ÑĤ",
      "##Ð° ##ÑģÑĤ",
      "##Ðº ##Ð¸",
      "ĠÐºÐ°Ðº ##Ð°Ñı",
      "ĠÑĦ ##Ð¸Ð»ÑĮÐ¼",
      "ĠÐ±Ð¾Ð»ÑĮ ##ÑĪÐµ",
      "##Ð° ##ÐµÑĤ",
      "ĠÐ·Ð½ ##Ð°ÐµÑĪÑĮ",
      "ĠÐ¡Ð¼ ##Ð¾Ð¶ÐµÑĪÑĮ",
      "ĠÐ¼ ##Ð¾Ð³Ð»Ð°",
      "ĠÐ¾ ##Ð¿Ð¸",
      "ĠÐ ##ł",
      "ĠÐ» ##ÐµÑĤ",
      "ĠÐ ##ĳ",
      "##Ð¸ ##ÑĢ",
      "ĠÑģ ##Ð»",
      "ĠÐº ##ÑĤÐ¾",
      "##ÐµÐ» ##ÑĮ",
      "##ÐºÐ° ##Ñħ",
      "##Ð¸ ##Ð´",
      "ĠÑģ ##Ð¼",
      "ĠÐ· ##Ð¾Ð´Ð¸",
      "ĠÐ·Ð¾Ð´Ð¸ ##Ð°ÐºÐ°",
      "##Ð¸ ##Ð»",
      "##Ð¸ ##Ñĩ",
      "ĠÐ±ÑĥÐ´ ##ÐµÑĤ",
      "ĠÐ¾ ##Ð±",
      "##Ð°Ð ##±",
      "ĠÐºÐ°Ðº ##Ð¾Ð¼",
      "Ġ20 ##2",
      "##ÑĢ ##Ð°Ð½",
      "##Ð½ ##Ð°Ñı",
      "ĠÐ½ ##Ðµ",
      "##Ñģ ##Ð¾Ð½",
      "Ġ ##ÑĪ",
      "ĠÐº ##Ð°ÑĢÑĤ",
      "ĠÐ² ##Ñĭ",
      "ĠÐºÐ°Ðº ##Ð¾Ð³Ð¾",
      "##Ð°Ð ##¿",
      "##ÑĢ ##Ðµ",
      "ĠÐ· ##Ð²",
      "##Ñĥ ##ÑĤ",
      "ĠÐ·Ð½ ##Ð°Ðº",
      "##Ðµ ##ÑģÐº",
      "##Ñı ##ÑĤ",
      "ĠÐ ##Ĳ",
      "##Ð½ ##ÑĥÑİ",
      "##Ð½ ##Ðµ",
      "##Ð½Ð¾ ##Ðµ",
      "ĠÐ´ ##ÐµÐ½ÑĮ",
      "ĠÐ¿Ð¾ ##Ñħ",
      "##ÐµÐ½ ##Ð¸Ñı",
      "##Ñ ##į",
      "ĠÑį ##ÑĤ",
      "Ġ ##8",
      "ĠÐ¿Ð¾Ñħ ##Ð¾Ð¶",
      "##Ñĥ ##Ñī",
      "##Ñĥ ##Ð¶",
      "##Ð½ ##Ð°",
      "ĠÐ² ##ÑģÑĤÑĢ",
      "ĠÐ¿Ð¾ ##Ñģ",
      "ĠÑį ##Ð¼",
      "ĠÐ¿ÐµÑĢ ##ÑģÐ¾Ð½",
      "ĠÐºÐ°ÑĢÑĤ ##Ð¸Ð½",
      "ĠÐ ##¥",
      "##Ðº ##Ðµ",
      "ĠÐ¾Ð¿Ð¸ ##ÑĪ",
      "##Ð°Ð ##³",
      "ĠÑĥÐ³Ð°Ð´ ##Ð°ÐµÐ¼",
      "##ÐµÐ· ##Ð´",
      "##Ð½ ##Ð¾Ð³Ð¾",
      "ĠÐ¿ÐµÑĢÑģÐ¾Ð½ ##Ð°Ð¶",
      "ĠÐ¿Ð¾Ð´ ##ÑħÐ¾Ð´",
      "##Ð¸ ##Ð·",
      "ĠÐ¿Ð°ÑĢ ##Ð½",
      "Ġ ##1",
      "##ÑĢ ##Ð¾Ð²",
      "ĠÑģÐµÑĢÐ¸Ð°Ð» ##Ð°",
      "ĠÐ§ ##ÑĤÐ¾",
      "##Ð¾Ð¹ ##Ð´ÐµÑĤ",
      "ĠÐ½ ##Ð¾Ð²",
      "ĠÐ¿Ð¾Ð´ÑħÐ¾Ð´ ##Ð¸ÑĤ",
      "ĠÐºÐ°Ðº ##ÑĥÑİ",
      "##Ð¸ÑĤ ##ÑģÑı",
      "##Ð¸ ##ÑĦ",
      "##Ð¼ ##Ðµ",
      "ĠÐ´ ##Ð»Ñı",
      "##Ð½Ð¾ ##ÑģÑĤ",
      "ĠÑģ ##Ð°Ð¼",
      "##Ð· ##Ð½Ð¸",
      "##Ð¾Ð² ##ÑĮ",
      "ĠÑĤÐ²Ð¾ ##Ñı",
      "ĠÐ¶Ð¸ ##Ð·Ð½Ð¸",
      "##Ð¸ ##Ñİ",
      "##ÑĢ ##Ð°Ð²",
      "ĠÐ¢ ##Ñĭ",
      "##ÐµÑĢ ##ÑĤ",
      "##Ð¸Ñĩ ##ÐµÑģÐº",
      "ĠÐ·Ð² ##ÐµÐ·Ð´",
      "ĠÐ ##Ľ",
      "##Ñĥ ##Ð»",
      "ĠÑģ ##Ð¾",
      "ĠÑģ ##Ð´",
      "ĠÑĢ ##Ð°Ð·",
      "ĠÑĤÐ²Ð¾ ##Ñİ",
      "ĠÑĤÐ²Ð¾ ##Ðµ",
      "ĠÐ¼Ñĥ ##Ð»ÑĮ",
      "ĠÐ¾Ð¿Ð¸ÑĪ ##ÐµÑĤ",
      "ĠÐºÐ°Ðº ##Ð¾Ðµ",
      "##Ñĥ ##ÑĪ",
      "##Ð°Ñģ ##ÑģÐº",
      "ĠÐ±ÑĥÐ´ ##ÑĥÑī",
      "ĠÐ¿ ##Ð¾Ð¼",
      "ĠÐ½ ##Ð°Ð·",
      "ĠÑģÑĤ ##ÑĢÐ°Ð½",
      "##ÑĢÑĥ ##Ð³",
      "ĠÐ¸ ##Ð´Ðµ",
      "ĠÑģÑĤ ##Ð°ÑĤÑĮ",
      "##Ð½ ##Ð¾Ð¼",
      "ĠÐ»ÑİÐ± ##Ð¸Ð¼",
      "ĠÐ¿ÐµÑģ ##Ð½Ñı",
      "ĠÐ¸Ð´Ðµ ##Ð°Ð»ÑĮ",
      "##Ð¾ ##Ñı",
      "ĠÐ¶Ð¸ ##Ð·Ð½",
      "##ÐµÑĢ ##Ð´",
      "ĠÐ±Ñĭ ##Ð»Ð°",
      "ĠÑĩ ##ÐµÐ¼",
      "##Ñĥ ##Ð¼",
      "##ÐµÑĤ ##Ñĥ",
      "##ÑĨ ##Ð°",
      "##Ñģ ##Ð°",
      "##Ñĥ ##Ð¿",
      "##ÐµÐ½ ##Ð¸Ðµ",
      "ĠÐļÐ°Ðº ##Ð¾Ðµ",
      "ĠÐ¶Ð¸Ð·Ð½ ##ÑĮ",
      "##Ñģ ##Ð¿",
      "ĠÐº ##Ð¾",
      "ĠÑį ##ÑĤÐ¾",
      "##ÐµÑģÑĤ ##Ð²",
      "##Ð³ ##Ð¾",
      "##Ð½Ñĭ ##Ðµ",
      "ĠÐ¿ÑĢ ##Ð¸Ð½",
      "ĠÐ³ÐµÑĢÐ¾ ##Ð¸Ð½",
      "ĠÐ¿ ##Ð¾Ð»",
      "ĠÐ³ ##Ð»",
      "##ÑĢ ##Ñĭ",
      "##ÐµÐ½ÑĤ ##Ð¾Ð²",
      "ĠÑįÐ¼ ##Ð¾Ð´",
      "ĠÐ¿ÑĢ ##ÐµÐ´",
      "##ÑģÑĤ ##Ð²",
      "ĠÐºÐ°Ðº ##Ð¸Ð¼",
      "##ÑĨ ##ÐµÐ½ÑĤÐ¾Ð²",
      "ĠÐ¿ÑĢÐ¾ ##ÑĨÐµÐ½ÑĤÐ¾Ð²",
      "ĠÐ¿Ð¾ ##ÑģÐ¾Ð²",
      "##Ð½Ð¸ ##Ðº",
      "ĠÑĤÐ²Ð¾ ##ÐµÐ¹",
      "ĠÐĶ ##Ð¶",
      "ĠÐ¿Ð¾ÑħÐ¾Ð¶ ##Ð°",
      "ĠÑģÐ´ ##ÐµÐ»",
      "##ÐµÑĤÑĥ ##ÐµÐ¼",
      "ĠÐ¿Ð¾ÑģÐ¾Ð² ##ÐµÑĤÑĥÐµÐ¼",
      "##ÑĢ ##ÐµÑĤ",
      "ĠÐ¿ ##Ð¾Ð¿",
      "ĠÐ´ ##ÐµÐ»",
      "ĠÑģÐ² ##Ð¾Ð¹",
      "##ÐµÐ² ##ÑģÐº",
      "ĠÑģ ##ÑĤÐ¾",
      "##Ð¸ ##Ð³",
      "##Ð»Ð° ##Ñģ",
      "##Ñĥ ##Ð¹",
      "ĠÐ½Ð° ##ÑģÐºÐ¾Ð»ÑĮÐºÐ¾",
      "##Ð°ÑĤÑĮ ##ÑģÑı",
      "##Ñĥ ##Ñģ",
      "##Ð¾Ð´ ##Ð½Ñı",
      "ĠÑį ##ÑĤÐ¸",
      "ĠÐµ ##Ð³Ð¾",
      "##ÐµÑĤ ##Ð¸ÑĪÑĮ",
      "ĠÐ¡ ##Ð¿",
      "ĠÑĤÐ²Ð¾ ##ÐµÐ³Ð¾",
      "ĠÐ¿Ð°ÑĢ ##ÐµÐ½ÑĮ",
      "##ÑĤÐµÑĢ ##Ð°",
      "##ÑĢ ##ÐµÐ´",
      "ĠÐº ##Ð¾ÑĢ",
      "##ÐµÐ ##¶",
      "ĠÑģ ##Ð¿",
      "ĠÑģ ##ÐµÐ³",
      "ĠÐº ##Ð°Ð´",
      "##Ð´ ##Ð¸",
      "ĠÐ» ##ÑĥÑĩ",
      "ĠÑģÐµÐ³ ##Ð¾Ð´Ð½Ñı",
      "ĠÐ½Ð° ##ÑģÑĤ",
      "##ÐµÑģ ##Ñģ",
      "##Ð² ##Ð¸",
      "ĠÐº ##ÐµÐ¼",
      "##ÐµÐ¹ ##Ñĩ",
      "ĠÐ¼Ñĥ ##Ð¶",
      "ĠÐ¿ ##Ð»",
      "##Ð°Ð¼ ##ÐµÐ½",
      "ĠÐ³Ð¾Ð´ ##Ñĥ",
      "Ð ##¡",
      "##ÑĢ ##Ð°Ð·",
      "##Ñı ##Ð¼",
      "##Ð» ##ÐµÐ½",
      "ĠÐº ##Ð¾Ð¼",
      "ĠÑĤÐ²Ð¾ ##Ð¸Ð¼",
      "ĠÐ¡Ð¼ ##Ð¾Ð³Ð»Ð°",
      "ĠÐ²Ñģ ##ÐµÐ³Ð¾",
      "Ġ ##B",
      "##Ðµ ##ÑĪ",
      "ĠÑģ ##Ð¾Ð²",
      "ĠÐ¾ ##Ñģ",
      "##Ð°Ð» ##Ð¸",
      "##Ð¸Ð½ ##Ð°",
      "ĠÐ¾ÑĤ ##Ð½Ð¾",
      "Ġ1 ##0",
      "Ġ ##5",
      "ĠÐ½ ##Ð°Ð¹",
      "ĠÐ³ ##Ð¸ÑĦ",
      "##Ð¾Ð³ ##Ð´Ð°",
      "ĠÐ´ ##Ð¾ÑĢ",
      "ĠÑģÐ² ##Ð¸Ð´",
      "ĠÑĥÐ³Ð°Ð´ ##Ð°ÑĤÑĮ",
      "##ÐµÐ¹Ñĩ ##Ð°Ñģ",
      "ĠÐ ##ĺ",
      "##Ð¸ ##Ð¿",
      "ĠÑģ ##ÐµÐ¹ÑĩÐ°Ñģ",
      "##Ð» ##ÑİÐ±",
      "ĠÐ»ÑİÐ± ##Ð¾Ð²ÑĮ",
      "##Ñĩ ##Ð°ÑģÑĤ",
      "ĠÑĢ ##Ð°ÑģÑģÐº",
      "ĠÑģÐ²Ð¾ ##Ñİ",
      "ĠÐ¸ ##Ð½",
      "##Ð»Ð¸ ##Ñĩ",
      "ĠÑģÑĤÐ¾ ##Ð¸ÑĤ",
      "Ġ ##Ñı",
      "##Ð¸ ##ÑĨ",
      "ĠÐ¾ ##Ð´",
      "##Ð°ÑĢ ##Ð°Ðº",
      "ĠÐ¾ÑĤÐ½Ð¾ ##ÑĪ",
      "Ð ##ł",
      "ĠÐ ##Ĺ",
      "##Ñĭ ##Ñħ",
      "##Ð°ÑĢ ##ÑĢÐ¸",
      "ĠÐ±ÑĥÐ´ ##ÐµÑĪÑĮ",
      "Ð ##ĵ",
      "##Ð¼ ##ÐµÐ½",
      "##Ð¼ ##Ð¾ÑĤ",
      "ĠÐ½ ##ÑĥÐ¶",
      "##Ð°Ð½ ##ÐµÑĤ",
      "ĠÐ´ ##Ð¸Ñģ",
      "ĠÐ´ ##ÑĢÑĥÐ³",
      "ĠÑĨÐ¸ÑĤÐ°ÑĤ ##Ñĥ",
      "##ÐµÐ¼ ##Ñĥ",
      "ĠÐ¿Ð¾Ð´ ##Ð¾Ð¹Ð´ÐµÑĤ",
      "ĠÑħ ##Ð°ÑĢÐ°Ðº",
      "ĠÐ²ÑģÑĤÑĢ ##ÐµÑĤÐ¸ÑĪÑĮ",
      "##Ñĭ ##Ð²",
      "##ÐµÑĢ ##ÑĮ",
      "##Ð½Ðµ ##ÐµÐ²ÑģÐº",
      "ĠÐ¾ÑĤÐ½Ð¾ÑĪ ##ÐµÐ½Ð¸Ñı",
      "ĠÐ´Ð¸Ñģ ##Ð½ÐµÐµÐ²ÑģÐº",
      "##ÑĢ ##ÐµÐ¼",
      "##ÑĢ ##ÐµÐ½",
      "ĠÐ² ##Ð»ÑİÐ±",
      "ĠÐ° ##Ð½Ð¸",
      "ĠÑĨÐ¸ÑĤÐ°ÑĤ ##Ð°",
      "##ÑĢÐµÑĤ ##ÑĮ",
      "##o ##p",
      "##Ð½Ð¸ ##ÑĪÑĮ",
      "ĠÐ¿Ð°ÑĢ ##Ð½Ñı",
      "##Ð½Ð¾ÑģÑĤ ##ÑĮ",
      "p ##op",
      "Ġ ##k",
      "##ÑĮ ##Ð±",
      "ĠÐ³Ð¸ÑĦ ##ÐºÐ°Ñħ",
      "ĠÐ°Ð½Ð¸ ##Ð¼Ðµ",
      "ĠÐļÐ°Ðº ##ÑĥÑİ",
      "##Ð¾Ð³ ##Ð¾Ð´",
      "##Ð°Ð» ##Ð°",
      "##Ð½Ð¸ ##Ð¹",
      "ĠÐ ##Ń",
      "ĠÐ¿ ##Ð¾Ðº",
      "##Ð¾Ð² ##Ð°",
      "ĠÐ¼ÑĥÐ»ÑĮ ##ÑĤ",
      "ĠÐ´Ð¾ÑĢ ##Ð°Ð¼",
      "ĠÐ ##ķ",
      "##Ð² ##ÐµÑģÑĤ",
      "ĠÐ´ ##ÐµÑĤ",
      "ĠÐ¡ ##Ðº",
      "Ġ202 ##3",
      "ĠÐ¿Ð¾Ñģ ##Ð¼Ð¾ÑĤ",
      "Ġ ##D",
      "Ġ ##6",
      "##ÑĤ ##ÑĮ",
      "ĠÐ· ##Ð°",
      "ĠÐŁ ##Ð¾ÑĤ",
      "##Ð· ##Ð¸",
      "##Ð¶ ##Ð¸",
      "ĠÐ»ÑİÐ± ##Ð²Ð¸",
      "##Ð°Ð¼ÐµÐ½ ##Ð¸ÑĤ",
      "Ð ##Ķ",
      "Ġ ##T",
      "Ġ ##G",
      "ĠÑģÐº ##Ð°Ð·",
      "ĠÐ´ ##ÐµÐ²",
      "##Ð½Ñĭ ##Ð¼",
      "ĠÐ¿Ð¾Ð´ ##ÑģÐº",
      "ĠÐŁ ##ÑĢÐ¾Ð²",
      "##Ð¸ÑĤÑĮ ##ÑģÑı",
      "##Ð¸Ð² ##ÐµÑĢÐ´",
      "ĠÑģÐ´ÐµÐ» ##Ð°ÑĤÑĮ",
      "ĠÑģÐ²Ð¸Ð´ ##Ð°Ð½Ð¸Ðµ",
      "ĠÐº ##Ð¸Ð½",
      "##Ð´ ##ÐµÑĪÑĮ",
      "##ÑĤÐ¾ ##ÑĢ",
      "ĠÐ·Ð½ ##Ð°Ð¼ÐµÐ½Ð¸ÑĤ",
      "##Ð½ ##Ñİ",
      "##Ð¾Ð± ##Ð¾Ð¹",
      "ĠÐ³ÐµÑĢÐ¾ ##ÐµÐ²",
      "ĠÐ ##¨",
      "ĠÐº ##Ð¾Ð³Ð¾",
      "ĠÐ³ ##Ð¾ÑĢ",
      "##ÑĨ ##Ðµ",
      "ĠÐ¿ÑĢ ##Ð¾Ð²",
      "ĠÑĤÐ²Ð¾ ##Ð¸",
      "Ġ202 ##2",
      "ĠÐ¿Ð¾ÑģÐ¼Ð¾ÑĤ ##ÑĢÐµÑĤÑĮ",
      "ĠÐ¿ ##Ñģ",
      "ĠÐ¾ÑĤ ##Ð»Ð¸Ñĩ",
      "ĠÐ¿Ð°ÑĢÐ½ ##ÐµÐ¼",
      "ĠÐ¿Ð°ÑĢÐ½ ##ÐµÐ¹",
      "##Ð½Ð¾Ð¼ ##Ñĥ",
      "##Ð° ##Ñİ",
      "##Ñĥ ##Ð±",
      "ĠÐ¼ ##Ð°Ð½",
      "##Ð¾Ð» ##Ð¾Ñģ",
      "ĠÐĵÐ°Ð´ ##Ð°Ð½Ð¸Ðµ",
      "ĠÑĨÐ¸ÑĤÐ°ÑĤ ##Ð°Ñħ",
      "ĠÑģ ##ÐµÐ±",
      "ĠÐº ##Ð¾Ð³Ð´Ð°",
      "##ÑģÐº ##Ð°Ñı",
      "ĠÑį ##Ðº",
      "Ðł ##Ð¸Ð²ÐµÑĢÐ´",
      "##Ð¸ ##ÑģÑĤ",
      "ĠÐ¸ ##ÑģÑĤ",
      "##Ð¾Ð¼ ##Ð°",
      "##ÑģÐº ##Ð¸Ð¹",
      "ĠÐ¿Ñģ ##Ð¸Ñħ",
      "ĠÑĤ ##Ð¾Ð±Ð¾Ð¹",
      "ĠÐº ##Ð¾Ð½",
      "ĠÐ½ ##Ð°Ð¿",
      "##Ð¾Ð± ##ÐµÑĢÐ¸",
      "##Ð¸ÑĪÑĮ ##ÑģÑı",
      "ĠÐ½Ð¾Ð² ##Ð¾Ð³Ð¾Ð´",
      "ĠÐ¿Ð¾Ð¼ ##Ð½Ð¸ÑĪÑĮ",
      "ĠÐ½Ð°Ð· ##Ð¾Ð²",
      "##Ð°Ð½ ##Ð°",
      "ĠÐ¿Ð¾Ð» ##ÑĥÑĩ",
      "##Ð¾ ##ÑĨ",
      "##Ð¸ ##Ð¾Ð½",
      "##Ð°Ð¶ ##Ð¸",
      "##ÑĢÐ¾ ##Ñĩ",
      "ĠÐ¿ÐµÑĢ ##Ð²",
      "Ð ##Ń",
      "##Ð¾ ##Ñĥ",
      "##ÐµÐ» ##Ð¾Ð²",
      "ĠÐ ##¤",
      "##Ñĥ ##Ðº",
      "##Ð°Ð½ ##ÑĤ",
      "##ÐµÐ´ ##ÐµÑĪÑĮ",
      "ĠÐ³Ð¾Ð´ ##Ð°",
      "ĠÑĪ ##Ðº",
      "ĠÐ½ÑĥÐ¶ ##Ð½Ð¾",
      "##Ð° ##Ñĩ",
      "##Ñĥ ##Ð»Ñı",
      "ĠÐºÐ°Ðº ##Ð¸Ðµ",
      "ĠÐ¡ ##Ð¾Ð±ÐµÑĢÐ¸",
      "ĠÐ¶Ð¸ ##Ð²",
      "ĠÐ»ÐµÑĤ ##Ð¾Ð¼",
      "ĠÐ²ÑģÑĤÑĢ ##ÐµÑĩ",
      "ĠÐ¿ÐµÑĢÑģÐ¾Ð½Ð°Ð¶ ##Ð°",
      "Ðĵ ##Ð°ÑĢÑĢÐ¸",
      "ĠÐ½Ð°Ð·Ð¾Ð² ##ÐµÐ¼",
      "##Ñģ ##Ð»Ð¸",
      "##ÑĢ ##Ð³",
      "##ÑĢ ##Ð¾Ð±",
      "ĠÑģ ##ÑĩÐ°ÑģÑĤ",
      "ĠÐ¼ ##ÐµÑĩ",
      "##Ð°ÑĤ ##ÐµÐ»ÑĮ",
      "ĠÐ· ##Ð°Ð¼",
      "##Ð»Ð¸ ##Ð²",
      "##ÐµÐ¹ ##ÑĤ",
      "ĠÐ£ ##Ð·Ð½Ð°Ð¹",
      "ĠÐ¶ ##Ð´ÐµÑĤ",
      "ĠÑģÐµÑĢÐ¸Ð°Ð» ##ÑĮ",
      "ĠÐ³Ð» ##Ð°Ð²",
      "ĠÐ½Ð°Ð¹ ##ÑĤÐ¸",
      "##ÐµÐ ##¿",
      "##Ñĭ ##Ðµ",
      "##Ñĥ ##Ð»ÑĮ",
      "##Ð» ##Ñİ",
      "ĠÐº ##Ð½Ð¸",
      "##Ð¿ ##Ð¿",
      "Â» ##,",
      "##Ð½Ð¸ ##Ð¼",
      "##ÑĢÐ° ##ÑĪ",
      "ĠÐ¼ÐµÑĩ ##ÑĤ",
      "Ð ##Ł",
      "##Ð° ##ÑĨ",
      "##ÑĢ ##Ñı",
      "##Ð¾Ð» ##Ð¾Ð³",
      "ĠÐ³ ##ÑĢÑĥ",
      "##ÑĦ ##Ð¸Ð»ÑĮÐ¼",
      "ĠÐ¢ ##ÐµÑģÑĤ",
      "ĠÐµ ##Ðµ",
      "ĠÑĨÐ²ÐµÑĤ ##Ð°",
      "ĠÑįÑĤ ##Ð¾Ð¹",
      "##Ð¾Ð² ##ÑĭÐ¹",
      "##Ð¸ÑĤ ##ÐµÐ»ÑĮ",
      "##ÑģÐº ##Ð¸Ñħ",
      "ĠÐ³ ##Ð´Ðµ",
      "ĠÐ³ÐµÑĢÐ¾Ð¸Ð½ ##Ñı",
      "ĠÐŁÐ¾ÑĤ ##ÑĤÐµÑĢÐ°",
      "##Ð¸ ##ÐºÐ°",
      "##ÑĥÐ´ ##Ð°",
      "ĠÑĦ ##Ð°Ðº",
      "ĠÑįÑĤÐ¾ ##ÑĤ",
      "ÐłÐ¸Ð²ÐµÑĢÐ´ ##ÐµÐ¹",
      "##ÑĢ ##Ð°Ð¼",
      "ĠÐº ##Ð¾ÑĤ",
      "ĠÑĩ ##ÐµÐ³Ð¾",
      "ĠÐ²Ñģ ##Ðµ",
      "ĠÐ¿ÑĢÐ¸Ð½ ##ÑĨ",
      "##e ##n",
      "##ÑĢ ##Ð°Ñģ",
      "##Ñĥ ##ÑĢÐµ",
      "##Ðº ##Ð¾Ð¹",
      "ĠÐ¸ ##Ð³",
      "##Ð´ ##Ñĥ",
      "##Ð· ##Ñĭ",
      "##ÐµÐ» ##Ð°",
      "##Ð¾Ð½ ##Ð°",
      "##Ð°ÐµÑĪÑĮ ##ÑģÑı",
      "ĠÐ³ÐµÑĢÐ¾ ##Ñı",
      "ĠÑģÐ¼ ##Ð¾Ð¶ÐµÑĪÑĮ",
      "ĠÑįÐ¼Ð¾Ð´ ##Ð·Ð¸",
      "ĠÑįÐ¼Ð¾Ð´ ##Ð¶Ð¸",
      "ĠÐ¼ÑĥÐ»ÑĮÑĤ ##ÑĦÐ¸Ð»ÑĮÐ¼",
      "ĠÐ¡Ðº ##Ð¾Ð»ÑĮÐºÐ¾",
      "Ġ ##I",
      "##Ð¼ ##Ð°",
      "ĠÐ° ##Ðº",
      "##ÐµÐ» ##ÐµÐ½",
      "##ÑĥÐ´ ##ÑĮÐ±",
      "##Ð½Ð¾ÑģÑĤ ##Ð¸",
      "##ÑĥÐ» ##Ð¼",
      "ĠÐ¼ÑĥÐ»ÑĮ ##ÑĤÐ¸",
      "ĠÐºÐ¸Ð½ ##Ð¾",
      "##ÑĢ ##Ð°ÑĤÑĮ",
      "ĠÐ¸ ##ÑģÐ¿",
      "##Ñİ ##ÑĢ",
      "##ÑĢÐ¾ ##Ñģ",
      "ĠÑĥ ##Ñĩ",
      "##Ð¾ÑģÑĤ ##ÑĮ",
      "ĠÑįÑĤ ##Ð¸Ð¼",
      "ĠÑģÐ¾ ##ÑĥÐ»Ð¼",
      "ĠÐ½Ð°Ð· ##Ð²",
      "##Ð¾Ñı ##Ñī",
      "ĠÐ»ÑĥÑĩ ##ÑĪ",
      "ĠÐ¸ÑģÑĤ ##Ð¾ÑĢ",
      "ĠÑģÐ¾ÑĥÐ»Ð¼ ##ÐµÐ¹ÑĤ",
      "##n ##e",
      "##Ð¸ÑĤ ##ÐµÐ»",
      "##Ð°Ð½ ##Ð¸",
      "ĠÐ· ##Ð°Ð²",
      "ĠÐ¿ÑĢ ##ÑıÐ¼",
      "ĠÐ¿Ð¾Ñģ ##Ð»",
      "ĠÑģÐ°Ð¼ ##Ð¾Ð¼",
      "ĠÐ´ÐµÐ» ##Ðµ",
      "ĠÐ³ÑĢÑĥ ##Ð¿Ð¿",
      "ĠÐ¿ÑĢÑıÐ¼ ##Ð¾",
      "Ġ ##M",
      "ĠÐ¼ ##Ð¾Ð³",
      "ĠÐ½ ##ÐµÐ´",
      "##Ð°Ð½ ##Ð¸Ñı",
      "##ÑĥÐ¿ ##ÐµÑĢ",
      "ĠÑħÐ°ÑĢÐ°Ðº ##ÑĤÐµÑĢ",
      "ĠÐ¶Ð¸Ð² ##Ð¾ÑĤ",
      "Ð ##ŀ",
      "Ġ ##S",
      "##i ##n",
      "##c ##t",
      "ĠÐº ##Ð»Ð¸",
      "##Ð¾Ð² ##Ð¸",
      "##Ð°Ð½ ##Ð´",
      "ĠÐ· ##Ð°Ðº",
      "ĠÑĩ ##ÐµÑĢ",
      "##Ð¾Ð¶ ##ÐµÑĤ",
      "ĠÐºÐ¾ÑĢ ##ÐµÐ¹",
      "ĠÑĢÐ°ÑģÑģÐº ##Ð°Ð¶ÐµÐ¼",
      "ĠÐŁÑĢÐ¾Ð² ##ÐµÑĢÑĮ",
      "##ÐµÐ»Ð¾Ð² ##ÐµÐº",
      "ĠÐºÐ½Ð¸ ##Ð³",
      "Ġ ##7",
      "Ġ ##â",
      "##Ðµ ##ÑģÑı",
      "##ÑĤ ##ÑĢ",
      "##ÑĮ ##Ñı",
      "ĠÐļ ##ÐµÐ¼",
      "##Ð¾Ð» ##Ð½",
      "ĠÐ· ##Ð¸Ð¼",
      "Â» ##:",
      "ĠÐ¿ÑĢ ##Ð¾Ð³",
      "##Ð¾Ð¶ ##Ð´",
      "##ÐµÐº ##Ñģ",
      "ĠÐºÐ°Ð´ ##ÑĢÑĥ",
      "ĠÐ·Ð°Ð¼ ##ÑĥÐ¶",
      "ÐłÐ¸Ð²ÐµÑĢÐ´ÐµÐ¹ ##Ð»Ð°",
      "Ġâ ##Ģ",
      "##Ñĭ ##Ð¼",
      "##ÐµÐ½ ##Ð¸",
      "##Ð¾Ð» ##Ð¾Ð²",
      "ĠÐ¾ ##Ðº",
      "ĠÐ¿ÑĢ ##Ð¾Ð¹Ð´ÐµÑĤ",
      "ĠÐĿ ##Ð°Ð¹",
      "ĠÐ³Ð» ##Ð°Ð·",
      "ĠB ##T",
      "ĠÐ³Ð¾ÑĢ ##Ð¾Ð´",
      "##ÑĥÐ»Ñı ##ÑĢ",
      "ĠÐºÐ»Ð¸ ##Ð¿",
      "ĠâĢ ##ĵ",
      "Ñ ##Ĥ",
      "ĠÑģ ##ÑĢÐµÐ´",
      "ĠÐ± ##Ð»Ð¸",
      "##Ð¾Ð¼ ##Ð°Ð½",
      "##Ð°Ð¼ ##Ð¸",
      "##ÑĢÐµÐ½ ##Ð´",
      "ĠÐ¿ÑģÐ¸Ñħ ##Ð¾Ð»Ð¾Ð³",
      "ĠBT ##S",
      "Ð ##ľ",
      "Ð ##Ĵ",
      "##Ñĥ ##Ð½",
      "ĠÑĤ ##Ð¸Ð¿",
      "##Ðº ##Ð¾Ð²",
      "ĠÑģ ##ÑĥÐ´ÑĮÐ±",
      "ĠÐ² ##Ð¾Ð·",
      "##Ð± ##ÐµÑĢ",
      "##ÑĢÐ¸ ##Ð³",
      "ĠÑģÐ¼ ##Ð¾ÑĤ",
      "ĠÐ¼Ð°Ð½ ##Ð¸Ðº",
      "ĠÐ²ÑģÑĤÑĢÐµÑĩ ##Ð°ÑĤÑĮÑģÑı",
      "##e ##a",
      "##Ð» ##Ð¸ÑĤ",
      "ĠÐ² ##ÑĭÐ¹",
      "##Ð¾Ð² ##Ð°ÑĤÑĮ",
      "ĠÐ½Ð° ##Ñĩ",
      "##Ð½Ð¸ ##Ðµ",
      "ĠÑĢ ##ÑĥÑģ",
      "ĠÐ»Ð¸ ##Ñĩ",
      "ĠÑģÐµÑĢÐ¸Ð°Ð» ##Ð¾Ð²",
      "##Ð°Ð± ##Ð¾ÑĤ",
      "ĠÐ½Ð°ÑģÑĤ ##Ð¾ÑıÑī",
      "ĠÐ¿Ð» ##Ð°ÑĤÑĮ",
      "ĠÐ¿ÑĢÐ¾Ð² ##ÐµÐ´ÐµÑĪÑĮ",
      "##Ð¸ ##Ð»Ð°",
      "##Ð°Ð¶ ##ÐµÑĤ",
      "##Ð¾Ð¼ ##Ñĥ",
      "ĠÐ´ ##Ð¾Ð»",
      "##Ð¿ ##ÑĢÐ°Ð²",
      "ĠÐ¿Ð¾ ##Ñĩ",
      "ĠÐ¿ÑĢ ##Ð¸Ð²",
      "##Ð¾ÑĢ ##Ð¸Ð¼",
      "ĠÑģÑĤ ##Ð°Ð½ÐµÑĤ",
      "##Ð¾Ð± ##Ñĭ",
      "ĠÐ¾Ð¿Ð¸ ##Ñģ",
      "ĠÐ»ÑİÐ±Ð¸Ð¼ ##ÑĭÐ¹",
      "ĠÐ¿Ð¾Ð¿ ##ÑĥÐ»ÑıÑĢ",
      "ĠÑįÑĤÐ¸ ##Ñħ",
      "ĠÑģÐ¾Ð² ##ÐµÑĤ",
      "##ÑĢ ##Ð°Ñħ",
      "##Ñĥ ##ÑĢ",
      "##ÑĮ ##Ñİ",
      "ĠÑģ ##ÐµÑĢÐ´",
      "##ÑĪ ##Ð»",
      "ĠÐ¼ ##ÐµÑģÑı",
      "##ÑĨ ##Ðº",
      "ĠÐĿ ##Ð°Ð·",
      "ĠÐ¿Ð¾Ð´ ##Ð°ÑĢ",
      "ĠÑģÐ²Ð¾ ##ÐµÐ³Ð¾",
      "ĠÐ´ÑĢÑĥÐ³ ##Ð¸Ðµ",
      "ĠD ##i",
      "ĠÐĿÐ°Ð¹ ##Ð´Ð¸",
      "##a ##r",
      "ĠÑĤ ##ÑĥÑĢÐµ",
      "ĠÑģ ##Ð¾ÑģÑĤ",
      "ĠÐ² ##ÐºÑĥ",
      "ĠÐ¸Ð· ##Ð²ÐµÑģÑĤ",
      "ĠÐ¿ÑĢ ##Ð°Ð²",
      "ĠÐ¿ÑĢ ##Ð¸Ð³",
      "ĠÐĿ ##Ð¾Ð²ÑĭÐ¹",
      "##Ð¾ÑĤ ##Ð¾Ð²ÑĮ",
      "ĠÑģÐ» ##Ð¾Ð²",
      "ĠÑįÐ¼ ##Ð¾ÑĨ",
      "ĠÐ¡Ð¿ ##Ð¾ÑĢÐ¸Ð¼",
      "ĠÐ²Ð»ÑİÐ± ##Ð»ÐµÐ½",
      "ÐŃ ##Ð»Ð¸ÑĤ",
      "ĠÐ¼Ð°Ð½Ð¸Ðº ##ÑİÑĢ",
      "##Ð¾ ##ÑģÐ¾Ð²",
      "##Ñģ ##Ð¸Ð¸",
      "ĠÐ¿ ##Ð¾Ð·",
      "##Ð» ##ÐµÑĤ",
      "ĠÐ² ##Ð¾",
      "##Ð°Ð½ ##Ð¸Ð·",
      "ĠÐ° ##Ð¹",
      "##ÑĢÑĥ ##Ð¶",
      "##ÑĢÐ° ##ÑģÑĤ",
      "##Ð½Ðµ ##Ðµ",
      "ĠÐ½Ð°ÑģÑĤ ##ÑĢÐ¾",
      "##Ð°Ñİ ##ÑĤ",
      "ĠÑįÐº ##ÑģÑĤÑĢ",
      "##ÑĢÐ³ ##Ð°Ð½Ð¸Ð·",
      "ĠÐĿÐ°Ð· ##Ð¾Ð²Ð¸",
      "ĠÑĤÑĥÑĢÐµ ##ÑĨÐº",
      "##s ##h",
      "##Ð¸ ##ÑĪ",
      "ĠÐ² ##ÐµÑĩ",
      "##Ñĩ ##ÐµÐ½ÑĮ",
      "ĠÐ´ ##Ð¾",
      "##ÑģÐº ##Ð¾Ð¹",
      "ĠÑĩ ##ÐµÑĢÑĤ",
      "ĠÑĩ ##ÐµÐ»Ð¾Ð²ÐµÐº",
      "##Ð¾Ñĩ ##ÐºÐ°",
      "ĠÐ¿ÐµÑģ ##Ð½Ñİ",
      "ĠÑģÐ¾ ##Ð¾Ð±",
      "ĠÐ¸Ð´ÐµÐ°Ð»ÑĮ ##Ð½ÑĭÐ¹",
      "ĠÐ»ÑĥÑĩ ##ÑĪÐµ",
      "ĠÐ½ÐµÐ´ ##ÐµÐ»",
      "Ð ##ļ",
      "##p ##a",
      "##ÑĢ ##Ð¸Ð½",
      "ĠÑĤ ##ÑĢ",
      "ĠÑģ ##Ñĭ",
      "ĠÑģ ##ÐµÑĢ",
      "ĠÑģÐ² ##Ð°Ð´",
      "ĠÑĦÐ¸Ð»ÑĮÐ¼ ##Ð°",
      "ĠÐł ##Ð°ÑģÑģÐº",
      "ĠÑģÐ» ##ÑĥÑĩ",
      "ĠÑģÑĢÐµÐ´ ##Ð¸",
      "ĠÐ²ÐºÑĥ ##Ñģ",
      "ĠÐ°Ð¹ ##Ð´",
      "ĠÐłÐ°ÑģÑģÐº ##Ð°Ð¶Ð¸",
      "Ð ##ĳ",
      "##Ð¾ ##Ñħ",
      "ĠÐ¼ ##Ð¾ÑĢ",
      "##ÐµÐ½ ##Ð°",
      "##Ð¾Ð» ##Ð¾ÑģÐ¾Ð²",
      "##ÑģÐº ##ÑĥÑİ",
      "ĠÐ¡ ##ÑĤ",
      "ĠÐ¿ÑĢ ##Ð¸",
      "ĠÑĢ ##Ð¾Ð´",
      "ĠÐŁ ##ÑĢÐ¸Ð³",
      "ĠÐ¾ÑĤÐ½Ð¾ÑĪÐµÐ½Ð¸Ñı ##Ñħ",
      "ĠÐ¿ÑĢÐ¾Ð³ ##Ð¾Ð»Ð¾ÑģÐ¾Ð²",
      "ĠÐ¿Ð»Ð°ÑĤÑĮ ##Ðµ",
      "ĠÐ¿ÑĢÐ¾Ð³Ð¾Ð»Ð¾ÑģÐ¾Ð² ##Ð°Ð»Ð¸",
      "##m ##pa",
      "##ÑĢ ##ÑıÑĤ",
      "##ÑĪ ##ÐµÐ±",
      "ĠÐ¼ ##ÐµÐ¼",
      "##Ñĩ ##Ð¸Ðº",
      "##Ð¾Ð» ##ÑĪÐµÐ±",
      "ĠÐ» ##Ñİ",
      "ĠÑĥ ##ÑģÐ¿",
      "ĠÐ¿Ð¾ ##ÑģÑĤ",
      "ĠÐ±Ñĭ ##ÑĤÑĮ",
      "##Ð½Ð¸ ##ÑĨ",
      "ĠÑĢ ##Ð°Ð±Ð¾ÑĤ",
      "ĠÑģÑĤ ##Ð¸Ñħ",
      "ĠÐł ##Ð¾Ñģ",
      "ĠÑĢÐ°Ð· ##Ð±",
      "ĠÑģÐ¿ ##ÑĢÑıÑĤ",
      "ĠÐ¿Ð¾Ð´ÑģÐº ##Ð°Ð¶ÐµÐ¼",
      "##en ##sh",
      "ĠI ##mpa",
      "ĠÐ¿ÑģÐ¸ÑħÐ¾Ð»Ð¾Ð³ ##Ð¸ÑĩÐµÑģÐº",
      "ĠÑģÐ¼Ð¾ÑĤ ##ÑĢÐ¸",
      "##ensh ##in",
      "ĠImpa ##ct",
      "##Ñģ ##Ñĭ",
      "ĠÐ² ##ÐµÑģ",
      "ĠÐ¶ ##Ð¸ÑĤÑĮ",
      "##ÑĢÑĥ ##Ð·",
      "ĠÐºÐ°ÑĢÑĤÐ¸Ð½ ##ÐºÐµ",
      "##Ð»Ð°Ñģ ##ÑĮ",
      "ĠÐ´Ð¾ÑĢÐ°Ð¼ ##Ñĥ",
      "ĠÐ¿Ð¾Ð»ÑĥÑĩ ##Ð¸",
      "ĠÐ²ÑĭÐ¹ ##Ð´ÐµÑĪÑĮ",
      "ĠÑģÐ»ÑĥÑĩ ##Ð¸ÑĤÑģÑı",
      "ĠÐŁÑĢÐ¸Ð³ ##Ð¾ÑĤÐ¾Ð²ÑĮ",
      "Ð ##·",
      "##Ñ ##Ĭ",
      "##Ñĥ ##Ð²",
      "##Ð½ ##Ð³",
      "ĠÑĤ ##ÐµÑģÑĤ",
      "##Ð² ##Ð°",
      "##ÐµÑĢ ##Ð°",
      "##Ð¼ ##Ð¸",
      "##ÑĢÐ¾ ##ÑģÑĤ",
      "ĠÑĥ ##Ð²",
      "ĠÐ¿Ð¾ ##ÑĨ",
      "##ÐµÐ´ ##Ð¸",
      "ĠÐ¿ÑĢÐ¾ ##ÑĪÐ»",
      "Ġ20 ##1",
      "##Ð¾Ð· ##Ð´",
      "ĠÐ¥ ##Ð¾Ð³",
      "ĠÑģÑĤÑĢÐ°Ð½ ##Ñĥ",
      "ĠÐ¼ÑĥÐ¶ ##Ð°",
      "##Ð¾Ð»Ð¾Ñģ ##ÑĥÐ¹",
      "ĠÑģÐµÐ± ##Ñı",
      "ĠÑĦÐ°Ðº ##ÑĤ",
      "ĠÐ²Ð¾Ð· ##ÑĢÐ°ÑģÑĤ",
      "ĠÐ´Ð¾Ð» ##Ð¶",
      "##Ðµ ##Ðµ",
      "##Ðµ ##ÑĨ",
      "##Ð½ ##ÑĥÑĤ",
      "ĠÑģ ##ÑĥÐ¿ÐµÑĢ",
      "##Ñı ##Ð½",
      "##Ð² ##Ð°ÑĢÑĤ",
      "##Ð¼ ##ÐµÑĤ",
      "##ÑģÐº ##Ð¾Ð³Ð¾",
      "##Ð¿ ##Ñĥ",
      "ĠÑĢ ##Ð°Ñģ",
      "ĠÑĢ ##Ð¾Ð¼Ð°Ð½",
      "ĠÐĵ ##Ð¾Ð»Ð¾ÑģÑĥÐ¹",
      "ĠÐ¿Ð¾Ð´ ##ÑĢÑĥÐ³",
      "ĠÐ¿ÑĢÐ¾ ##ÑĦ",
      "##ÑĢÐ° ##ÑĦ",
      "ĠÐ¿ÐµÑĢÑģÐ¾Ð½Ð°Ð¶ ##ÐµÐ¹",
      "##Ð»Ð°Ñģ ##Ñģ",
      "ĠG ##enshin",
      "##ÑĥÐ»ÑĮ ##ÑĤ",
      "ĠÐ¿Ð¾Ñĩ ##ÐµÐ¼Ñĥ",
      "ÐŃÐ»Ð¸ÑĤ ##Ñĭ",
      "ĠÑģÐµÑĢ ##Ð´Ðµ",
      "Ð ##¿",
      "Ð ##Ĳ",
      "##ÑĢ ##Ð¾Ð¼",
      "##Ð» ##Ð¾Ð¶",
      "##Ð» ##Ð¾Ñĥ",
      "ĠÐº ##ÑĢÐ°ÑĪ",
      "##Ð´ ##Ð¶",
      "ĠÐ· ##Ð»",
      "##ÑģÐº ##Ð°Ð·",
      "ĠÑĥ ##Ð¶",
      "##ÐµÑĪÑĮ ##ÑģÑı",
      "##Ð¾ÑĤ ##Ð¾Ð²Ð°",
      "ĠÑģÐ» ##ÐµÐ´",
      "Ġ202 ##1",
      "##Ð¼Ðµ ##ÐµÑĪÑĮ",
      "ĠÐ±ÑĥÐ´ÑĥÑī ##ÐµÐ³Ð¾",
      "##ÐµÑģÑĤÐ² ##ÐµÐ½",
      "ĠÑģÐºÐ°Ð· ##Ð°Ð»",
      "ĠÑģÑĩÐ°ÑģÑĤ ##Ð»Ð¸Ð²",
      "##ea ##m",
      "ĠDi ##s",
      "ĠÑģÐ¾ÑģÑĤ ##Ð¾Ñı",
      "ĠÐłÐ¾Ñģ ##ÑģÐ¸Ð¸",
      "ĠÐ¥Ð¾Ð³ ##Ð²Ð°ÑĢÑĤ",
      "Ġ ##(",
      "##Ñĥ ##ÐµÑĤ",
      "ĠÑĤ ##ÑĢÐ°Ð²",
      "##Ð² ##Ð°ÑĤ",
      "ĠÐ¸ ##Ð¼",
      "ĠÐº ##ÑĥÐ¿",
      "ĠÐ¼ ##Ð¸ÑĢ",
      "##ÐµÑĤ ##ÐºÐ°",
      "ĠÐļ ##Ð°ÑĢ",
      "ĠÐļÐ°Ðº ##Ð¸Ð¼",
      "##Ð¾Ð³ ##ÑĢÐ°ÑĦ",
      "ĠÑĢ ##Ð¾Ð¶Ð´",
      "##Ð°Ð¼ ##Ð¿Ð¸",
      "##ÐµÑģ ##ÐµÑĤ",
      "ĠÑģÐ²Ð¾ ##ÐµÐ¹",
      "##Ð¸ÑĢ ##Ð°ÐµÑĪÑĮÑģÑı",
      "##ÑıÑĤ ##ÑĮ",
      "##Ð½Ð¸Ðº ##Ð¾Ð²",
      "ĠÐ¾ÑĤÐ»Ð¸Ñĩ ##Ð¸ÑĤÑĮ",
      "##Ð¸Ð¾Ð½ ##Ð°Ð»ÑĮ",
      "##ne ##y",
      "ĠÑģÐ¾Ð¾Ð± ##ÑĢÐ°Ð·",
      "ĠÐ¿Ð¾ÑĨ ##ÐµÐ»",
      "ĠÑģÐµÑĢÐ´Ðµ ##Ñĩ",
      "ĠDis ##ney",
      "##e ##t",
      "##Ð¾ ##ÑĤÐ¾",
      "ĠÑĤ ##Ð¾Ñĩ",
      "ĠÑģ ##ÐµÐ¼",
      "ĠÐ¸ ##Ð¼ÐµÐ½",
      "ĠÐº ##ÑĢÐ°Ñģ",
      "ĠÐ² ##ÑĭÐ±",
      "##Ð³ ##Ð»Ñı",
      "##Ð°Ð½ ##Ð¸Ñİ",
      "##Ð¸Ð½ ##Ð³",
      "##ÑĢÑĥ ##Ð¹",
      "ĠÐŁ ##Ð¾Ð¿",
      "##Ð´Ð° ##Ñĩ",
      "ĠÐ¾Ð± ##ÑĢÐ°Ð·",
      "ĠÐ·Ð½Ð°Ðº ##Ñĥ",
      "##Ñį ##Ð»",
      "ĠÐºÐ¾ ##ÑĤÐ¾ÑĢ",
      "##ÐµÑģÑĤÐ² ##Ð¾",
      "ĠÐ¾Ñģ ##ÐµÐ½ÑĮ",
      "ĠÐĺ ##Ð·",
      "##ÑĢÐµÐ¼ ##Ñı",
      "ĠÐ¶Ð¸Ð²Ð¾ÑĤ ##Ð½Ð¾Ðµ",
      "ĠÑģÐ¾Ð¾Ð±ÑĢÐ°Ð· ##Ð¸ÑĤÐµÐ»ÑĮ",
      "Ñ ##ħ",
      "##Ð° ##ÑĪ",
      "##Ðµ ##Ñħ",
      "##Ð½ ##ÐµÐ²",
      "##ÑĮ ##Ðµ",
      "##Ð» ##Ð°Ð½Ð¸",
      "ĠÐº ##Ð°ÑĢ",
      "ĠÐ² ##Ð¾Ð»ÑĪÐµÐ±",
      "ĠÐ² ##Ð°Ð¼Ð¿Ð¸",
      "##Ð¾Ð¹ ##ÑĤÐ¸",
      "##Ð°Ð½ ##Ð½ÑĭÑħ",
      "ĠÐ´ ##Ð¾ÑģÑĤ",
      "ĠÑĥ ##Ð´Ð°Ñĩ",
      "ĠÑĦ ##Ð¾ÑĤ",
      "##ÐµÐ² ##ÑĢ",
      "ĠÐµ ##ÑģÐ»Ð¸",
      "ĠÐľ ##Ñĭ",
      "ĠÐºÐ°ÑĢÑĤÐ¸Ð½ ##Ñĥ",
      "ĠÐ±ÑĥÐ´ÑĥÑī ##Ð¸Ð¹",
      "ĠÐ¸Ð´ÐµÐ°Ð»ÑĮ ##Ð½Ð¾",
      "##ÑĢÑı ##Ð´",
      "##Ð·Ñĭ ##Ðº",
      "ÑĤ ##ÐµÑģÑĤ",
      "ĠÐ±Ð»Ð¸ ##Ð¶",
      "ĠÑģÐµÑĢÐ´ ##ÑĨÐµ",
      "ĠÑĢÐ°Ð·Ð± ##Ð¸ÑĢÐ°ÐµÑĪÑĮÑģÑı",
      "ĠÑģÐ¾Ð¾Ð±ÑĢÐ°Ð·Ð¸ÑĤÐµÐ»ÑĮ ##Ð½Ð¾ÑģÑĤÑĮ",
      "##Ð»Ð°Ð½Ð¸ ##ÑĢÑĥÐ¹",
      "Ð ##¢",
      "##Ñĥ ##Ð³",
      "##Ð¾Ð² ##Ð¾Ð¹",
      "##Ð± ##Ð¸",
      "##ÐµÐ½ ##Ð½Ð°Ñı",
      "##Ð°Ð½ ##Ñĭ",
      "ĠÐ¾ ##Ð½",
      "##ÐµÐ´ ##ÑĮ",
      "ĠÑĦ ##Ð°Ð½",
      "ĠÐ¶ ##ÐµÐ½",
      "ĠÐµ ##Ð»",
      "##Ð¾Ñĩ ##ÐºÑĥ",
      "ĠÐ²Ñĭ ##ÑħÐ¾Ð´",
      "ĠÐ¿ÑĢÐ¸Ð½ ##ÐµÑģÐµÑĤ",
      "##ÑĭÐ² ##Ð°ÐµÑĤ",
      "ĠÑĪÐº ##Ð¾Ð»",
      "##ÑĢÐ¾Ð± ##ÑĥÐ¹",
      "Ġ ##N",
      "##Ð ##ĵ",
      "##ÑĤ ##Ð°",
      "##Ñģ ##Ð»",
      "##Ð½ ##ÐµÐ¹",
      "ĠÑģ ##ÐµÐ»",
      "ĠÐ¼ ##Ð¾Ð´",
      "##Ð¾Ð¹ ##ÑĦ",
      "ĠÐ° ##Ð»ÑĮ",
      "ĠÐ¡ ##Ð²",
      "ĠÑģÑĤ ##ÑĢÐ¾Ñĩ",
      "ĠÐ·Ð½ ##Ð°ÐºÐ°",
      "ĠÐ¢ ##Ð²",
      "ĠÐ¿ÐµÑģ ##Ð½Ð¸",
      "ĠÐ±ÑĥÐ´ÑĥÑī ##ÐµÐ¼",
      "ĠÐ¡Ð¿ ##Ð»Ð°Ð½Ð¸ÑĢÑĥÐ¹",
      "ĠÐ¸Ð½ ##ÑĤÐµÑĢ",
      "ĠÑģÐµÐ± ##Ðµ",
      "Ðŀ ##ÑĩÐµÐ½ÑĮ",
      "ĠÑĩÐµÑĢ ##ÐµÐ·",
      "ĠÐ¿ÑĢÐ¾ÑĦ ##ÐµÑģÑģ",
      "ĠÐ·Ð» ##Ð¾Ð´",
      "##Ðĵ ##Ð",
      "Ñ ##Ģ",
      "Ġ ##9",
      "##e ##l",
      "##Ð» ##Ðµ",
      "ĠÐº ##Ð»Ð°ÑģÑģ",
      "ĠÐ¼ ##Ð°Ðº",
      "##Ð¼ ##Ñĭ",
      "ĠÐ± ##ÑĥÐº",
      "ĠÐ± ##Ð¾Ð¹ÑĦ",
      "ĠÐ¾ ##Ð¿",
      "ĠÐ¾ ##ÑĢÐ³Ð°Ð½Ð¸Ð·",
      "ĠÐ´ ##Ð¾Ð¼Ð°",
      "ĠÐ¸Ð· ##Ð¼ÐµÐ½",
      "ĠÐ¡ ##Ð¾Ð·Ð´",
      "##Ð¾ÑĢ ##ÑĤ",
      "##Ð¾Ð¶ ##ÐµÐ½",
      "##ÑĥÑİ ##Ñī",
      "ĠÑĦ ##Ð¾ÑĤÐ¾",
      "##ÐµÑģÑĤ ##Ð¸",
      "##ÑĤÐ¸ ##Ñĩ",
      "ĠÐºÐ¾Ð¼ ##Ð¿",
      "ĠÐ¾Ñģ ##ÐµÐ½",
      "ĠÑĪÐº ##Ð¾Ð»ÑĮ",
      "ĠÑģÑĭ ##Ð³",
      "ĠÑĤÑĢÐ°Ð² ##Ð¼Ð°",
      "ĠÐ¡Ð¾Ð·Ð´ ##Ð°Ð¹",
      "##Ð° ##ÑģÐº",
      "##Ñģ ##ÑĮ",
      "##ÑĢ ##Ð°Ð¶",
      "##Ñĥ ##Ñħ",
      "##Ð» ##Ð¾Ðº",
      "ĠÐ¼ ##Ð¸Ð»",
      "ĠÐ¼ ##Ð½Ð¾Ð³Ð¾",
      "##ÐµÑĤ ##ÑģÑı",
      "##ÐµÐ½ ##Ð¾Ðº",
      "ĠÐ± ##Ð»Ñİ",
      "ĠÐ¿Ð¾ ##ÑĢ",
      "##ÑĨ ##Ð¾",
      "##Ð½Ð¸ ##ÑĨÐ°",
      "ĠÑĢ ##ÐµÐ±",
      "##Ð°Ñģ ##ÑĮ",
      "ĠÐ¿ÑĢÐ¾ ##Ð¸Ð·",
      "ĠÑĨÐ²ÐµÑĤ ##Ð¾Ðº",
      "ĠÐºÐ¾ ##ÑĦ",
      "ĠÐ¼ÐµÑĩÑĤ ##Ñĭ",
      "ĠÑģÑĥÐ´ÑĮÐ± ##Ð°",
      "ĠÐ¾Ð¿Ð¸Ñģ ##ÑĭÐ²Ð°ÐµÑĤ",
      "##Ð¿Ñĥ ##ÑģÐº",
      "Ð ##Ĺ",
      "ĠÐļÐ°Ðº ##Ð¾Ð³Ð¾",
      "##Ð°Ð» ##Ð°ÑģÑĮ",
      "ĠÐ¢ ##Ð¾Ð»ÑĮÐºÐ¾",
      "##Ð¸Ñģ ##ÑĮ",
      "##Ð¸ÑĢ ##Ð°Ð¹",
      "ĠÐ¿ÑĢÐµÐ´ ##ÑģÐºÐ°Ð·",
      "ĠÑħÐ°ÑĢÐ°Ðº ##ÑĤÐµÑĢÐ°",
      "ĠÐķ ##ÐĵÐ",
      "##Ð°ÑĨ ##Ð¸Ñı",
      "ĠÐ¿ÑĢÐ¸Ð½ÑĨ ##ÐµÑģÑģ",
      "ĠÑģÐ»ÐµÐ´ ##ÑĥÑİÑī",
      "ĠÑĤÐ¾Ñĩ ##Ð½Ð¾",
      "ĠÐŁÐ¾Ð¿ ##ÑĢÐ¾Ð±ÑĥÐ¹",
      "##ÑįÐ» ##Ð»Ð¾Ñĥ",
      "ĠÐķÐĵÐ ##Ń",
      "Ġ ##[",
      "##i ##x",
      "ĠÑģ ##ÐµÐ·",
      "##Ð» ##Ð°Ð´",
      "##Ð» ##ÐµÐº",
      "##Ð² ##ÐµÑĢ",
      "ĠÐº ##ÑĢÑĥ",
      "##Ð¾Ð² ##Ð¾ÑĢ",
      "##ÐµÐ½ ##Ð´",
      "##Ð¸ÑĤ ##ÐµÑĢ",
      "##Ð°ÑĤ ##Ñĥ",
      "ĠÐ´ ##Ð¾Ð¼",
      "ĠÐĴÑĭÐ± ##Ð¸ÑĢÐ°Ð¹",
      "##Ð¸Ð¼ ##Ð°",
      "ĠÑģÑĤ ##Ð°Ð½",
      "##Ñī ##ÐµÐ½Ð½Ð°Ñı",
      "ĠÐºÐ¾ ##ÑĤÐ¾",
      "ĠÐºÐ°Ð´ ##ÑĢÐ°Ñħ",
      "ĠÑįÐºÑģÑĤÑĢ ##ÐµÐ¼",
      "Ð· ##Ð°Ð¿",
      "ĠÐ´Ð¾Ð»Ð¶ ##Ð½Ð°",
      "##o ##n",
      "##L ##A",
      "##ÑĢ ##Ð°Ðº",
      "ĠÐ¿ ##Ð¾Ð²",
      "##Ð» ##Ð¾Ð½",
      "##Ð¼ ##Ð°Ð½",
      "ĠÐļ ##ÑĢÐ¸",
      "##ÐµÐ½ ##Ð¸Ð¸",
      "##Ð¾Ð» ##Ð¾Ð´",
      "##Ð¸ÑĤ ##Ð°Ð½",
      "ĠÑĤÐ²Ð¾ ##ÐµÐ¼",
      "##Ð¾ÑĢ ##Ð°",
      "ĠÑĦ ##ÐµÐ²ÑĢ",
      "ĠÑħ ##Ð²Ð°ÑĤ",
      "ĠÐ¿ÑĢÐ¾ ##ÑģÑĤ",
      "ĠÐ²Ñģ ##ÐµÐ»ÐµÐ½",
      "ĠÐ»ÐµÑĤ ##Ð¾",
      "##ÑĢÐµ ##ÑīÐµÐ½Ð½Ð°Ñı",
      "ĠÐºÐ°ÑĢÑĤÐ¸Ð½ ##ÐºÐ¸",
      "##ÑĥÐ» ##ÐµÑĤÐºÐ°",
      "##Ð¸ÑģÑĤ ##ÑģÐºÐ°Ñı",
      "ĠÐ°Ðº ##ÑĤÐµÑĢ",
      "ĠÑĩÐµÑĢÑĤ ##Ñĥ",
      "##ÑĥÐ² ##ÑģÑĤÐ²",
      "ĠÐ¿ÑĢÐ¾ÑĪÐ» ##Ð¾Ð¹",
      "ĠÐ¥Ð¾Ð³Ð²Ð°ÑĢÑĤ ##ÑģÐ°",
      "ĠÐ¸Ð¼ ##Ñı",
      "ÑĢ ##ÑĥÐ»ÐµÑĤÐºÐ°",
      "ĠÐ¾ÑĢÐ³Ð°Ð½Ð¸Ð· ##Ð°ÑĨÐ¸Ñı",
      "ĠÑįÐºÑģÑĤÑĢÐµÐ¼ ##Ð¸ÑģÑĤÑģÐºÐ°Ñı",
      "Ð·Ð°Ð¿ ##ÑĢÐµÑīÐµÐ½Ð½Ð°Ñı",
      "ĠÑħÐ²Ð°ÑĤ ##Ð°ÐµÑĤ",
      "##I ##N",
      "##Ð° ##ÑĢÐ¾Ñĩ",
      "##Ñı ##Ð±",
      "##Ð´ ##ÐµÐ¹",
      "ĠÐļÐ°Ðº ##Ð¸Ðµ",
      "ĠÐ´ ##ÑĥÐ¼",
      "##ÑĨ ##Ñĥ",
      "ĠÑĢ ##Ðµ",
      "ĠÐ·Ð½ ##Ð°ÐµÐ¼",
      "##Ð¸Ñı ##Ð¶",
      "ĠÐ»ÑİÐ± ##Ð¾Ð²",
      "##Ð¸Ð»ÑĮ ##Ð½Ð¾",
      "##Ð¸Ð´ ##ÐµÐ»Ð°",
      "ĠÐ¿Ð¾Ð¿ ##ÑĢÐ¾Ð±",
      "ĠÐºÐ¾ÑĢ ##Ð¾Ð»",
      "ĠÐ·Ð½Ð°Ð¼ÐµÐ½Ð¸ÑĤ ##Ð¾ÑģÑĤÑĮ",
      "ĠÐ½Ð°Ð¿ ##Ð¸Ñģ",
      "ĠÐ¸ÑģÐ¿ ##Ð¾Ð»Ð½",
      "ĠÐ½Ð°ÑģÑĤÐ¾ÑıÑī ##Ð¸Ð¹",
      "##Ð¿ÑĢÐ°Ð² ##Ð»Ñı",
      "##ÑĢÑĥÐ· ##ÐµÐ¹",
      "ĠÑģÐ¾ÑģÑĤÐ¾Ñı ##Ð½Ð¸Ðµ",
      "ĠÐ±Ð»Ð¸Ð¶ ##Ð°Ð¹",
      "ĠÑĦÐ°Ð½ ##Ð°ÑĤ",
      "##IN ##K",
      "Ð ##Ŀ",
      "##K ##P",
      "##l ##e",
      "##C ##KP",
      "ĠÑģ ##Ð½",
      "ĠÐ¿ ##ÑĥÑĤ",
      "##Ñı ##Ñĩ",
      "ĠÐº ##Ð¾Ñģ",
      "##ÐµÑĢ ##Ð¾Ð¼",
      "##ÑĪ ##Ð¸",
      "##ÑĪ ##ÐºÐ°",
      "ĠÐ² ##Ð·",
      "ĠÐ² ##Ð¾Ð»Ð¾Ñģ",
      "ĠÐ² ##Ð½Ð¸Ð¼",
      "ĠÐ½ ##Ð°Ð´",
      "ĠÐļ ##Ð²ÐµÑģÑĤ",
      "##Ñĩ ##Ð¾Ð½",
      "ĠÐ½Ð° ##ÑĢÑıÐ´",
      "ĠÐ´ ##Ð²",
      "ĠÐ´ ##ÑĥÑĪ",
      "##Ð°ÑĢ ##Ð´",
      "ĠÐ° ##Ð½Ð³",
      "##Ð»Ð¸ ##Ð½",
      "##ÐµÐ¹ ##Ð»",
      "ĠÐ±Ñĭ ##Ð»",
      "ĠÐŁ ##ÑĢ",
      "##ÑĤÐ¸ ##Ð²",
      "ĠÐľ ##Ð°ÑĢ",
      "ĠÑģÑĤÑĢÐ°Ð½ ##Ð½ÑĭÑħ",
      "ĠÐ³ÐµÑĢÐ¾Ð¸Ð½ ##Ñİ",
      "ĠB ##LA",
      "ĠÐ¾ÑĤÐ»Ð¸Ñĩ ##Ð¸Ð¹",
      "##Ð°Ñİ ##Ñī",
      "ĠÐ¸Ð³ ##ÑĢÑĥ",
      "ĠÐ¸ÑģÑĤÐ¾ÑĢ ##Ð¸Ñİ",
      "ĠÐ¼ÐµÑģÑı ##ÑĨ",
      "ĠÐ¿ÑĢÐ¸Ð³ ##Ð»Ð°Ñģ",
      "ĠÑįÐ¼Ð¾ÑĨ ##Ð¸Ð¾Ð½Ð°Ð»ÑĮ",
      "ĠÑģÐ²Ð°Ð´ ##ÑĮÐ±",
      "ĠÑģÐ¿ÑĢÑıÑĤ ##Ð°Ð½Ð½ÑĭÑħ",
      "ĠÑĥÐ² ##Ð¸Ð´ÐµÐ»Ð°",
      "ĠÑģÐµÑĢÐ´ÐµÑĩ ##ÐºÐ¾",
      "ĠÑĦÐ¾ÑĤ ##Ð¾Ð³ÑĢÐ°ÑĦ",
      "ĠÑģÐµÐ» ##ÐµÐ±",
      "ĠÐ°Ð»ÑĮ ##Ð±",
      "ĠÐ±Ð¾Ð¹ÑĦ ##ÑĢÐµÐ½Ð´",
      "ĠÐ¿Ð¾Ð¿ÑĢÐ¾Ð± ##Ð¾Ð²Ð°ÑĤÑĮ",
      "##CKP ##INK",
      "ĠBLA ##CKPINK",
      "Ġ ##C",
      "ĠÑģ ##Ð½Ñı",
      "ĠÐ¿ ##Ð°Ð»",
      "ĠÐ¿ ##Ð¾Ð½",
      "ĠÐ¸ ##Ñħ",
      "ĠÐ² ##ÑĢÐµÐ¼Ñı",
      "ĠÐ¼ ##ÐµÑĪ",
      "##ÑģÑĤ ##Ð°Ð³",
      "ĠÐ´ ##ÐµÑģ",
      "ĠÑĢ ##Ð¾Ð»ÑĮ",
      "ĠÐ¶ ##ÐµÐ»",
      "##Ð¾Ðº ##Ð¾Ð»",
      "ĠÐ¾ÑĤ ##Ð²ÐµÑĤ",
      "ĠÐµ ##Ð´Ñĥ",
      "##ÑģÑĤÑĢ ##Ð¾Ð¹",
      "ĠÐĲ ##Ð½",
      "ĠÑįÑĤ ##Ð¾Ð¼",
      "ĠÐ¥ ##ÑįÐ»Ð»Ð¾Ñĥ",
      "##Ð¸Ð· ##Ð¾Ð¼",
      "ĠÐ·Ð²ÐµÐ·Ð´ ##Ñĥ",
      "ĠÐ´Ð¸ÑģÐ½ÐµÐµÐ²ÑģÐº ##Ð¸Ñħ",
      "ĠÐ´ÐµÐ² ##Ð¸Ð·Ð¾Ð¼",
      "##Ð½Ñİ ##Ñİ",
      "##Ð»Ñİ ##Ñĩ",
      "##Ð¸ÑĤÐµÐ» ##ÐµÐ¹",
      "ĠÐ¼Ð¾ÑĢ ##Ð¾Ð¶ÐµÐ½",
      "ĠÐºÑĥÐ¿ ##Ð¸ÑĤÑĮ",
      "ĠÑĥÐ´Ð°Ñĩ ##Ñĥ",
      "ĠÐ²ÑĭÑħÐ¾Ð´ ##Ð½ÑĭÐµ",
      "ĠÐ¼Ð°Ðº ##Ð¸ÑıÐ¶",
      "ĠÐºÐ¾ÑĤÐ¾ ##ÑĢÑĭ",
      "ĠÑĦÐµÐ²ÑĢ ##Ð°Ð»",
      "##ÑģÑĤÐ°Ð³ ##ÑĢÐ°Ð¼",
      "ĠÐ´ÐµÑģ ##ÐµÑĢÑĤ",
      "Ġ ##V",
      "ĠÐ ##ĸ",
      "##ÑĤ ##Ñĥ",
      "##Ñģ ##Ðµ",
      "ĠÑĤ ##Ð°Ð¹",
      "##Ðº ##Ð¾Ð¼",
      "ĠÐ¿ ##Ð°ÑĢÐ¾Ñĩ",
      "ĠÐº ##ÑĥÐ´Ð°",
      "##ÐµÑĢ ##Ð¾Ð¹",
      "##ÑĪ ##ÐºÑĥ",
      "ĠÐ± ##ÐµÐ·",
      "##Ð³ ##Ð¸",
      "ĠÐ¿ÑĢ ##Ð¸ÑĩÐµÑģÐº",
      "ĠÑĩ ##ÑĥÐ²ÑģÑĤÐ²",
      "##Ð¾Ð½ ##Ðµ",
      "ĠÐĵ ##Ð°ÑĢÑĢÐ¸",
      "##Ð°Ð· ##Ð´",
      "ĠÑģÑĤ ##ÑĢ",
      "ĠÑģÑĤ ##Ð°ÑĢ",
      "ĠÐ²Ð¾Ð¿ÑĢÐ¾ ##ÑģÑĭ",
      "##ÐµÐ· ##ÐµÑĤ",
      "ĠÑĨÐ¸ÑĤÐ°ÑĤ ##Ðµ",
      "##Ð°ÑģÑĤ ##ÑĮ",
      "##Ð°ÐµÑĤ ##ÑģÑı",
      "ĠÐ²Ñĭ ##Ð¿ÑĥÑģÐº",
      "ĠÐ¾Ð¿Ð¸ÑĪ ##ÐµÐ¼",
      "##ÑĢÐ°Ð² ##Ð¸ÑĤÑģÑı",
      "ĠÐ¿Ð¾Ð¼ ##Ð°Ð´",
      "Ð¡ ##Ð¿",
      "ĠÑĢÐ°ÑģÑģÐº ##Ð°Ð¶ÐµÑĤ",
      "ĠÐ¾Ð´ ##Ð¸Ð½",
      "ĠÐ¿Ð¾Ðº ##Ð°Ð¶ÐµÐ¼",
      "ĠÐ¿Ð¾Ð´ÑģÐº ##Ð°Ð·",
      "ĠÐŁÑĢÐ¾Ð² ##ÐµÐ´Ð¸",
      "ĠÐºÐ¾Ð½ ##ÑĨÐ°",
      "ĠÑĤÑĥÑĢÐµÑĨÐº ##Ð¸Ð¹",
      "ĠÐ°Ð¹Ð´ ##Ð¾Ð»",
      "ĠÐ¿ÑģÐ¸ÑħÐ¾Ð»Ð¾Ð³Ð¸ÑĩÐµÑģÐº ##Ð°Ñı",
      "ĠÐ²ÐµÑģ ##Ð½Ð¾Ð¹",
      "ĠÐ¿ÑĢÐµÐ´ÑģÐºÐ°Ð· ##Ð°Ð½Ð¸Ðµ",
      "ĠÑģÑĤÐ°Ð½ ##ÐµÑĪÑĮ",
      "ĠÐ¿ÑĥÑĤ ##ÐµÑĪ",
      "ĠÐ²Ð½Ð¸Ð¼ ##Ð°ÑĤÐµÐ»ÑĮ",
      "##ÐµÐ¹Ð» ##Ð¾ÑĢ",
      "ĠÐ¼ÐµÑĪ ##Ð°ÐµÑĤ",
      "Ð ##ĺ",
      "Ġ ##A",
      "##h ##e",
      "##v ##el",
      "##Ð¸ ##ÑģÐº",
      "##Ñĭ ##Ñĩ",
      "##Ð½ ##ÐµÑĢ",
      "##Ðº ##Ð°Ð¼",
      "##Ñı ##Ð·",
      "##Ð´ ##ÐµÐ»",
      "##ÑģÑĤ ##ÑĮ",
      "##ÐµÑĢÐ¸ ##Ð½",
      "ĠÐ¾ ##Ñĩ",
      "ĠÐ· ##Ð°Ð½",
      "##ÑģÐº ##Ð¸Ðµ",
      "ĠÐ° ##ÑĢÐ¾Ð¼",
      "ĠÐ³ ##Ð¾Ð²Ð¾ÑĢ",
      "ĠÐ¿ÑĢ ##Ð°Ð·Ð´",
      "##ÑĢÑĥ ##Ðº",
      "##Ð¸Ðº ##ÐµÑĢ",
      "##Ð¾Ñģ ##Ð¾Ð±",
      "##Ð¾ÑģÑĤ ##Ð¸",
      "##Ð¸ÑĢ ##Ð¾Ð²",
      "ĠÐ½Ðµ ##Ð¾Ð±",
      "ĠÑĪ ##Ð¾ÐºÐ¾Ð»",
      "ĠÑģÐ´ ##Ð°ÑĤÑĮ",
      "ĠÐ±ÑĥÐ´ÑĥÑī ##ÐµÐµ",
      "ĠÐ¿ÑĢÐµÐ´ ##Ð¼ÐµÑĤ",
      "ĠÐºÐ¾ÑĤ ##Ð¸ÐºÐ°",
      "ĠM ##ar",
      "ĠÐ½Ð°ÑģÑĤÑĢÐ¾ ##ÐµÐ½Ð¸Ðµ",
      "ĠÑĢÐ¾Ð¼Ð°Ð½ ##ÑĤÐ¸Ñĩ",
      "ĠÐ¸Ð½ÑĤÐµÑĢ ##ÐµÑģ",
      "ĠÐ¿ÑĥÑĤÐµÑĪ ##ÐµÑģÑĤÐ²",
      "ĠÐ°ÑĢÐ¾Ð¼ ##Ð°ÑĤ",
      "ĠÑĪÐ¾ÐºÐ¾Ð» ##Ð°Ð´",
      "ĠMar ##vel",
      "Ð ##½",
      "ĠÐ ##®",
      "##Ð¸ ##ÐºÐ°Ñħ",
      "ĠÐ¿ ##Ð¸ÑĨ",
      "ĠÐº ##Ð»",
      "ĠÐ¼ ##ÐµÑģÑĤ",
      "##Ð¼ ##ÐµÐ½ÑĤ",
      "ĠÐºÐ°Ðº ##Ð¸Ñħ",
      "ĠÐ· ##Ð°Ð³",
      "##ÑģÐº ##Ð¾Ð¼",
      "##ÑģÐº ##Ð¾Ðµ",
      "ĠÑĥ ##ÑĩÐ°ÑģÑĤ",
      "##ÑĨ ##ÐµÐ½Ð¸",
      "ĠÐ£ ##Ð¼ÐµÐµÑĪÑĮ",
      "ĠÑģÑĤ ##Ð°Ð»",
      "ĠÐŀ ##ÑĨÐµÐ½Ð¸",
      "ĠÐŁ ##Ð°ÑĢ",
      "##Ð°Ð»ÑĮ ##Ð½ÑĭÐ¹",
      "##Ð´ÐµÑĤ ##ÑĮ",
      "ĠÑĦÐ¸Ð»ÑĮÐ¼ ##Ð¾Ð²",
      "ĠÑģÐ» ##Ð°Ð´",
      "ĠÑģÐ¼ ##Ð¾Ð³Ð»Ð°",
      "ĠÐ¿ÑĢÐµÐ´ ##Ð»Ð¾Ð¶",
      "ĠÑģÐ¾Ð² ##ÑĢÐµÐ¼",
      "ĠÐ½Ð°Ð¹ ##Ð´ÐµÑĪÑĮ",
      "ĠÐĺ ##Ð½",
      "ĠÐ´ÐµÐ² ##ÑĥÑĪ",
      "ĠÐ²ÑģÐµ ##Ñħ",
      "ĠÑĥÑĩ ##ÐµÐ±",
      "ĠÐ³Ð¾ÑĢÐ¾Ð´ ##Ðµ",
      "ĠÐ½Ð°Ñĩ ##Ð¸Ð½",
      "##Ð¾Ð±Ñĭ ##Ñĩ",
      "ĠÐ¿Ð¾Ð´Ð°ÑĢ ##Ð¸ÑĤ",
      "Ġ201 ##8",
      "ĠÐºÐ¾ÑĦ ##Ðµ",
      "Ð ##¥",
      "Ġ ##P",
      "##Ðµ ##ÑĦ",
      "##ÑĢ ##ÑĮ",
      "ĠÑĤ ##ÑĢÐµ",
      "ĠÐ² ##Ð¸Ð´",
      "ĠÐ¼ ##Ð°Ð¼",
      "ĠÐ½ ##Ð°Ð¼",
      "ĠÐ½ ##Ð°Ð±",
      "##ÐµÑĤ ##ÑĮ",
      "##Ñİ ##ÑĤ",
      "ĠÐ± ##Ð°Ð±",
      "##Ð¾Ð¼ ##Ð½",
      "ĠÐ· ##Ð°Ð¿",
      "ĠÐ¿ÑĢ ##Ð¾Ð¹ÑĤÐ¸",
      "ĠÑģÑĤ ##Ð¸ÐºÐµÑĢ",
      "ĠÑĦ ##ÑĢÑĥÐº",
      "##ÑĦ ##Ð¾ÑĢ",
      "ĠÑģÐ² ##Ð¾Ðµ",
      "ĠÐľ ##Ð¾ÑĢ",
      "##Ð´Ð° ##ÑĪÑĮ",
      "ĠÐ½Ðµ ##Ð¾Ð±ÑĭÑĩ",
      "ĠÐĲ ##Ð»",
      "##Ñį ##Ð¹",
      "ĠÐ¿Ð¾ÑħÐ¾Ð¶ ##Ð¸",
      "ĠÐ¿Ð¾Ð¼ ##Ð¾Ð¶ÐµÑĤ",
      "##ÑĥÐ¼ ##ÐµÑĢ",
      "ĠÐŃ ##ÑĤÐ¾",
      "ĠT ##eam",
      "ĠÑĦÐ°Ðº ##ÑĥÐ»ÑĮÑĤ",
      "ĠÐ³ÑĢÑĥÐ¿Ð¿ ##Ñĥ",
      "ĠÑħÐ°ÑĢÐ°ÐºÑĤÐµÑĢ ##Ñĥ",
      "ĠÐºÐ½Ð¸Ð³ ##Ñĥ",
      "ĠÑģÐ»Ð¾Ð² ##Ð¾",
      "##ÑĬ ##ÐµÑģÑĤ",
      "ĠÑģÑĥÐ¿ÐµÑĢ ##Ð³",
      "ĠÐºÑĢÑĥ ##ÑĤ",
      "ĠÐ²ÑģÐµÐ»ÐµÐ½ ##Ð½Ð¾Ð¹",
      "ĠÑĦÐ°ÐºÑĥÐ»ÑĮÑĤ ##ÐµÑĤ",
      "Ð ##±",
      "##Ðµ ##Ñı",
      "##ÑĤ ##ÐµÐ¹",
      "##Ð¸ ##Ð»Ð¸",
      "##ÑĢ ##Ð°ÑĤ",
      "##ÑĢ ##Ð°Ð³",
      "ĠÐ¿ ##ÐµÑĩ",
      "##ÐµÑĢ ##Ðµ",
      "##Ð´ ##Ð¾",
      "ĠÐ¼ ##Ð¾",
      "ĠÐ¼ ##Ð°Ð»",
      "ĠÐ½ ##ÐµÑĤ",
      "ĠÐ½ ##ÐµÐ¹",
      "ĠÐļ ##Ð¾Ð³Ð´Ð°",
      "ĠÐļ ##ÑĥÐ´Ð°",
      "##ÐµÐ½ ##Ð¸Ð¹",
      "##Ð¸ÑĤ ##Ð¾Ð¼",
      "##Ð°Ð¹ ##Ð»Ð¸",
      "ĠÑģÐº ##ÑĢÑĭ",
      "ĠÐ· ##Ð°ÑĢ",
      "ĠÑĥ ##Ðº",
      "ĠÐ³ ##Ð¾ÑĤÐ¾Ð²Ð°",
      "##Ð¸Ð½ ##ÐºÑĥ",
      "ĠÐ¿ÑĢ ##Ð¾Ð¶",
      "ĠÑĩ ##Ð°",
      "ĠÑĢ ##Ð¾Ð·",
      "##Ð¾Ð½ ##Ñĩ",
      "ĠÐĵ ##Ð´Ðµ",
      "ĠÑģÑĤ ##Ð¸Ð»",
      "ĠÑģÐ²Ð¾ ##Ð¸Ñħ",
      "##Ð¸Ð² ##ÐµÑĪÑĮ",
      "ĠÐ»ÑİÐ±Ð¸Ð¼ ##ÑĥÑİ",
      "ĠÐ»ÑİÐ±Ð¸Ð¼ ##ÑĭÐµ",
      "ĠÐ¾Ð´ ##Ð½Ð¾Ð¼Ñĥ",
      "ĠÐ½Ð°Ð¿ ##Ð¸ÑĤ",
      "ĠÐ¼ÑĥÐ»ÑĮÑĤÐ¸ ##Ðº",
      "##ÑĤÑĢ ##Ð°Ðº",
      "ĠÐ³Ð»Ð°Ð· ##Ð°",
      "ĠÐ¾ÑģÐµÐ½ÑĮ ##Ñİ",
      "ĠÑģÑĭÐ³ ##ÑĢÐ°ÑĤÑĮ",
      "ĠÑįÐ¼Ð¾ÑĨÐ¸Ð¾Ð½Ð°Ð»ÑĮ ##Ð½Ð¾Ðµ",
      "ĠÑģÐµÐ»ÐµÐ± ##Ð¾Ð²",
      "ĠÐ¥ÑįÐ»Ð»Ð¾Ñĥ ##Ð¸Ð½",
      "ĠÐºÐ¾ÑĤÐ¾ÑĢÑĭ ##Ðµ",
      "ĠÐ¿Ð¾Ð´ÑģÐºÐ°Ð· ##ÐºÑĥ",
      "ĠÑģÐ¾Ð²ÑĢÐµÐ¼ ##ÐµÐ½",
      "ĠÑĦÑĢÑĥÐº ##ÑĤ",
      "##Ñģ ##Ð¸Ð¹",
      "ĠÑĤ ##ÐµÐ»",
      "##Ðº ##Ð¸Ð¹",
      "ĠÑģ ##Ð¾Ð±",
      "ĠÑģ ##ÐµÐ½ÑĤ",
      "##Ð² ##Ð°ÑĢ",
      "ĠÐº ##ÑĢ",
      "ĠÐº ##Ð°Ñĩ",
      "##ÐµÑĢ ##Ð¾Ð²",
      "##ÐµÐ¼ ##Ð¾Ð½",
      "##Ð¼ ##ÐµÑģÑĤ",
      "ĠÐ½ ##Ð¾Ñĩ",
      "ĠÐ± ##Ð¾Ð³",
      "ĠÐĴ ##Ð¸Ð½",
      "ĠÐ» ##Ð¾Ð¶",
      "ĠÑĥ ##ÑģÑĤ",
      "##Ð°Ð» ##ÐµÐ½ÑĤ",
      "##Ð¸Ð½ ##Ñĥ",
      "##ÐµÐ» ##Ð¸",
      "ĠÑĢ ##Ð¾Ð´Ð¸",
      "##Ð¾Ð¶ ##Ð½Ð¾",
      "ĠÐ¿Ð¾Ð´ ##Ð±ÐµÑĢ",
      "##Ñī ##Ðµ",
      "ĠÐ¾ÑĤ ##Ðº",
      "ĠÐ±ÑĥÐ´ ##ÑĥÑĤ",
      "ĠÐ¢ ##ÐµÐ¹Ð»Ð¾ÑĢ",
      "ĠÐ¼Ñĥ ##Ð·ÑĭÐº",
      "ĠÐ²Ñĭ ##Ð³Ð»Ñı",
      "ĠÐĲ ##ÑĢ",
      "ĠÐĲ ##Ð¹",
      "##Ð¸ÑĦ ##ÑĤ",
      "##ÑıÐ¼ ##Ð¸",
      "ĠÐ½Ð°Ð·Ð² ##Ð°ÑĤÑĮ",
      "ĠÐ³ÑĢÑĥÐ¿Ð¿ ##Ñĭ",
      "ĠÐ°Ð¹Ð´ ##Ð¾Ð»Ð¾Ð²",
      "ĠÑĢÐ°Ð±Ð¾ÑĤ ##Ð°ÑĤÑĮ",
      "ĠÑĪÐºÐ¾Ð» ##Ðµ",
      "ĠÐ¡Ð² ##Ð¸ÑĦÑĤ",
      "ĠÐ±Ð»Ð¸Ð¶Ð°Ð¹ ##ÑĪ",
      "ĠÑĦÐ¾ÑĤÐ¾Ð³ÑĢÐ°ÑĦ ##Ð¸Ð¸",
      "Ð¡Ð¿ ##Ð»ÐµÑĤ",
      "ĠÐ¿ÐµÑĩ ##ÐµÐ½ÑĮ",
      "ĠÑģÐµÐ½ÑĤ ##ÑıÐ±",
      "ĠÐ¿Ð¾Ð´Ð±ÐµÑĢ ##ÐµÐ¼",
      "Ð ##º",
      "Ġ ##O",
      "Ġ ##E",
      "Ġ ##ÑĢÐ¾Ñģ",
      "##l ##ix",
      "##o ##u",
      "##f ##lix",
      "##Ðµ ##Ñī",
      "##Ð¸ ##Ð¶",
      "##Ð¸ ##ÑĢÐ°",
      "##Ñĥ ##ÑģÑĤ",
      "ĠÑĤ ##Ð¾",
      "##ÑĮ ##Ð¸",
      "ĠÑģ ##ÐµÐºÑģ",
      "ĠÐ¿ ##Ð¸ÑĤÐ¾Ð¼",
      "##Ð² ##ÑĪ",
      "##Ð´ ##ÑĥÑĤ",
      "ĠÐ² ##ÐµÑĢ",
      "ĠÐ² ##ÑĤÐ¾ÑĢ",
      "ĠÐ² ##ÐµÐ´ÑĮ",
      "ĠÐ± ##Ð»",
      "##Ð¾Ð´ ##Ñĭ",
      "##Ð°Ð¶ ##ÑĥÑĤ",
      "##Ð°Ð¹ ##Ð»",
      "ĠÑģÐº ##ÑĢÐ¸Ð½",
      "ĠÐ´ ##Ð¾Ð±",
      "ĠÑĥ ##Ð¿ÑĢÐ°Ð²Ð»Ñı",
      "##Ð»Ð¸ ##ÑĪ",
      "##ÐµÐ» ##Ñı",
      "##ÐµÐ» ##Ð¸Ðº",
      "##Ð½Ð¸ ##ÐºÐ¸",
      "ĠÑĤÐ²Ð¾ ##Ð¸Ñħ",
      "##Ð¾ÑĢ ##Ñĥ",
      "ĠÑĢ ##Ð°Ð´",
      "##Ð¾ÑĤ ##Ñĥ",
      "ĠÑĦ ##ÑĢÐ°Ð·",
      "##ÐµÑģ ##ÑģÐ°",
      "ĠÑħ ##Ð¾Ñĩ",
      "ĠÐŁ ##Ð¾Ð´",
      "ĠÑģÐµÑĢÐ¸Ð°Ð» ##Ðµ",
      "ĠÐ»ÑİÐ± ##Ð¸ÑĪÑĮ",
      "ĠÐ±Ð¾Ð»ÑĮ ##ÑĪ",
      "ĠÐ¿ÐµÑģ ##ÐµÐ½",
      "ĠÑģÐ¼ ##Ð¾Ð¶ÐµÑĤ",
      "ĠÐĲ ##ÑĢÐ¸",
      "ĠÐºÐ°ÑĢÑĤÐ¸Ð½ ##ÐºÑĥ",
      "ĠÑģÐ°Ð¼ ##ÑĭÐ¹",
      "##ÑģÑĤÐ² ##Ð°",
      "##ÑģÑĤÐ² ##ÐµÐ½",
      "ĠÑģÐ´ÐµÐ» ##Ð°ÐµÑĤ",
      "ÐĶ ##Ð½ÐµÐ²",
      "ÐĶ ##ÑĢÑĥÐ·ÐµÐ¹",
      "ĠT ##he",
      "ĠÐ¿Ð¾Ð»ÑĥÑĩ ##Ð¸ÑĪÑĮ",
      "ĠÐ»ÑĥÑĩÑĪ ##ÐµÐ¹",
      "ĠÐ¿Ð¾Ð· ##Ð¾Ð²",
      "ĠÐ²ÐµÑĩ ##ÐµÑĢÐ¸Ð½",
      "ĠÐ»Ñİ ##Ð´ÐµÐ¹",
      "ĠÐ¿Ð¾Ð´ÑĢÑĥÐ³ ##Ð¾Ð¹",
      "ĠÑĢÐ¾Ð¶Ð´ ##ÐµÑģÑĤÐ²ÐµÐ½",
      "##et ##flix",
      "ĠÐºÐ¾ÑĤÐ¾ÑĢ ##ÑĭÐ¹",
      "ĠN ##etflix",
      "ĠÐ·Ð»Ð¾Ð´ ##ÐµÐ¹",
      "ĠÐ±Ð»Ñİ ##Ð´Ð¾",
      "ĠÑģÐµÐ· ##Ð¾Ð½",
      "##Ð»Ð¾Ð½ ##Ð½Ð°",
      "ĠÐ½Ð°Ð´ ##Ð¾",
      "ĠÐ´Ð² ##ÐµÑĢÑĮ",
      "ĠÐ¶ÐµÐ» ##Ð°Ð½Ð¸Ðµ",
      "ĠÑĢÐ¾Ñģ ##ÑģÐ¸Ð¹",
      "Ð ##¼",
      "##i ##r",
      "##ÑĢ ##Ð¾Ð´",
      "##ÑĢ ##ÐµÐ²",
      "##Ñĥ ##Ð·",
      "##Ð½ ##Ð¾Ð²",
      "##Ðº ##Ñģ",
      "ĠÑģ ##ÐµÑģÑĤ",
      "##ÐµÑĢ ##Ð»Ð¾Ðº",
      "##Ð´ ##Ð¸Ð½",
      "##Ð± ##ÑĥÐ´",
      "##Ñİ ##Ð¼",
      "ĠÐ¾ ##ÑģÑĤ",
      "ĠÐ³ ##ÐµÑĢÐ¾Ð¹",
      "##ÐµÐ¹ ##Ð½",
      "ĠÐ¡ ##ÐµÑĢ",
      "ĠÐ¿ÑĢ ##Ð¸Ðº",
      "ĠÐĵ ##ÑĢÐ°Ð½",
      "ĠÐĵ ##Ð¾ÑĤÐ¾Ð²Ð°",
      "ĠÐ¾ÑĤ ##Ð¿ÑĢÐ°Ð²",
      "ĠÑĦÐ¸Ð»ÑĮÐ¼ ##Ñĭ",
      "ĠÐĳ ##Ð¸Ð»",
      "ĠÐ¾Ð± ##ÑıÐ·",
      "ĠÑĪ ##Ð°ÑĢ",
      "ĠÐ²Ñĭ ##Ð¶",
      "Ġ1 ##4",
      "ĠÐ½Ð¾Ð² ##Ð¾Ð³Ð¾",
      "ĠÐ·Ð²ÐµÐ·Ð´ ##Ñĭ",
      "ĠÐ¿ÐµÑģÐ½Ñı ##Ñħ",
      "ĠÐ¸Ð´ÐµÐ°Ð»ÑĮ ##Ð½Ð¾Ðµ",
      "Ð¡ ##ÑĥÐ¼ÐµÑĢ",
      "##Ð°Ð½ÐµÑĤ ##ÑģÑı",
      "ĠÐ´Ð¾ÑĢÐ°Ð¼ ##Ñĭ",
      "##Ð°ÑĨ ##Ð¸Ð¸",
      "ĠÐ¼ÑĥÐ»ÑĮÑĤÑĦÐ¸Ð»ÑĮÐ¼ ##Ð¾Ð²",
      "ĠÐ¼ÑĥÐ»ÑĮÑĤÐ¸ ##ÐºÐ¾Ð²",
      "ĠÐ¿Ð¾ÑģÐ» ##ÐµÐ´",
      "ĠÑħÐ°ÑĢÐ°ÐºÑĤÐµÑĢ ##Ðµ",
      "ĠÐ·Ð°Ðº ##Ð¾Ð½Ñĩ",
      "ĠÐºÐ¾ÑĢÐµÐ¹ ##ÑģÐºÑĥÑİ",
      "ĠÐ¼ÐµÑģÑı ##ÑĨÐµ",
      "ĠÐ½Ð°ÑģÑĤÑĢÐ¾ ##ÐµÐ½Ð¸Ð¸",
      "ĠÑģÐ²Ð°Ð´ ##ÐµÐ±",
      "ĠÐ²Ð°Ð¼Ð¿Ð¸ ##ÑĢÐ°",
      "ĠÐ´Ð¾ÑģÑĤ ##Ð°Ð½ÐµÑĤÑģÑı",
      "ĠÑĢÐµÐ± ##ÐµÐ½Ð¾Ðº",
      "ĠÐ¿ÑĢÐ¸Ð½ÑĨÐµÑģÑģ ##Ñĥ",
      "ĠÐŁÑĢ ##Ð¾Ð¹",
      "ĠÐ°Ð»ÑĮÐ± ##Ð¾Ð¼Ð°",
      "ĠÑĦÐµÐ²ÑĢÐ°Ð» ##Ñı",
      "ĠÐ³Ð¾Ð²Ð¾ÑĢ ##Ð¸ÑĤ",
      "ĠÐ¿ÑĥÑĤÐµÑĪÐµÑģÑĤÐ² ##Ð¸Ðµ",
      "ĠÑģÑĤÐ¸Ð» ##Ðµ",
      "ĠÐ»Ð¾Ð¶ ##ÑĮ",
      "Ð ##³",
      "Ñ ##ģ",
      "Ġ ##3",
      "##e ##r",
      "##o ##r",
      "##d ##s",
      "##r ##eam",
      "##Ð° ##ÑĦ",
      "##Ð¾ ##Ð¸ÑĪÑĮÑģÑı",
      "##Ñĥ ##ÑĢÐ°",
      "##Ñĥ ##ÑĢÐ³",
      "ĠÑģ ##ÑĥÑī",
      "ĠÐ¿ ##ÐµÐ¹",
      "ĠÐ¿ ##Ð¸Ñģ",
      "ĠÐ¿ ##Ð¸ÑĢ",
      "ĠÐ¿ ##ÑıÑĤ",
      "##Ð» ##Ð¾",
      "##Ð² ##Ð¾ÑĢ",
      "##Ð°Ðº ##Ð¸",
      "ĠÐº ##Ð¾Ð»ÑĮ",
      "##Ð¼ ##ÐµÑĢÐ¸",
      "##Ð¼ ##Ð¾Ð½",
      "ĠÐ½ ##ÑĢÐ°Ð²Ð¸ÑĤÑģÑı",
      "##ÐµÑĤ ##Ð¸",
      "ĠÑģÐº ##Ð¾ÑĢÐ¾",
      "##Ð¸Ð½ ##Ðµ",
      "##Ð¸Ð½ ##ÐµÐ¹",
      "ĠÐ±Ñĭ ##Ð²ÑĪ",
      "ĠÐ¿ÑĢ ##ÐµÐ¼",
      "##Ð³Ð°Ð´ ##Ð°ÑĤÑĮ",
      "ĠÑģÑĤ ##Ð°Ð»Ð°",
      "ĠÑħ ##ÑĥÐ´",
      "ĠÐµ ##ÑģÑĤÑĮ",
      "##ÑĥÑĩ ##Ð¸ÑģÑĮ",
      "ĠÐ§ ##ÐµÐ¼",
      "Ġ20 ##20",
      "##Ð¾ÑģÑĤ ##ÑĥÑĩÐ¸ÑģÑĮ",
      "ĠÑģÐ» ##Ð¾Ð¶",
      "ĠÐ¾Ð± ##Ñī",
      "ĠÐ¾Ð± ##Ð¼Ð°Ð½",
      "ĠÐ¥ ##Ð¾Ð»",
      "##Ð¸ÑĩÐµÑģÐº ##Ð¸Ð¹",
      "ĠÑģÑĤÑĢÐ°Ð½ ##Ðµ",
      "ĠÑģÐ¿ ##Ð¾ÑģÐ¾Ð±",
      "ĠÐºÐ¾Ð¼ ##Ð½",
      "ĠÐĹ ##Ð°",
      "ĠÐ´Ð¸ÑģÐ½ÐµÐµÐ²ÑģÐº ##ÑĥÑİ",
      "ĠÐķ ##ÑģÐ»Ð¸",
      "ĠD ##ream",
      "##ÑĤÑĮ ##ÑģÑı",
      "ĠÐ³Ð¾ÑĢ ##ÑıÑĩ",
      "ĠÐºÐ¾Ð½ ##ÑĦ",
      "ĠÐ½Ð¾Ð²Ð¾Ð³Ð¾Ð´ ##Ð½Ð¸Ð¹",
      "ĠÐ¿ÐµÑĢÐ² ##ÑĥÑİ",
      "ÐŁ ##Ð¾ÑģÑĤÑĥÑĩÐ¸ÑģÑĮ",
      "ĠÐ½ÐµÐ´ÐµÐ» ##Ð¸",
      "ĠÑĤÑĢ ##ÐµÐº",
      "ĠÐ¿ÑĢÐ¸ ##Ð·Ð½",
      "ĠÑĥÑģÐ¿ ##ÐµÑĪ",
      "ĠÐ¼Ð¸ÑĢ ##Ðµ",
      "ĠÑģÐµÐ¼ ##ÑĮÐ¸",
      "ĠÐºÐ°ÑĢ ##Ð°Ð½ÑĤ",
      "ĠÐ¿ÑĢÐ¾ÑĦÐµÑģÑģ ##Ð¸Ñı",
      "ĠÐ¾ÑģÐµÐ½ ##Ð½Ð¸Ð¹",
      "##ÑĩÐ¾Ð½ ##ÐºÐ°",
      "ĠÐ¿ÑĢÐ¸ÑĩÐµÑģÐº ##Ñĥ",
      "ĠÐ²Ð½Ð¸Ð¼Ð°ÑĤÐµÐ»ÑĮ ##Ð½Ð¾ÑģÑĤÑĮ",
      "ĠÐ½ÐµÐ¾Ð± ##ÑħÐ¾Ð´",
      "##Ð¾Ð¼Ð½ ##Ð¸ÑĤÑĮ",
      "ĠÑģÑĥÐ¿ÐµÑĢÐ³ ##ÐµÑĢÐ¾",
      "ĠÐ¼Ð¾ ##Ñİ",
      "ĠÐ¿ÑĢÐ¾Ð¶ ##Ð¸Ð²ÐµÑĪÑĮ",
      "ĠÐ½Ð°Ð¿Ð¸ÑĤ ##Ð¾Ðº",
      "ĠÐºÐ°Ñĩ ##ÐµÑģÑĤÐ²Ð¾",
      "ĠÐ¿Ð¾Ð·Ð¾Ð² ##ÐµÑĤ",
      "ĠÐĵÑĢÐ°Ð½ ##Ð´Ðµ",
      "ĠÐ²ÑĭÐ¶ ##Ð¸ÑĤÑĮ",
      "ĠÐŁÑĢÐ¾Ð¹ ##Ð´Ð¸",
      "Ð ##´",
      "##0 ##0",
      "##r ##a",
      "##ÑĤ ##Ð¾Ð±Ñĭ",
      "##Ð¸ ##Ð»Ð°ÑģÑĮ",
      "##ÑĢ ##Ð°Ð¹",
      "##Ñĭ ##ÑĪ",
      "##Ñĥ ##ÐµÑĪÑĮ",
      "##Ðº ##Ð°Ð½",
      "ĠÑģ ##ÐµÐº",
      "##Ñı ##ÑĤÐ¸",
      "##Ð» ##Ð´",
      "##Ð² ##ÐµÐ´",
      "ĠÐ² ##Ð½ÑĥÑĤ",
      "ĠÐ¼ ##Ð°Ð¹",
      "ĠÐ¼ ##Ð¸ÑĦ",
      "##Ñħ ##ÑĬÐµÑģÑĤ",
      "##ÐµÐ½ ##Ð¸Ñİ",
      "##ÐµÐ½ ##Ð½ÐµÑĢ",
      "ĠÐ± ##ÑĢÐ°ÑĤÑĮ",
      "##Ð°Ð´ ##Ð°ÐµÑĪÑĮ",
      "ĠÐ· ##Ð°Ð¹",
      "ĠÐ» ##Ð¸ÑĤÐµÑĢ",
      "ĠÑĥ ##Ð·Ð½",
      "##Ð¿ ##ÐµÑĢ",
      "##Ð¿ ##Ð¾Ñĩ",
      "##Ð°ÑĢ ##Ñĥ",
      "##Ð°ÑĢ ##Ð¾Ð²",
      "ĠÐ° ##Ð²",
      "##ÐµÐ¹ ##Ð»Ð¸",
      "ĠÐ¡ ##Ð´ÐµÐ»",
      "##Ð¾ÑĢ ##Ð¾Ð´",
      "ĠÑĩ ##Ð°ÑģÑĤÑĮ",
      "ĠÑĩ ##ÑĤÐ¾Ð±Ñĭ",
      "##ÐµÐ² ##Ð°",
      "ĠÐŁ ##Ð¾",
      "##Ð°Ñģ ##Ñģ",
      "##Ð¸Ðº ##Ð¾Ð²",
      "##Ð°Ð»ÑĮ ##Ð½Ð¾Ðµ",
      "ĠÐľ ##Ð°Ðº",
      "ĠÑģÐ²Ð¾ ##Ð¸Ð¼",
      "ĠÐ²Ñģ ##Ð¿",
      "ĠÐ»ÐµÑĤ ##Ð°",
      "ĠÐĳ ##Ð°ÑĢ",
      "ĠÐ¾Ð± ##Ð»Ð¾Ð¶",
      "ĠÑĪ ##Ð»ÐµÑĤ",
      "ĠÐ·Ð² ##ÐµÐ·",
      "ĠÐ·Ð²ÐµÐ·Ð´ ##Ð½ÑĭÐ¹",
      "##ÑĥÑĪ ##Ð°ÑĤÑĮ",
      "ĠÑģÑĤÐ¾ ##ÑĢ",
      "ĠÐ¡Ð¿ ##ÑĢÐ¾",
      "ĠÐºÐ¾Ð¼ ##ÐµÐ´",
      "##ÑĭÐ² ##Ð°ÑĤÑĮ",
      "##ÑĥÐ± ##Ð°",
      "ĠÑįÐº ##Ð·",
      "ĠÐ¿ÐµÑĢÐ² ##ÑĭÐ¹",
      "##Ð°ÑĤÐµÐ»ÑĮ ##Ð½Ð¾",
      "ĠÐ³Ð»Ð°Ð² ##Ð½ÑĥÑİ",
      "ĠÐ½Ð°Ð·Ð² ##Ð°Ð½Ð¸Ñı",
      "ĠÐ½Ð°Ð·Ð² ##Ð°Ð½Ð¸Ñİ",
      "ĠÐ·Ð°Ð² ##ÑĤÑĢÐ°Ðº",
      "ĠÐ¿Ð¾ÑģÐ» ##ÑĥÑĪÐ°ÑĤÑĮ",
      "ĠÐ¾Ðº ##Ð°Ð·",
      "ĠÐ¿ÑĢÐ¸Ð² ##ÑĭÑĩ",
      "ĠÐ¸Ð·Ð²ÐµÑģÑĤ ##Ð½ÑĭÑħ",
      "ĠÐ½ÐµÐ´ÐµÐ» ##Ñİ",
      "ĠÐ¿ÑĢÐ¸ ##Ð´ÐµÑĤ",
      "ĠÐ»Ñİ ##Ð´Ð¸",
      "##Ð½Ð¸ÑĨ ##Ñĭ",
      "ĠÑĦÐ°ÐºÑĤ ##Ñĭ",
      "ĠÐļÐ°ÑĢ ##Ð´Ð°ÑĪÑĮ",
      "ĠÐ±ÑĥÐº ##Ð²",
      "ĠÐ±ÑĥÐº ##ÐµÑĤ",
      "ĠÐ°ÐºÑĤÐµÑĢ ##Ð¾Ð²",
      "ĠÑģÐ½ ##ÐµÐ¶",
      "ĠÐºÐ¾Ñģ ##Ð¼",
      "ĠÐ½Ð°ÑĢÑıÐ´ ##Ñĭ",
      "ĠÐ¿ÑĢÐ¸Ð³Ð»Ð°Ñģ ##Ð¸Ð»",
      "ĠÑģÐ²Ð°Ð´ÑĮÐ± ##Ñĥ",
      "ĠÐ¼Ð¾ÑĢÐ¾Ð¶ÐµÐ½ ##Ð¾Ðµ",
      "ĠÐ·Ð°Ð³ ##Ð°Ð´",
      "ĠÐĺÐ½ ##ÑģÑĤÐ°Ð³ÑĢÐ°Ð¼",
      "ĠÐ½Ð°Ð± ##Ð¾ÑĢÑĥ",
      "ĠÐĲÐ» ##ÐµÐºÑģ",
      "ĠÑĢÐ¾Ð´Ð¸ ##Ð»Ð°ÑģÑĮ",
      "ĠÐĲÐ¹ ##Ð»Ð¸ÑĪ",
      "ĠÐ²ÐµÑĩÐµÑĢÐ¸Ð½ ##ÐºÑĥ",
      "##ir ##l",
      "ĠÐ¿ÑĢÐ¸Ðº ##Ð»ÑİÑĩ",
      "ĠÐĳÐ¸Ð» ##Ð»Ð¸",
      "ĠÐ½ÐµÐ¾Ð±ÑħÐ¾Ð´ ##Ð¸Ð¼",
      "##ÑħÑĬÐµÑģÑĤ ##ÐµÑģÑĤÐ²ÐµÐ½",
      "ĠÐ¡Ð´ÐµÐ» ##Ð°Ð¹",
      "ĠÐļÐ°ÑĢÐ´Ð°ÑĪÑĮ ##ÑıÐ½",
      "Ð ##Ľ",
      "Ġ ##4",
      "##Ð ##¡",
      "##Ñ ##ĳ",
      "##i ##m",
      "##Ð° ##ÑĢÐ¾",
      "##Ñģ ##Ñģ",
      "ĠÑĤ ##Ð°Ð»",
      "##ÑĮ ##ÐµÑĢ",
      "##Ðº ##Ð¸Ð½Ð°",
      "ĠÑģ ##ÑĦ",
      "ĠÑģ ##Ð¸Ð»ÑĮÐ½Ð¾",
      "##Ñı ##Ñħ",
      "##Ð» ##Ñĭ",
      "##Ð² ##ÐµÐ·Ð´",
      "##ÐµÑĢ ##Ð¶",
      "##ÑĪ ##Ð¾ÑĤÑĥ",
      "ĠÐ² ##ÐµÑī",
      "ĠÐ¼ ##Ð¾Ð½",
      "ĠÐ¼ ##Ð°Ð³",
      "##ÐµÐ½ ##ÐºÐ°",
      "ĠÐ· ##Ð°Ð±",
      "ĠÐ´ ##ÐµÐº",
      "ĠÑĥ ##Ð¼ÐµÐµÑĪÑĮ",
      "##Ð¿ ##ÑĢ",
      "##Ð°ÑĢ ##Ð°",
      "ĠÐ³ ##ÑĥÐ±",
      "##Ð¸Ð½ ##Ñĭ",
      "ĠÐ¡ ##Ð°Ð±",
      "ĠÑĩ ##ÑĥÐ´",
      "##Ð¶ ##ÐµÑĤ",
      "##Ð¾ÑĤ ##Ð¾Ð²",
      "ĠÐ»Ð¸ ##ÑĨÐ°",
      "ĠÑĦ ##Ð¸Ð³",
      "ĠÐŁ ##ÑĢÐ°Ð²",
      "##ÐµÐ½ÑĮ ##Ðº",
      "ĠÑĨÐ²ÐµÑĤ ##Ð¾Ð²Ð¾Ð¹",
      "ĠÐĳ ##ÐµÐ»",
      "##ÐµÐ½Ð¸Ñı ##Ñħ",
      "##Ñį ##Ð½",
      "##Ð¸ÑĩÐµÑģÐº ##Ð¸Ñħ",
      "ĠÐ·Ð²ÐµÐ·Ð´ ##Ð¾Ð¹",
      "##ÑĥÐ¼ ##Ð°Ð¶",
      "ĠÐºÐ¾ ##ÑĪ",
      "ĠÐ¿ÑĢÐµÐ´ ##Ð¿Ð¾Ñĩ",
      "ĠÐ¸Ð½ ##ÑĤ",
      "ĠÑı ##Ð·ÑĭÐº",
      "ĠÐ²Ð»ÑİÐ± ##Ð¸ÑĤÑģÑı",
      "ĠÐ¿Ð¾Ðº ##Ð¾Ð»",
      "ĠÐ½Ð¾Ð²Ð¾Ð³Ð¾Ð´ ##Ð½ÐµÐµ",
      "ĠÐ½Ð¾Ð²Ð¾Ð³Ð¾Ð´ ##Ð½ÑİÑİ",
      "ĠS ##im",
      "ĠÐ¿Ð¾Ð¿ÑĥÐ»ÑıÑĢ ##Ð½ÑĭÑħ",
      "ĠÐ²ÐµÑĩ ##ÐµÑĢ",
      "ĠÑĩÐµÑĢÑĤ ##Ð°",
      "ĠÐ²ÐºÑĥÑģ ##Ð½Ñı",
      "ĠÐ¡ÑĤ ##Ð°Ð¹Ð»",
      "ĠÑĢÐ¾Ð´ ##Ð¸ÑĤÐµÐ»",
      "ĠÑĢÐ¾Ð¶Ð´ ##ÐµÐ½Ð¸Ñı",
      "ĠÐµÐ» ##Ð¾Ñĩ",
      "ĠÑģÐ½Ñı ##ÑĤÑĮÑģÑı",
      "ĠÐ²ÑĭÐ¿ÑĥÑģÐº ##Ð½Ð¾Ð¹",
      "Ðĺ ##Ð³",
      "ĠÐ¿ÑĢÐµÐ´Ð»Ð¾Ð¶ ##ÐµÐ½Ð¸Ðµ",
      "ĠÐ±Ð»Ð¸Ð¶Ð°Ð¹ÑĪ ##ÐµÐ¼",
      "ĠÑģÐºÑĢÐ¸Ð½ ##ÑĪÐ¾ÑĤÑĥ",
      "ĠÐ¾Ð±ÑıÐ· ##Ð°ÑĤÐµÐ»ÑĮÐ½Ð¾",
      "ĠÐ±ÑĢÐ°ÑĤÑĮ ##ÐµÐ²",
      "##Ð°ÑĢÑĥ ##ÑĤÐ¾",
      "ĠÐ·Ð²ÐµÐ· ##Ð´Ð°",
      "ĠSim ##s",
      "Ð ##²",
      "Ġ ##H",
      "##i ##on",
      "##o ##t",
      "##r ##e",
      "ĠÐ ##¦",
      "##Ð¾ ##Ñī",
      "##ÑĤ ##ÑĢÐ¸",
      "##Ñģ ##Ð¾Ð¼",
      "##Ð½ ##ÐµÐ³Ð¾",
      "##Ð½ ##Ð°ÐµÑĪÑĮ",
      "ĠÑĤ ##ÑĢÐµÐ½Ð´",
      "ĠÑģ ##ÑĥÐ¼",
      "ĠÑģ ##Ð¾Ð»Ð½",
      "ĠÐº ##Ð°ÑģÑĤ",
      "ĠÐº ##ÑĥÐ»ÑĮÑĤ",
      "##ÑĪ ##Ð°",
      "##Ð´ ##Ð¾Ñħ",
      "##ÐµÐ¼ ##Ð°",
      "ĠÐ¼ ##Ð°ÑĢÑĤ",
      "ĠÐ¼ ##Ð¾Ð¶ÐµÑĤ",
      "ĠÐ¼ ##Ð°ÑģÐº",
      "ĠÐ¼ ##Ð¸ÑĢÐ°",
      "##ÑģÑĤ ##Ð¸ÑĤÐµÐ»ÐµÐ¹",
      "ĠÐ± ##Ð¾Ð¸ÑĪÑĮÑģÑı",
      "##Ð¾Ð» ##ÐµÑĤ",
      "##Ð¾Ð´ ##Ð°",
      "ĠÐ· ##Ð°Ð´",
      "ĠÑĥ ##Ð¼",
      "##Ð¹ ##ÑĦÐ¾ÑĢ",
      "##ÑĨ ##ÐµÐ½",
      "##Ð½Ð¸ ##Ð¸",
      "##Ð½Ð¸ ##Ñħ",
      "ĠÐ¿ÑĢ ##Ð¾Ð´",
      "ĠÑĤÐ²Ð¾ ##ÐµÐ¼Ñĥ",
      "ĠÑĢ ##ÐµÑĪ",
      "ĠÐĵ ##ÐµÑĢÐ¾",
      "##ÐµÐ´ ##Ð°",
      "ĠÑĦ ##Ðµ",
      "ĠÐŀ ##ÑĢÐ³Ð°Ð½Ð¸Ð·",
      "##Ð¾Ð± ##Ð±Ð¸",
      "##ÑĤÐ¸ ##Ðº",
      "ĠÑģÐµÑĢÐ¸Ð°Ð» ##Ñĭ",
      "##Ð¸Ðº ##ÑĤ",
      "ĠÐľ ##Ð°Ð»",
      "ĠÐĳ ##Ð»",
      "ĠÐºÐ°ÐºÐ¾Ð¼ ##Ñĥ",
      "##Ð½Ðµ ##ÑĪ",
      "ĠÐ¿Ð¾Ñģ ##Ð²",
      "ĠÑģÐ°Ð¼ ##ÑĥÑİ",
      "ĠÐ³ÐµÑĢÐ¾Ð¸Ð½ ##Ð¸",
      "ĠÐ¿Ð¾Ð» ##Ð¾Ð²",
      "ĠÐĶÐ¶ ##ÐµÐ¹",
      "ĠÐ¿Ð» ##ÐµÐ¹Ð»Ð¸",
      "ĠÑı ##Ð·Ñĭ",
      "ĠÐ´Ð¸ÑģÐ½ÐµÐµÐ²ÑģÐº ##Ð°Ñı",
      "ĠÐķ ##Ð³",
      "ĠÐ´ÐµÑĤ ##ÑģÐºÐ°Ñı",
      "ĠÐŁÐ¾ÑĤ ##ÑĤÐµÑĢ",
      "ĠÐ¨ ##ÐµÑĢÐ»Ð¾Ðº",
      "ĠÐ¸ÑģÑĤ ##Ð¸Ð½",
      "ĠÑģÐµÑĢÐ¸Ð°Ð»ÑĮ ##Ð½ÑĭÐ¹",
      "ĠÐ¿Ð¾ÑģÐ» ##Ðµ",
      "ĠÐ·Ð¸Ð¼ ##Ð¾Ð¹",
      "ÐĴ ##Ð¾Ð»",
      "ĠÐ¿ÑĢÐ¸Ð² ##Ð»ÐµÐº",
      "ĠÐ¿Ð¾Ð´Ð°ÑĢ ##Ð¾Ðº",
      "ĠÑĦÐ°ÐºÑĤ ##Ð¾Ð²",
      "ĠÐ¸Ð¼ÐµÐ½ ##Ð°",
      "##ÑģÐ» ##Ð°Ð²",
      "Ġ9 ##0",
      "ĠÐ¿ÑĢÐ¾ÑģÑĤ ##Ð¾",
      "ĠÐ´ÑĥÐ¼ ##Ð°ÐµÑĤ",
      "ÐĿ ##Ð°ÑĢÑĥÑĤÐ¾",
      "ĠÐ±Ð¾Ð¹ÑĦÑĢÐµÐ½Ð´ ##Ð¾Ð¼",
      "ĠÐ°Ð¹Ð´Ð¾Ð» ##Ð°",
      "ĠÑĢÐ¾Ð¼Ð°Ð½ÑĤÐ¸Ñĩ ##ÐµÑģÐº",
      "ĠÐ¿Ð¸ÑĨ ##ÑĨÑĥ",
      "Ð¡Ð¿Ð»ÐµÑĤ ##Ð½Ð¸ÑĨÑĭ",
      "ĠÐ²ÐµÐ´ÑĮ ##Ð¼Ð°",
      "ĠÑĥÐ¿ÑĢÐ°Ð²Ð»Ñı ##ÐµÑĤ",
      "ĠÑħÐ¾Ñĩ ##ÐµÑĤ",
      "##ÑĥÑĢÐ³ ##ÐµÑĢ",
      "ĠÐ¿ÐµÐ¹ ##Ð·",
      "ĠÐºÐ¾Ð»ÑĮ ##ÑĨÐ¾",
      "##Ð¼ÐµÑĢÐ¸ ##ÐºÐ°Ð½",
      "ĠÐ¾Ð±Ð¼Ð°Ð½ ##Ñī",
      "ĠÐĲÐ»ÐµÐºÑģ ##Ð°Ð½Ð´",
      "ĠÐ´ÐµÐº ##Ð°Ð±",
      "ĠÐŁÑĢÐ°Ð² ##Ð´Ð°",
      "ĠÐŀÑĢÐ³Ð°Ð½Ð¸Ð· ##ÑĥÐ¹",
      "ĠÐ¿Ð»ÐµÐ¹Ð»Ð¸ ##ÑģÑĤ",
      "Ð ##¸",
      "Ġ ##W",
      "##o ##o",
      "##Ð¾ ##Ð¸",
      "##Ñĭ ##ÑĤ",
      "ĠÑĤ ##Ð°Ðº",
      "ĠÑĤ ##ÐµÐ¼",
      "ĠÐº ##Ð¾Ð»",
      "ĠÐº ##Ð¾Ðº",
      "ĠÐº ##Ð¾ÑģÑĤ",
      "##ÐµÑĢ ##Ðº",
      "##ÑĪ ##Ð½ÑĭÐ¹",
      "ĠÐ¼ ##ÐµÐ´",
      "##Ñĩ ##Ð¸ÑĤ",
      "##Ð¾Ð» ##Ð¾ÑģÑĤ",
      "##Ð°Ð´ ##ÐµÑĪÑĮ",
      "ĠÑģÐº ##Ð»Ð¾Ð½Ð½Ð°",
      "##Ð°Ð½ ##Ñĥ",
      "##Ð°Ð½ ##ÑĮ",
      "ĠÐ» ##ÐµÐ³",
      "ĠÐ´ ##ÐµÑĢ",
      "ĠÑĥ ##ÑĤ",
      "ĠÑĥ ##Ð±",
      "ĠÐ¿Ð¾ ##Ñį",
      "ĠÐ° ##Ð¿ÑĢ",
      "##Ð»Ð¸ ##Ð¹",
      "##Ð¸Ð½ ##Ð¸",
      "##Ð¸Ð½ ##Ð´",
      "##ÑĨ ##Ð¸Ð¸",
      "ĠÐ±Ñĭ ##Ð»Ð¸",
      "##Ð½Ð¸ ##ÐºÐ°",
      "ĠÑĩ ##Ð¸Ñģ",
      "ĠÑĢ ##Ð¸Ñģ",
      "##Ð¾Ð½ ##Ñĥ",
      "##Ð¾ÑĤ ##Ð²Ð¾ÑĢ",
      "ĠÑģÑĤ ##Ð¸Ð»ÑĮ",
      "##ÐµÐ² ##Ð¾Ð¹",
      "ĠÐ¿Ð¾Ð´ ##ÑĢÑĥÐ¶",
      "ĠÐ¿Ð¾Ð´ ##ÑĢÐ¾ÑģÑĤ",
      "##Ð¾Ðº ##ÑĢÐ¾Ð²",
      "ĠÐ¿ÑĢÐ¾ ##ÑģÐ»Ð°Ð²",
      "##Ð¸Ðº ##Ðµ",
      "##Ð¸Ðº ##Ð¸",
      "##Ð¿Ð¸ ##Ñĩ",
      "##ÑĪÐµ ##Ñĩ",
      "##Ð¾Ñĩ ##ÐµÐº",
      "ĠÐĶ ##ÐµÐ½ÑĮ",
      "##Ð¾ÑģÑĤ ##ÐµÐ¹",
      "ĠÐ²Ñģ ##ÐµÐ¹",
      "ĠÑĦÐ¸Ð»ÑĮÐ¼ ##Ðµ",
      "ĠÐ·Ð½Ð°Ðº ##Ð¸",
      "ĠÐ·Ð½Ð°Ðº ##Ð¾Ð¼",
      "ĠÐ²ÑģÑĤÑĢ ##ÐµÑĤ",
      "ĠÐ¥ ##Ð¾ÑĢÐ¾ÑĪ",
      "##Ð°Ð³ ##Ð¸",
      "ĠÐ½Ð¾Ð² ##ÑĭÐ¹",
      "ĠÑģÐ°Ð¼ ##Ð¾Ðµ",
      "ĠÑģÐ°Ð¼ ##Ð¾Ð»ÐµÑĤ",
      "ĠÐĽ ##Ñĥ",
      "ĠÐĽ ##ÑİÐ±",
      "ĠÑĢÐ°Ð· ##Ð³Ð°Ð´Ð°ÑĤÑĮ",
      "##ÑĥÑĪ ##ÐºÑĥ",
      "ĠÐ´ÐµÐ» ##Ð°ÑĤÑĮ",
      "ĠÐ¼ÑĥÐ¶ ##ÐµÐ¼",
      "ĠÐ¾Ð´ ##ÐµÐ¶",
      "ĠÐĹ ##Ð°Ðº",
      "ĠÐĹ ##Ð½Ð°ÐµÑĪÑĮ",
      "ĠÐ´ÑĢÑĥÐ³ ##Ð¾Ð¼",
      "ĠÐ´Ð¸ÑģÐ½ÐµÐµÐ²ÑģÐº ##Ð¸Ð¹",
      "ĠÐ²Ð»ÑİÐ± ##Ð»Ñı",
      "ÐŃ ##Ð¹ÑĦÐ¾ÑĢ",
      "ĠÑģÐµÑĢÐ¸Ð°Ð»ÑĮ ##Ð½ÑĭÑħ",
      "ĠÐ¸Ð³ ##ÑĢ",
      "ĠÑģÐ¾ÑĥÐ»Ð¼ÐµÐ¹ÑĤ ##Ð°",
      "##Ð°Ð½Ð¸ ##ÐºÑĥ",
      "ĠÐ¾Ðº ##ÑĢÑĥÐ¶",
      "ĠÐ¾Ð¿Ð¸Ñģ ##Ð°Ð½Ð¸Ñİ",
      "Ðĳ ##ÑĥÐ¼Ð°Ð¶",
      "ĠÐ¿Ð¾ÑģÑĤ ##ÑĥÐ¿",
      "ĠÐ¿Ð¾ÑĨÐµÐ» ##ÑĥÐµÑĤ",
      "ĠÐ¿ÑĢÐ¾Ð¸Ð· ##Ð²ÐµÐ´",
      "ĠÑģÐ»ÐµÐ´ÑĥÑİÑī ##ÐµÐ¹",
      "ĠÐ°Ð½Ð³ ##ÐµÐ»",
      "ĠÐ°Ð½Ð³ ##Ð»Ð¸Ð¹",
      "ĠÑģÑĤÐ¸ÐºÐµÑĢ ##Ð°Ñħ",
      "ĠÐ½Ð¾Ñĩ ##ÑĮ",
      "ĠÐĴÐ¸Ð½ ##ÐºÑģ",
      "ĠO ##ne",
      "ĠÐ±Ð» ##Ð¾Ð³",
      "ĠÐ·Ð°ÐºÐ¾Ð½Ñĩ ##Ð¸ÑĤÑģÑı",
      "ĠÑģÐµÐº ##ÑĢÐµÑĤ",
      "ĠÐ²Ð½ÑĥÑĤ ##ÑĢÐµÐ½",
      "ĠÐ»Ð¸ÑĤÐµÑĢ ##Ð°ÑĤ",
      "ĠÑįÐºÐ· ##Ð°Ð¼ÐµÐ½",
      "ĠÐ¿ÑĢÐµÐ´Ð¿Ð¾Ñĩ ##ÑĤ",
      "ĠÐ¿Ð¾ÐºÐ¾Ð» ##ÐµÐ½Ð¸Ñı",
      "ĠÐĵÐµÑĢÐ¾ ##Ð¸Ð½ÐµÐ¹",
      "Ġ ##00",
      "##Ð¾ ##ÑĦ",
      "##Ñģ ##ÐµÑĢÐ¸Ð°Ð»",
      "##Ñģ ##ÐµÐ»ÐµÐ½",
      "##Ð½ ##ÐµÑĤ",
      "##Ð½ ##Ð²Ð°ÑĢ",
      "ĠÑĤ ##Ð¾ÑĢ",
      "ĠÑĤ ##ÑĢÐ¸",
      "ĠÑĤ ##ÐµÐ»Ð°",
      "ĠÑĤ ##Ð°ÑĤÑĥ",
      "ĠÑĤ ##Ð¸ÐºÑĤ",
      "##Ðº ##Ð¾ÑĢ",
      "ĠÐ¿ ##ÐµÐ²",
      "##Ñı ##Ð³",
      "##Ð» ##ÐµÐ½Ð¸Ðµ",
      "##Ð» ##ÐµÐ¶",
      "##Ð² ##Ð°Ð´",
      "ĠÐº ##Ð°Ð½Ð¸ÐºÑĥ",
      "##ÐµÑĢ ##Ð²",
      "##ÐµÑĢ ##Ð¾Ð±",
      "ĠÐ² ##Ð¾Ñģ",
      "ĠÐ¼ ##Ð¸ÑĪ",
      "ĠÐ¼ ##Ð¾Ð¶Ð½Ð¾",
      "##Ð¼ ##Ñĥ",
      "##Ð¼ ##Ð°ÑĤ"
    ]
  }
}